{
  "version": "1.0",
  "truncation": null,
  "padding": null,
  "added_tokens": [
    {
      "id": 0,
      "content": "<unk>",
      "single_word": false,
      "lstrip": false,
      "rstrip": false,
      "normalized": false,
      "special": true
    },
    {
      "id": 1,
      "content": "<eos>",
      "single_word": false,
      "lstrip": false,
      "rstrip": false,
      "normalized": false,
      "special": true
    },
    {
      "id": 2,
      "content": "<\\eos>",
      "single_word": false,
      "lstrip": false,
      "rstrip": false,
      "normalized": false,
      "special": true
    }
  ],
  "normalizer": null,
  "pre_tokenizer": {
    "type": "Whitespace"
  },
  "post_processor": null,
  "decoder": null,
  "model": {
    "type": "BPE",
    "dropout": null,
    "unk_token": null,
    "continuing_subword_prefix": null,
    "end_of_word_suffix": null,
    "fuse_unk": false,
    "byte_fallback": false,
    "ignore_merges": false,
    "vocab": {
      "<unk>": 0,
      "<eos>": 1,
      "<\\eos>": 2,
      ".": 3,
      "/": 4,
      "0": 5,
      "1": 6,
      "2": 7,
      "3": 8,
      "4": 9,
      "5": 10,
      "6": 11,
      "7": 12,
      "8": 13,
      "9": 14,
      "_": 15,
      "a": 16,
      "b": 17,
      "c": 18,
      "d": 19,
      "e": 20,
      "f": 21,
      "g": 22,
      "h": 23,
      "i": 24,
      "j": 25,
      "k": 26,
      "l": 27,
      "m": 28,
      "n": 29,
      "o": 30,
      "p": 31,
      "q": 32,
      "r": 33,
      "s": 34,
      "t": 35,
      "u": 36,
      "v": 37,
      "w": 38,
      "x": 39,
      "y": 40,
      "z": 41,
      "à": 42,
      "á": 43,
      "â": 44,
      "ã": 45,
      "è": 46,
      "é": 47,
      "ê": 48,
      "ì": 49,
      "í": 50,
      "ð": 51,
      "ò": 52,
      "ó": 53,
      "ô": 54,
      "õ": 55,
      "ö": 56,
      "ù": 57,
      "ú": 58,
      "ý": 59,
      "ă": 60,
      "č": 61,
      "đ": 62,
      "ĩ": 63,
      "ũ": 64,
      "ơ": 65,
      "ư": 66,
      "̀": 67,
      "́": 68,
      "̂": 69,
      "̃": 70,
      "̆": 71,
      "̉": 72,
      "̛": 73,
      "̣": 74,
      "ạ": 75,
      "ả": 76,
      "ấ": 77,
      "ầ": 78,
      "ẩ": 79,
      "ẫ": 80,
      "ậ": 81,
      "ắ": 82,
      "ằ": 83,
      "ẳ": 84,
      "ẵ": 85,
      "ặ": 86,
      "ẹ": 87,
      "ẻ": 88,
      "ẽ": 89,
      "ế": 90,
      "ề": 91,
      "ể": 92,
      "ễ": 93,
      "ệ": 94,
      "ỉ": 95,
      "ị": 96,
      "ọ": 97,
      "ỏ": 98,
      "ố": 99,
      "ồ": 100,
      "ổ": 101,
      "ỗ": 102,
      "ộ": 103,
      "ớ": 104,
      "ờ": 105,
      "ở": 106,
      "ỡ": 107,
      "ợ": 108,
      "ụ": 109,
      "ủ": 110,
      "ứ": 111,
      "ừ": 112,
      "ử": 113,
      "ữ": 114,
      "ự": 115,
      "ỳ": 116,
      "ỵ": 117,
      "ỷ": 118,
      "ỹ": 119,
      "​": 120,
      "–": 121,
      "’": 122,
      "…": 123,
      "﻿": 124,
      "ng": 125,
      "nh": 126,
      "_t": 127,
      "ch": 128,
      "n_": 129,
      "th": 130,
      "ng_": 131,
      "qu": 132,
      "iệ": 133,
      "tr": 134,
      "ph": 135,
      "i_": 136,
      "t_": 137,
      "20": 138,
      "_th": 139,
      "và": 140,
      "_tr": 141,
      "nh_": 142,
      "gi": 143,
      "kh": 144,
      "ướ": 145,
      "c_": 146,
      "am": 147,
      "việ": 148,
      "củ": 149,
      "ác": 150,
      "iê": 151,
      "của": 152,
      "an": 153,
      "chí": 154,
      "hộ": 155,
      "ày": 156,
      "iế": 157,
      "u_": 158,
      "ong": 159,
      "ngày": 160,
      "t_n": 161,
      "ước": 162,
      "oà": 163,
      "quố": 164,
      "ươ": 165,
      "ại": 166,
      "ới": 167,
      "uy": 168,
      "việt_n": 169,
      "việt_nam": 170,
      "trong": 171,
      "ngh": 172,
      "iể": 173,
      "m_": 174,
      "là": 175,
      "202": 176,
      "ăm": 177,
      "đạ": 178,
      "ượ": 179,
      "ức": 180,
      "hà": 181,
      "các": 182,
      "đã": 183,
      "nước": 184,
      "ông": 185,
      "qua": 186,
      "hội": 187,
      "tổ": 188,
      "iên": 189,
      "chủ": 190,
      "đả": 191,
      "ương": 192,
      "năm": 193,
      "inh": 194,
      "iề": 195,
      "ườ": 196,
      "ân": 197,
      "phá": 198,
      "ao": 199,
      "ực": 200,
      "n_h": 201,
      "tại": 202,
      "quy": 203,
      "ược": 204,
      "ịch": 205,
      "201": 206,
      "bộ": 207,
      "ầu": 208,
      "ên": 209,
      "ần": 210,
      "ân_": 211,
      "quốc_": 212,
      "_đ": 213,
      "oá": 214,
      "ai": 215,
      "chính": 216,
      "nghị": 217,
      "với": 218,
      "ông_": 219,
      "đồ": 220,
      "kỳ": 221,
      "được": 222,
      "iều": 223,
      "đại_": 224,
      "p_": 225,
      "hội_": 226,
      "ung_": 227,
      "đảng": 228,
      "nhiệ": 229,
      "ra": 230,
      "chức": 231,
      "có": 232,
      "từ": 233,
      "_tác": 234,
      "dân": 235,
      "thứ": 236,
      "iện": 237,
      "uỷ": 238,
      "quốc": 239,
      "ất": 240,
      "ống": 241,
      "về": 242,
      "ịnh": 243,
      "_l": 244,
      "ộc": 245,
      "_c": 246,
      "tỉ": 247,
      "ình": 248,
      "trung_": 249,
      "giữ": 250,
      "19": 251,
      "t_đ": 252,
      "_m": 253,
      "ách": 254,
      "_tịch": 255,
      "n_hệ": 256,
      "thà": 257,
      "n_đ": 258,
      "vụ": 259,
      "chủ_tịch": 260,
      "quan_hệ": 261,
      "ây": 262,
      "quan": 263,
      "t_tr": 264,
      "đố": 265,
      "iển": 266,
      "quốc_hội": 267,
      "nh_ph": 268,
      "ba": 269,
      "cu": 270,
      "_s": 271,
      "oạ": 272,
      "ến": 273,
      "ững": 274,
      "sự": 275,
      "phát_tr": 276,
      "phát_triển": 277,
      "ời": 278,
      "_n": 279,
      "gia": 280,
      "ng_th": 281,
      "hoà": 282,
      "_d": 283,
      "áo": 284,
      "khoá": 285,
      "nguy": 286,
      "ập": 287,
      "ết": 288,
      "_tế": 289,
      "n_l": 290,
      "_v": 291,
      "trung_ương": 292,
      "hợ": 293,
      "ộng": 294,
      "_thư": 295,
      "ướng": 296,
      "toà": 297,
      "quả": 298,
      "công_": 299,
      "cử": 300,
      "mộ": 301,
      "đồng_": 302,
      "thủ": 303,
      "hợp": 304,
      "những": 305,
      "nhiệm_": 306,
      "công": 307,
      "bí": 308,
      "liê": 309,
      "ấp": 310,
      "lần": 311,
      "uậ": 312,
      "án": 313,
      "a_": 314,
      "sa": 315,
      "cao": 316,
      "bí_thư": 317,
      "bả": 318,
      "ội": 319,
      "nhậ": 320,
      "tổ_": 321,
      "ương_": 322,
      "10": 323,
      "ọng": 324,
      "2020": 325,
      "nhất": 326,
      "ii": 327,
      "iến": 328,
      "hành": 329,
      "2021": 330,
      "cấp": 331,
      "hai": 332,
      "_tướng": 333,
      "cho": 334,
      "11": 335,
      "đến": 336,
      "ục": 337,
      "_trị": 338,
      "hội_nghị": 339,
      "tỉnh": 340,
      "họ": 341,
      "áng": 342,
      "ộng_": 343,
      "ành": 344,
      "nhân_": 345,
      "nhiệm_kỳ": 346,
      "cuộc": 347,
      "một": 348,
      "nhà": 349,
      "biể": 350,
      "ền": 351,
      "cả": 352,
      "di": 353,
      "ường": 354,
      "ban": 355,
      "số": 356,
      "tổ_chức": 357,
      "ởng": 358,
      "đạo": 359,
      "ay": 360,
      "thủ_tướng": 361,
      "ngườ": 362,
      "anh": 363,
      "cộng_": 364,
      "_trọng": 365,
      "vào": 366,
      "ung": 367,
      "biểu": 368,
      "cơ": 369,
      "_thức": 370,
      "nh_v": 371,
      "eo": 372,
      "âu_": 373,
      "đầu": 374,
      "tiế": 375,
      "nhiều": 376,
      "hợp_tác": 377,
      "in": 378,
      "đồng_chí": 379,
      "2023": 380,
      "chỉ": 381,
      "hà_n": 382,
      "tổng_th": 383,
      "việc": 384,
      "nhân_dân": 385,
      "trên": 386,
      "lập": 387,
      "chính_trị": 388,
      "ưởng": 389,
      "diễ": 390,
      "theo": 391,
      "kinh": 392,
      "hà_nội": 393,
      "12": 394,
      "i_gi": 395,
      "sẽ": 396,
      "đoà": 397,
      "ế_": 398,
      "sau": 399,
      "nh_uỷ": 400,
      "tổng_thống": 401,
      "do": 402,
      "chính_ph": 403,
      "đại_biểu": 404,
      "chính_phủ": 405,
      "2022": 406,
      "tham": 407,
      "cơ_": 408,
      "quyế": 409,
      "liên_": 410,
      "hiện": 411,
      "người": 412,
      "họp": 413,
      "giữa": 414,
      "nguyễ": 415,
      "toàn_": 416,
      "đó": 417,
      "đối_": 418,
      "ầu_": 419,
      "kinh_tế": 420,
      "xã": 421,
      "as": 422,
      "cách": 423,
      "chấ": 424,
      "ban_": 425,
      "phó": 426,
      "hiệ": 427,
      "hồ": 428,
      "để": 429,
      "_dự": 430,
      "_chí": 431,
      "mới": 432,
      "_viên": 433,
      "t_định": 434,
      "quyết_định": 435,
      "mỹ": 436,
      "ực_": 437,
      "ang": 438,
      "bầu": 439,
      "ình_": 440,
      "lã": 441,
      "_k": 442,
      "nhà_": 443,
      "thăm": 444,
      "đồng": 445,
      "úc": 446,
      "khi": 447,
      "đây": 448,
      "quan_trọng": 449,
      "ca": 450,
      "_định": 451,
      "đối": 452,
      "ia": 453,
      "chính_thức": 454,
      "_ngh": 455,
      "giả": 456,
      "bị": 457,
      "tí": 458,
      "vă": 459,
      "anh_": 460,
      "nd": 461,
      "chiế": 462,
      "ơn": 463,
      "ổi": 464,
      "phạ": 465,
      "thế_": 466,
      "ar": 467,
      "ngoạ": 468,
      "bầu_": 469,
      "co": 470,
      "ối": 471,
      "iếu": 472,
      "nhiệm": 473,
      "_b": 474,
      "al": 475,
      "dự": 476,
      "_thành": 477,
      "giới": 478,
      "thực_": 479,
      "nh_đạo": 480,
      "uật": 481,
      "cộng_hoà": 482,
      "diễn": 483,
      "đấ": 484,
      "ớn": 485,
      "bầu_cử": 486,
      "tuy": 487,
      "ường_": 488,
      "_mạ": 489,
      "ase": 490,
      "nhà_nước": 491,
      "ng_đ": 492,
      "2019": 493,
      "i_giao": 494,
      "ngoại_giao": 495,
      "tỉnh_uỷ": 496,
      "xu": 497,
      "tham_": 498,
      "_tiên": 499,
      "thành_ph": 500,
      "xã_": 501,
      "không": 502,
      "đại_hội": 503,
      "hoạ": 504,
      "ùng": 505,
      "2018": 506,
      "tổng_": 507,
      "đảng_": 508,
      "kết": 509,
      "đoàn": 510,
      "này": 511,
      "sáng": 512,
      "ức_": 513,
      "bố": 514,
      "mạ": 515,
      "ũng": 516,
      "_tục": 517,
      "phiếu": 518,
      "iểm": 519,
      "bản": 520,
      "thành_phố": 521,
      "xi": 522,
      "asean": 523,
      "xây": 524,
      "bộ_": 525,
      "inh_": 526,
      "iệp": 527,
      "uận": 528,
      "cơ_quan": 529,
      "hơn": 530,
      "diện": 531,
      "đối_tác": 532,
      "lĩ": 533,
      "chuy": 534,
      "xé": 535,
      "iệt": 536,
      "báo": 537,
      "nguyễn_": 538,
      "đối_với": 539,
      "kế": 540,
      "_dựng": 541,
      "xây_dựng": 542,
      "nh_vực": 543,
      "lĩnh_vực": 544,
      "ên_": 545,
      "ất_": 546,
      "uỷ_viên": 547,
      "kỷ": 548,
      "thiế": 549,
      "phương": 550,
      "quyết": 551,
      "chấp_": 552,
      "tố": 553,
      "nghị_": 554,
      "quyền": 555,
      "lớn": 556,
      "châu_": 557,
      "thế_giới": 558,
      "ne": 559,
      "tiếp": 560,
      "el": 561,
      "bộ_chính_trị": 562,
      "chiến": 563,
      "thờ": 564,
      "viện": 565,
      "òng": 566,
      "đặ": 567,
      "quốc_gia": 568,
      "bảo": 569,
      "chấp_hành": 570,
      "ban_chấp_hành": 571,
      "c_đ": 572,
      "lãnh_đạo": 573,
      "_nghĩ": 574,
      "lịch": 575,
      "vị": 576,
      "_trưởng": 577,
      "ninh": 578,
      "ng_c": 579,
      "giá": 580,
      "xv": 581,
      "thông_": 582,
      "nguyên": 583,
      "sả": 584,
      "bị_c": 585,
      "ăng": 586,
      "ẩm": 587,
      "u_v": 588,
      "_minh": 589,
      "hồ_chí": 590,
      "kết_": 591,
      "hồ_chí_minh": 592,
      "mại": 593,
      "tiếp_tục": 594,
      "_nhiệm": 595,
      "xii": 596,
      "ạo": 597,
      "tới": 598,
      "như": 599,
      "15": 600,
      "cá": 601,
      "điều": 602,
      "chiều": 603,
      "gó": 604,
      "cách_mạ": 605,
      "minh": 606,
      "pháp": 607,
      "ấn_đ": 608,
      "quy_định": 609,
      "thực_hiện": 610,
      "nga": 611,
      "thiết_": 612,
      "u_vực": 613,
      "nay": 614,
      "uô": 615,
      "thương_": 616,
      "quốc_tế": 617,
      "dân_": 618,
      "hạ": 619,
      "so": 620,
      "khu_vực": 621,
      "t_động": 622,
      "đề": 623,
      "dân_t": 624,
      "mời": 625,
      "thiết_lập": 626,
      "an_": 627,
      "bắ": 628,
      "biệt": 629,
      "id": 630,
      "lợ": 631,
      "xử": 632,
      "2016": 633,
      "tuyên_": 634,
      "âu": 635,
      "ưa": 636,
      "ho": 637,
      "tháng": 638,
      "_trình": 639,
      "t_nước": 640,
      "đạt": 641,
      "thương_mại": 642,
      "u_quả": 643,
      "đất_nước": 644,
      "dân_tộc": 645,
      "30": 646,
      "đá": 647,
      "ẩy": 648,
      "tham_gia": 649,
      "truy": 650,
      "i_đ": 651,
      "đầu_tiên": 652,
      "bà": 653,
      "âm": 654,
      "ứng": 655,
      "phần": 656,
      "c_biệt": 657,
      "thành_": 658,
      "_sử": 659,
      "công_tác": 660,
      "lịch_sử": 661,
      "chống": 662,
      "hoạt_động": 663,
      "làm": 664,
      "dịch": 665,
      "er": 666,
      "ải": 667,
      "i_d": 668,
      "i_l": 669,
      "hội_đồng": 670,
      "đặc_biệt": 671,
      "oại": 672,
      "phiên": 673,
      "cách_mạng": 674,
      "n_lời": 675,
      "nhận_lời": 676,
      "thường_": 677,
      "khá": 678,
      "tích": 679,
      "mở": 680,
      "sách": 681,
      "àng": 682,
      "trở": 683,
      "_cực": 684,
      "kết_quả": 685,
      "tích_cực": 686,
      "25": 687,
      "hữ": 688,
      "hình": 689,
      "lại": 690,
      "đị": 691,
      "đang": 692,
      "197": 693,
      "_tra": 694,
      "ặt": 695,
      "ông_t": 696,
      "uỷ_": 697,
      "xã_hội": 698,
      "cán_": 699,
      "sơ": 700,
      "_thống": 701,
      "ượng": 702,
      "xét_": 703,
      "sá": 704,
      "chức_": 705,
      "14": 706,
      "_án": 707,
      "ệnh": 708,
      "nhận": 709,
      "nam": 710,
      "tà": 711,
      "hành_": 712,
      "chủ_nghĩ": 713,
      "cùng": 714,
      "nộ": 715,
      "chung": 716,
      "toàn_diện": 717,
      "chiến_l": 718,
      "_đạo": 719,
      "độ": 720,
      "ắc": 721,
      "iên_": 722,
      "2025": 723,
      "nh_viên": 724,
      "chiến_lược": 725,
      "en": 726,
      "nhân": 727,
      "nhật_": 728,
      "13": 729,
      "22": 730,
      "chỉ_đạo": 731,
      "liên_minh": 732,
      "xét_xử": 733,
      "au": 734,
      "ụng": 735,
      "thượ": 736,
      "2017": 737,
      "cũng": 738,
      "ub": 739,
      "ứng_": 740,
      "thông_t": 741,
      "dân_chủ": 742,
      "18": 743,
      "hđ": 744,
      "liên_h": 745,
      "ẹp": 746,
      "sản": 747,
      "kho": 748,
      "2015": 749,
      "hữu_": 750,
      "ta": 751,
      "ào": 752,
      "ận": 753,
      "n_b": 754,
      "thá": 755,
      "lên": 756,
      "ấn": 757,
      "hiệu_quả": 758,
      "_h": 759,
      "re": 760,
      "đoàn_": 761,
      "phạm": 762,
      "truyền": 763,
      "ựu": 764,
      "iều_": 765,
      "ubnd": 766,
      "28": 767,
      "is": 768,
      "đưa": 769,
      "_tâm": 770,
      "giáo": 771,
      "thông_qua": 772,
      "23": 773,
      "kể": 774,
      "ắng": 775,
      "ọi": 776,
      "_toà": 777,
      "_luật": 778,
      "_bình": 779,
      "trở_thành": 780,
      "hữu_nghị": 781,
      "16": 782,
      "17": 783,
      "um": 784,
      "vương_": 785,
      "đi": 786,
      "_tố": 787,
      "ực_t": 788,
      "uôn": 789,
      "rộng": 790,
      "điều_": 791,
      "thu": 792,
      "trước": 793,
      "thành_viên": 794,
      "công_bố": 795,
      "_kiến": 796,
      "giải": 797,
      "nhật_bản": 798,
      "50": 799,
      "luôn": 800,
      "vấn_đ": 801,
      "ấu": 802,
      "ợp_": 803,
      "liên_hợp_": 804,
      "vấn_đề": 805,
      "liên_hợp_quốc": 806,
      "pu": 807,
      "phòng": 808,
      "chính_": 809,
      "ngày_c": 810,
      "ai_tr": 811,
      "xiii": 812,
      "ngày_càng": 813,
      "ảy": 814,
      "n_kh": 815,
      "phụ": 816,
      "_thẩm": 817,
      "văn_h": 818,
      "uỷ_ban": 819,
      "bước": 820,
      "luật": 821,
      "ích": 822,
      "chế": 823,
      "hoà_bình": 824,
      "toàn": 825,
      "nghị_quyết": 826,
      "bình": 827,
      "òn": 828,
      "ẫn": 829,
      "bộ_trưởng": 830,
      "t_đẹp": 831,
      "tiến_": 832,
      "phạm_": 833,
      "tốt_đẹp": 834,
      "21": 835,
      "cầu": 836,
      "phúc": 837,
      "_số": 838,
      "a_phương": 839,
      "chủ_nghĩa_": 840,
      "45": 841,
      "ap": 842,
      "_tranh": 843,
      "làm_": 844,
      "văn_": 845,
      "đánh_": 846,
      "viên": 847,
      "ổi_": 848,
      "giành": 849,
      "hoàn": 850,
      "chức_vụ": 851,
      "mối": 852,
      "ua": 853,
      "xảy": 854,
      "ỉnh": 855,
      "hđnd": 856,
      "thường": 857,
      "phú": 858,
      "_trì": 859,
      "nghiệp": 860,
      "công_t": 861,
      "20202025": 862,
      "..": 863,
      "bỏ": 864,
      "tt": 865,
      "vai_tr": 866,
      "ng_đỉnh": 867,
      "cán_bộ": 868,
      "thượng_đỉnh": 869,
      "vai_trò": 870,
      "huy": 871,
      "ôi": 872,
      "_thể": 873,
      "toàn_quốc": 874,
      "24": 875,
      "_tư": 876,
      "ước_": 877,
      "iết": 878,
      "điều_tra": 879,
      "đoàn_kết": 880,
      "văn_hoá": 881,
      "27": 882,
      "iểm_": 883,
      "lợi": 884,
      "tài_": 885,
      "công_ty": 886,
      "to": 887,
      "tin": 888,
      "_đổi": 889,
      "công_an": 890,
      "đảng_bộ": 891,
      "xiv": 892,
      "thường_tr": 893,
      "00": 894,
      "bổ": 895,
      "úc_đ": 896,
      "chương": 897,
      "xã_hội_": 898,
      "àn": 899,
      "thúc_đ": 900,
      "iệm": 901,
      "_trường": 902,
      "iêu": 903,
      "iền": 904,
      "bang": 905,
      "thúc_đẩy": 906,
      "tu": 907,
      "ác_": 908,
      "ằm": 909,
      "thắ": 910,
      "phong": 911,
      "_động": 912,
      "bị_cáo": 913,
      "_phiếu": 914,
      "niên": 915,
      "si": 916,
      "đà": 917,
      "i_phạm": 918,
      "bỏ_phiếu": 919,
      "nâ": 920,
      "tạo": 921,
      "ằng": 922,
      "ủng_": 923,
      "ừa": 924,
      "an_ninh": 925,
      "hành_chính": 926,
      "thường_trực": 927,
      "gần": 928,
      "ẩn": 929,
      "_thắng": 930,
      "phát_": 931,
      "tham_dự": 932,
      "liên_quan": 933,
      "tổng_bí_thư": 934,
      "hu": 935,
      "ngoại": 936,
      "chu": 937,
      "thi_": 938,
      "iêm": 939,
      "giải_": 940,
      "dẫ": 941,
      "sâu_": 942,
      "ấy": 943,
      "ừng": 944,
      "trách": 945,
      "trưởng": 946,
      "_luận": 947,
      "n_đàn": 948,
      "diễn_đàn": 949,
      "xuân_": 950,
      "bị_can": 951,
      "thi_hành": 952,
      "kiểm": 953,
      "minh_": 954,
      "nền": 955,
      "quảng_": 956,
      "góp_": 957,
      "thường_vụ": 958,
      "truyền_thống": 959,
      "trách_nhiệm": 960,
      "bên": 961,
      "su": 962,
      "sử": 963,
      "vì": 964,
      "động": 965,
      "_tiêu": 966,
      "iệu": 967,
      "trực_t": 968,
      "_vệ": 969,
      "i_gian": 970,
      "mạnh": 971,
      "thời_gian": 972,
      "sát": 973,
      "góp_phần": 974,
      "eu": 975,
      "ki": 976,
      "một_": 977,
      "bảo_vệ": 978,
      "gh": 979,
      "mục": 980,
      "tp": 981,
      "khở": 982,
      "lào": 983,
      "toà_án": 984,
      "chuyể": 985,
      "báo_chí": 986,
      "thành_lập": 987,
      "làm_việc": 988,
      "la": 989,
      "mà": 990,
      "xe": 991,
      "đứng": 992,
      "_trí": 993,
      "n_đầu": 994,
      "chuyến": 995,
      "cam": 996,
      "liên": 997,
      "tư": 998,
      "tập": 999,
      "trao": 1000,
      "_tri": 1001,
      "hàng_": 1002,
      "trung_quốc": 1003,
      "cử_tri": 1004,
      "chỉ_số": 1005,
      "mạnh_": 1006,
      "thắng_": 1007,
      "dẫn_đầu": 1008,
      "26": 1009,
      "29": 1010,
      "ir": 1011,
      "mẽ": 1012,
      "us": 1013,
      "ái": 1014,
      "ơn_": 1015,
      "ốt": 1016,
      "nhằm": 1017,
      "n_v": 1018,
      "giờ": 1019,
      "giao": 1020,
      "_đô": 1021,
      "thời_": 1022,
      "thái_": 1023,
      "mạnh_mẽ": 1024,
      "thắng_lợi": 1025,
      "ec": 1026,
      "gây": 1027,
      "lễ": 1028,
      "ăng_c": 1029,
      "_thị": 1030,
      "thông_tin": 1031,
      "mục_tiêu": 1032,
      "cựu": 1033,
      "es": 1034,
      "lực": 1035,
      "on": 1036,
      "sắc": 1037,
      "tiê": 1038,
      "vid": 1039,
      "ngừng": 1040,
      "triều": 1041,
      "thủ_đô": 1042,
      "đóng_": 1043,
      "chiến_thắng": 1044,
      "ump": 1045,
      "chủ_nghĩa_việt_nam": 1046,
      "xã_hội_chủ_nghĩa_việt_nam": 1047,
      "bình_": 1048,
      "duy": 1049,
      "ký": 1050,
      "vi_phạm": 1051,
      "òng_": 1052,
      "quân_": 1053,
      "góp": 1054,
      "nâng": 1055,
      "tăng": 1056,
      "đổi_": 1057,
      "ọn": 1058,
      "ống_": 1059,
      "thanh_": 1060,
      "covid": 1061,
      "cộng_hoà_": 1062,
      "nghị_viện": 1063,
      "tiêu_": 1064,
      "đổi_mới": 1065,
      "tất_": 1066,
      "ổ_": 1067,
      "chất": 1068,
      "phòng_": 1069,
      "and": 1070,
      "học": 1071,
      "don": 1072,
      "20162021": 1073,
      "cộng_hoà_xã_hội_chủ_nghĩa_việt_nam": 1074,
      "cần": 1075,
      "ảo": 1076,
      "khác": 1077,
      "đầu_tư": 1078,
      "chất_": 1079,
      "tính": 1080,
      "đóng_góp": 1081,
      "bề": 1082,
      "tự": 1083,
      "ngoà": 1084,
      "thể": 1085,
      "n_lý": 1086,
      "nhiệm_vụ": 1087,
      "người_": 1088,
      "_nghiệp": 1089,
      "xét": 1090,
      "phiên_toà": 1091,
      "phạm_minh_": 1092,
      "một_số": 1093,
      "tất_cả": 1094,
      "donal": 1095,
      "cứ": 1096,
      "hướng": 1097,
      "jo": 1098,
      "qđ": 1099,
      "điểm": 1100,
      "ần_": 1101,
      "_tạo": 1102,
      "chia": 1103,
      "_thủ": 1104,
      "quản_lý": 1105,
      "cộng_đồng": 1106,
      "kỷ_luật": 1107,
      "phòng_chống": 1108,
      "hoá": 1109,
      "sia": 1110,
      "vừa": 1111,
      "quá": 1112,
      "_trump": 1113,
      "m_xét": 1114,
      "giang": 1115,
      "dự_kiến": 1116,
      "ủng_hộ": 1117,
      "donald": 1118,
      "gồ": 1119,
      "po": 1120,
      "oát": 1121,
      "thành_uỷ": 1122,
      "sự_k": 1123,
      "tổ_quốc": 1124,
      "nguyễn_xuân_": 1125,
      "tiến_hành": 1126,
      "ngoài": 1127,
      "người_dân": 1128,
      "gồm": 1129,
      "sự_kiện": 1130,
      "bch": 1131,
      "tinh": 1132,
      "ăn": 1133,
      "196": 1134,
      "thành": 1135,
      "oạn": 1136,
      "sự_nghiệp": 1137,
      "nguyễn": 1138,
      "châu_âu_": 1139,
      "apec": 1140,
      "donald_trump": 1141,
      "dướ": 1142,
      "dấu": 1143,
      "il": 1144,
      "mặt": 1145,
      "sinh": 1146,
      "ập_": 1147,
      "nhũng": 1148,
      "_trung": 1149,
      "đồng_th": 1150,
      "tham_nhũng": 1151,
      "ứng_cử": 1152,
      "dưới": 1153,
      "miền": 1154,
      "ăng_": 1155,
      "ảng": 1156,
      "khí": 1157,
      "iến_": 1158,
      "pháp_": 1159,
      "hàng_đầu": 1160,
      "phạm_minh_chính": 1161,
      "kiểm_": 1162,
      "lê": 1163,
      "lượng": 1164,
      "tăng_c": 1165,
      "ầm": 1166,
      "phân_": 1167,
      "_thuận": 1168,
      "ượt": 1169,
      "_lực": 1170,
      "tăng_cường": 1171,
      "vĩ": 1172,
      "ậy": 1173,
      "ắc_": 1174,
      "ối_": 1175,
      "thay": 1176,
      "phẩm": 1177,
      "phải": 1178,
      "_thế": 1179,
      "_trào": 1180,
      "củng_c": 1181,
      "nghiêm": 1182,
      "_sở": 1183,
      "xuất_": 1184,
      "sơ_thẩm": 1185,
      "khởi": 1186,
      "củng_cố": 1187,
      "nó": 1188,
      "tỷ": 1189,
      "yê": 1190,
      "ài": 1191,
      "ật": 1192,
      "ối_l": 1193,
      "ng_t": 1194,
      "thống_": 1195,
      "triể": 1196,
      "đảo": 1197,
      "199": 1198,
      "liên_bang": 1199,
      "đối_ngoại": 1200,
      "tuyên_bố": 1201,
      "thuộc": 1202,
      "hệ": 1203,
      "hối_l": 1204,
      "lý": 1205,
      "_thúc": 1206,
      "hoạch": 1207,
      "tài_sản": 1208,
      "phong_trào": 1209,
      "thể_": 1210,
      "nguyễn_xuân_phúc": 1211,
      "thống_nhất": 1212,
      "hối_lộ": 1213,
      "còn": 1214,
      "hả": 1215,
      "hậ": 1216,
      "nữ": 1217,
      "ăn_": 1218,
      "đông_": 1219,
      "ạn": 1220,
      "_thần": 1221,
      "iếp": 1222,
      "cuba": 1223,
      "kết_thúc": 1224,
      "n_vững": 1225,
      "bền_vững": 1226,
      "tinh_thần": 1227,
      "khởi_tố": 1228,
      "ai_": 1229,
      "hình_": 1230,
      "kế_": 1231,
      "mọi": 1232,
      "va": 1233,
      "ỏi": 1234,
      "ốc": 1235,
      "_thông": 1236,
      "2026": 1237,
      "chiến_": 1238,
      "i_dung": 1239,
      "địa_phương": 1240,
      "nội_dung": 1241,
      "thanh_niên": 1242,
      "dương": 1243,
      "lệnh": 1244,
      "mo": 1245,
      "ti": 1246,
      "đa": 1247,
      "đẩy": 1248,
      "n_đổi": 1249,
      "giai_đ": 1250,
      "nguyễn_phú": 1251,
      "thành_công": 1252,
      "chương_trình": 1253,
      "giai_đoạn": 1254,
      "tw": 1255,
      "tình_": 1256,
      "óm": 1257,
      "ấn_": 1258,
      "ầm_": 1259,
      "ẳng_đ": 1260,
      "_tu": 1261,
      "phí": 1262,
      "khẳng_đ": 1263,
      "a_kỳ": 1264,
      "vị_trí": 1265,
      "sản_": 1266,
      "nội_": 1267,
      "n_khai": 1268,
      "triển_khai": 1269,
      "khẳng_định": 1270,
      "bằng": 1271,
      "lo": 1272,
      "rai": 1273,
      "ãnh_đạo": 1274,
      "đơn_": 1275,
      "chọn": 1276,
      "hàn_": 1277,
      "_lãnh_đạo": 1278,
      "nhà_lãnh_đạo": 1279,
      "đấu": 1280,
      "sáng_tạo": 1281,
      "hoa_kỳ": 1282,
      "đánh_giá": 1283,
      "rất": 1284,
      "vi": 1285,
      "đình_": 1286,
      "ốn": 1287,
      "nhau": 1288,
      "nghệ": 1289,
      "m_d": 1290,
      "song_": 1291,
      "hình_thức": 1292,
      "phục_": 1293,
      "duy_trì": 1294,
      "ứng_cử_viên": 1295,
      "tầm": 1296,
      "vấn": 1297,
      "vẫn": 1298,
      "vượt": 1299,
      "y_tế": 1300,
      "puchia": 1301,
      "campuchia": 1302,
      "kế_hoạch": 1303,
      "hàn_quốc": 1304,
      "song_phương": 1305,
      "_kh": 1306,
      "lao": 1307,
      "nỗ": 1308,
      "nước_": 1309,
      "uk": 1310,
      "âm_": 1311,
      "thị": 1312,
      "_trương": 1313,
      "quyề": 1314,
      "đại_diện": 1315,
      "toàn_cầu": 1316,
      "bắc_": 1317,
      "hoàn_thành": 1318,
      "nguyễn_phú_trọng": 1319,
      "đơn_vị": 1320,
      "nỗ_lực": 1321,
      "_rộng": 1322,
      "mặ": 1323,
      "ỗi": 1324,
      "nhóm": 1325,
      "trung": 1326,
      "cảnh": 1327,
      "châu_âu": 1328,
      "mở_rộng": 1329,
      "kim_": 1330,
      "raine": 1331,
      "lao_động": 1332,
      "ukraine": 1333,
      "cầm_": 1334,
      "vùng": 1335,
      "ìn": 1336,
      "ậu": 1337,
      "sang": 1338,
      "vương_quốc": 1339,
      "chất_vấn": 1340,
      "thể_hiện": 1341,
      "cầm_quyền": 1342,
      "ab": 1343,
      "da": 1344,
      "kiện": 1345,
      "mang": 1346,
      "oả": 1347,
      "sống": 1348,
      "tạ": 1349,
      "ưu": 1350,
      "_tưởng": 1351,
      "_trợ": 1352,
      "tổng_t": 1353,
      "oán": 1354,
      "nghị_s": 1355,
      "n_định": 1356,
      "iii": 1357,
      "20212026": 1358,
      "bổ_nhiệm": 1359,
      "chuẩn": 1360,
      "quảng_ninh": 1361,
      "tập_trung": 1362,
      "triều_tiên": 1363,
      "31": 1364,
      "hô": 1365,
      "mỗi": 1366,
      "ý_nghĩ": 1367,
      "nhập": 1368,
      "200": 1369,
      "khỏi": 1370,
      "cảnh_": 1371,
      "phóng": 1372,
      "giải_phóng": 1373,
      "covid19": 1374,
      "quá_trình": 1375,
      "đồng_thời": 1376,
      "ý_nghĩa": 1377,
      "gọi": 1378,
      "ix": 1379,
      "úng": 1380,
      "ắp": 1381,
      "ện": 1382,
      "quân": 1383,
      "ất_th": 1384,
      "t_đầu": 1385,
      "_do": 1386,
      "_dụng": 1387,
      "_thưởng": 1388,
      "hiện_": 1389,
      "châu_á": 1390,
      "bắt_đầu": 1391,
      "sử_dụng": 1392,
      "tội": 1393,
      "ơi": 1394,
      "ếu": 1395,
      "phê": 1396,
      "_thu": 1397,
      "hàng": 1398,
      "ban_bí_thư": 1399,
      "ngapo": 1400,
      "1973": 1401,
      "chính_quyền": 1402,
      "cứu": 1403,
      "châu_âu_eu": 1404,
      "ngapore": 1405,
      "biên_": 1406,
      "cổ_": 1407,
      "đức": 1408,
      "ngân_": 1409,
      "trần_": 1410,
      "_dục": 1411,
      "hạ_": 1412,
      "i_đua": 1413,
      "giáo_dục": 1414,
      "chính_sách": 1415,
      "singapore": 1416,
      "suốt": 1417,
      "cổ_phần": 1418,
      "rõ": 1419,
      "xế": 1420,
      "thảo": 1421,
      "triệu": 1422,
      "_mạnh": 1423,
      "đề_": 1424,
      "điều_động": 1425,
      "thời_kỳ": 1426,
      "phân_công": 1427,
      "đẩy_mạnh": 1428,
      "thảo_luận": 1429,
      "gắ": 1430,
      "lời": 1431,
      "man": 1432,
      "or": 1433,
      "pa": 1434,
      "thi_đua": 1435,
      "phối_": 1436,
      "uyến": 1437,
      "chủ_đ": 1438,
      "198": 1439,
      "_niệm": 1440,
      "done": 1441,
      "kỷ_niệm": 1442,
      "tuyên_án": 1443,
      "định_": 1444,
      "vương_đình_": 1445,
      "...": 1446,
      "huệ": 1447,
      "trực_tiếp": 1448,
      "xem_xét": 1449,
      "tự_do": 1450,
      "chủ_đề": 1451,
      "vương_đình_huệ": 1452,
      "luận": 1453,
      "mức": 1454,
      "mar": 1455,
      "tây": 1456,
      "tương_": 1457,
      "vậ": 1458,
      "thôi": 1459,
      "trư": 1460,
      "trụ": 1461,
      "trải": 1462,
      "phu_": 1463,
      "quốc_phòng": 1464,
      "đại_hội_đồng": 1465,
      "từng": 1466,
      "cuộ": 1467,
      "quyết_": 1468,
      "con_": 1469,
      "chiến_tranh": 1470,
      "phát_huy": 1471,
      "ghế": 1472,
      "đấu_tranh": 1473,
      "hạ_viện": 1474,
      "phối_hợp": 1475,
      "de": 1476,
      "nông_": 1477,
      "par": 1478,
      "un": 1479,
      "võ": 1480,
      "trọ": 1481,
      "_thực": 1482,
      "_lý": 1483,
      "indone": 1484,
      "ban_hành": 1485,
      "bảo_": 1486,
      "khoa_": 1487,
      "phúc_thẩm": 1488,
      "sâu_rộng": 1489,
      "bình_dương": 1490,
      "thành_t": 1491,
      "hình_sự": 1492,
      "phu_nhân": 1493,
      "indonesia": 1494,
      "70": 1495,
      "_g": 1496,
      "cụ": 1497,
      "cực": 1498,
      "gặ": 1499,
      "nên": 1500,
      "ri": 1501,
      "tiến": 1502,
      "xuy": 1503,
      "ặc": 1504,
      "việt_": 1505,
      "_lan": 1506,
      "quan_tâm": 1507,
      "hồi": 1508,
      "lãnh": 1509,
      "_kết": 1510,
      "thế_kỷ": 1511,
      "tối_": 1512,
      "giám_": 1513,
      "xvn": 1514,
      "nam_": 1515,
      "aus": 1516,
      "nước_ngoài": 1517,
      "54": 1518,
      "cục": 1519,
      "em": 1520,
      "lh": 1521,
      "ma": 1522,
      "nơi": 1523,
      "tác_": 1524,
      "vòng": 1525,
      "ý_kiến": 1526,
      "đường": 1527,
      "ển_": 1528,
      "_toán": 1529,
      "châu": 1530,
      "n_nhiệm": 1531,
      "thoả": 1532,
      "u_cầu": 1533,
      "quan_": 1534,
      "hội_đồng_": 1535,
      "_sung": 1536,
      "_nữ": 1537,
      "nhưng": 1538,
      "_toàn": 1539,
      "phụ_nữ": 1540,
      "đánh_dấu": 1541,
      "bổ_sung": 1542,
      "tuổi": 1543,
      "trực_tuyến": 1544,
      "tiêu_cực": 1545,
      "pháp_luật": 1546,
      "hệ_thống": 1547,
      "_chuẩn": 1548,
      "căn_": 1549,
      "di_": 1550,
      "hết": 1551,
      "mình": 1552,
      "ồn": 1553,
      "chưa": 1554,
      "quang": 1555,
      "_đức": 1556,
      "cộng_sản_": 1557,
      "chỉ_định": 1558,
      "tuyên": 1559,
      "đảng_cộng_sản_": 1560,
      "i_lan": 1561,
      "độc_": 1562,
      "phê_chuẩn": 1563,
      "xuyên": 1564,
      "thoả_thuận": 1565,
      "đảng_cộng_sản_việt_nam": 1566,
      "40": 1567,
      "bạ": 1568,
      "iễ": 1569,
      "ong_": 1570,
      "xung_": 1571,
      "́c": 1572,
      "_tổ": 1573,
      "thấy": 1574,
      "tral": 1575,
      "đảm_": 1576,
      "_lớn": 1577,
      "cộng_sản": 1578,
      "thực_chất": 1579,
      "ấn_độ": 1580,
      "to_lớn": 1581,
      "chuyển": 1582,
      "biên_chế": 1583,
      "tối_cao": 1584,
      "austral": 1585,
      "độc_lập": 1586,
      "_chức": 1587,
      "biế": 1588,
      "dụng": 1589,
      "ôn": 1590,
      "đắc_": 1591,
      "ạnh": 1592,
      "ần_l": 1593,
      "ổn_định": 1594,
      "i_cảnh": 1595,
      "uyển_": 1596,
      "m_chức": 1597,
      "chủ_": 1598,
      "chủ_trì": 1599,
      "n_hình": 1600,
      "quản": 1601,
      "nhậm_chức": 1602,
      "hiệp": 1603,
      "coi": 1604,
      "đảng_viên": 1605,
      "bối_cảnh": 1606,
      "iden": 1607,
      "sáng_": 1608,
      "trao_đổi": 1609,
      "nghiêm_trọng": 1610,
      "chiến_dịch": 1611,
      "tin_": 1612,
      "tổng_tuyển_": 1613,
      "con_người": 1614,
      "thành_tựu": 1615,
      "tổng_tuyển_cử": 1616,
      "60": 1617,
      "_vụ": 1618,
      "_chủ_tịch": 1619,
      "cấ": 1620,
      "dương_": 1621,
      "hiến_": 1622,
      "ké": 1623,
      "mốc": 1624,
      "năng": 1625,
      "tế": 1626,
      "tối": 1627,
      "ngành": 1628,
      "_tán": 1629,
      "không_": 1630,
      "chủ_nhiệm": 1631,
      "_lệ": 1632,
      "oạt": 1633,
      "hoàng": 1634,
      "_văn": 1635,
      "công_nghệ": 1636,
      "doanh_": 1637,
      "dịch_vụ": 1638,
      "ttxvn": 1639,
      "cần_th": 1640,
      "hậu_quả": 1641,
      "lhq": 1642,
      "bu": 1643,
      "bao": 1644,
      "biết": 1645,
      "danh_": 1646,
      "e_b": 1647,
      "me": 1648,
      "ro": 1649,
      "sh": 1650,
      "sức_": 1651,
      "tiề": 1652,
      "đội": 1653,
      "_tử": 1654,
      "trị": 1655,
      "t_s": 1656,
      "_đại": 1657,
      "đốc": 1658,
      "văn": 1659,
      "tổng_số": 1660,
      "giá_trị": 1661,
      "hạng": 1662,
      "bắt": 1663,
      "cán_sự": 1664,
      "hành_động": 1665,
      "20152020": 1666,
      "sâu_sắc": 1667,
      "tăng_trưởng": 1668,
      "joe_b": 1669,
      "hải_": 1670,
      "tình_hình": 1671,
      "khoa_học": 1672,
      "australia": 1673,
      "đắc_cử": 1674,
      "bre": 1675,
      "cung_": 1676,
      "môi": 1677,
      "soát": 1678,
      "uel": 1679,
      "vũ": 1680,
      "út": 1681,
      "điệ": 1682,
      "trí": 1683,
      "i_cách": 1684,
      "khó": 1685,
      "khẩn": 1686,
      "khai_": 1687,
      "m_phá": 1688,
      "n_hạn": 1689,
      "bộ_luật": 1690,
      "1945": 1691,
      "công_đoàn": 1692,
      "cải_cách": 1693,
      "tiếp_": 1694,
      "cơ_chế": 1695,
      "dự_án": 1696,
      "iran": 1697,
      "kiểm_soát": 1698,
      "mặt_tr": 1699,
      "gặp": 1700,
      "môi_trường": 1701,
      "khẩn_trương": 1702,
      "_nh": 1703,
      "cp": 1704,
      "hy": 1705,
      "nă": 1706,
      "o_d": 1707,
      "vn": 1708,
      "úp": 1709,
      "đường_": 1710,
      "ngu": 1711,
      "chi": 1712,
      "trẻ": 1713,
      "tranh_": 1714,
      "phủ": 1715,
      "i_ích": 1716,
      "_thương": 1717,
      "giúp": 1718,
      "ana": 1719,
      "2013": 1720,
      "_đời": 1721,
      "aipa": 1722,
      "đại_dịch": 1723,
      "cơ_sở": 1724,
      "hiệu_": 1725,
      "xit": 1726,
      "lợi_ích": 1727,
      "_hậu": 1728,
      "sửa": 1729,
      "khí_hậu": 1730,
      "nữa": 1731,
      "quyền_hạn": 1732,
      "tạm": 1733,
      "nghị_sĩ": 1734,
      "ngân_sách": 1735,
      "hiến_pháp": 1736,
      "doanh_nghiệp": 1737,
      "mặt_trận": 1738,
      "99": 1739,
      "bệnh": 1740,
      "cáo": 1741,
      "cạnh": 1742,
      "du_": 1743,
      "lẫn": 1744,
      "năng_": 1745,
      "o_": 1746,
      "sâu": 1747,
      "xx": 1748,
      "ám": 1749,
      "ác_đ": 1750,
      "ắt": 1751,
      "ọc": 1752,
      "ngay": 1753,
      "thê": 1754,
      "trường_": 1755,
      "t_ch": 1756,
      "khối": 1757,
      "việt": 1758,
      "2014": 1759,
      "có_thể": 1760,
      "giảm": 1761,
      "hạn": 1762,
      "xử_lý": 1763,
      "kháng_": 1764,
      "sơ_tán": 1765,
      "hiện_nay": 1766,
      "trưở": 1767,
      "brexit": 1768,
      "m_phán": 1769,
      "sửa_đổi": 1770,
      "biển": 1771,
      "cương_": 1772,
      "cường": 1773,
      "liệt": 1774,
      "lấy": 1775,
      "tên": 1776,
      "yếu": 1777,
      "ạp": 1778,
      "thă": 1779,
      "ng_phí": 1780,
      "trả": 1781,
      "_thanh_": 1782,
      "p_hạng": 1783,
      "194": 1784,
      "_mặt": 1785,
      "hiệp_": 1786,
      "lãng_phí": 1787,
      "xuất": 1788,
      "n_biến": 1789,
      "chuyển_đổi": 1790,
      "phục_vụ": 1791,
      "kim_j": 1792,
      "abe": 1793,
      "cảnh_sát": 1794,
      "xếp_hạng": 1795,
      "định_hướng": 1796,
      "iễn": 1797,
      "hiệp_định": 1798,
      "joe_biden": 1799,
      "hiệu_lực": 1800,
      "bi": 1801,
      "du": 1802,
      "dư": 1803,
      "hỗ": 1804,
      "kê": 1805,
      "lu": 1806,
      "vữ": 1807,
      "đa_phương": 1808,
      "ửa": 1809,
      "_tụ": 1810,
      "chặ": 1811,
      "phi": 1812,
      "giam": 1813,
      "khẩ": 1814,
      "ongun": 1815,
      "oàn": 1816,
      "_cáo": 1817,
      "công_dân": 1818,
      "công_nghiệp": 1819,
      "100": 1820,
      "nh_uỷ_viên": 1821,
      "cơ_bản": 1822,
      "xuân": 1823,
      "báo_cáo": 1824,
      "son": 1825,
      "lợi_d": 1826,
      "1975": 1827,
      "thái_lan": 1828,
      "tư_tưởng": 1829,
      "thái_bình": 1830,
      "quân_đội": 1831,
      "vĩ_đại": 1832,
      "yêu_cầu": 1833,
      "m_dò": 1834,
      "_khăn": 1835,
      "tác_phẩm": 1836,
      "tin_c": 1837,
      "kéo_d": 1838,
      "điện_b": 1839,
      "khó_khăn": 1840,
      "du_lịch": 1841,
      "kháng_chiến": 1842,
      "thăm_dò": 1843,
      "kim_jongun": 1844,
      "vững_": 1845,
      "lợi_dụng": 1846,
      "kéo_dài": 1847,
      "cs": 1848,
      "dc": 1849,
      "tái": 1850,
      "we": 1851,
      "đại": 1852,
      "ĩ_": 1853,
      "ĩnh": 1854,
      "ẵng": 1855,
      "ịp": 1856,
      "thất_th": 1857,
      "quý": 1858,
      "hội_nhập": 1859,
      "_nẵng": 1860,
      "công_cuộc": 1861,
      "phạt": 1862,
      "tốt": 1863,
      "đều": 1864,
      "khoả": 1865,
      "n_khổ": 1866,
      "đà_nẵng": 1867,
      "kiểm_tra": 1868,
      "xuất_sắc": 1869,
      "tỷ_lệ": 1870,
      "yêu": 1871,
      "trung_tâm": 1872,
      "trụ_sở": 1873,
      "nam_á": 1874,
      "tin_cậy": 1875,
      "thất_thoát": 1876,
      "36": 1877,
      "_hoàng": 1878,
      "bất_": 1879,
      "danh": 1880,
      "hc": 1881,
      "li": 1882,
      "lối": 1883,
      "rời": 1884,
      "đương_": 1885,
      "ời_": 1886,
      "nhìn": 1887,
      "thách": 1888,
      "thiếu": 1889,
      "_thiện": 1890,
      "_thanh": 1891,
      "_thoại": 1892,
      "hà_lan": 1893,
      "chủ_động": 1894,
      "ra_đời": 1895,
      "đạo_đức": 1896,
      "toàn_bộ": 1897,
      "ng_động": 1898,
      "new": 1899,
      "đề_c": 1900,
      "thường_xuyên": 1901,
      "nói": 1902,
      "nói_": 1903,
      "đông_nam_á": 1904,
      "biến_đổi": 1905,
      "quản_trị": 1906,
      "năng_động": 1907,
      "hỗ_trợ": 1908,
      "ci": 1909,
      "dấ": 1910,
      "kinh_": 1911,
      "lực_": 1912,
      "ns": 1913,
      "nổi": 1914,
      "pp": 1915,
      "tì": 1916,
      "ya": 1917,
      "ãi": 1918,
      "óc": 1919,
      "ô_": 1920,
      "ý_chí": 1921,
      "ắn": 1922,
      "ợi": 1923,
      "nhĩ_": 1924,
      "thu_": 1925,
      "thực_t": 1926,
      "thổ_": 1927,
      "_trung_": 1928,
      "aysia": 1929,
      "liên_kết": 1930,
      "tín_nhiệm": 1931,
      "alaysia": 1932,
      "đảng_uỷ": 1933,
      "mạc": 1934,
      "bảo_thủ": 1935,
      "c_đời": 1936,
      "vị_thế": 1937,
      "thông_báo": 1938,
      "hoa": 1939,
      "truyền_thông": 1940,
      "điều_kiện": 1941,
      "putin": 1942,
      "000": 1943,
      "quân_sự": 1944,
      "nguyễn_thị": 1945,
      "_tuệ": 1946,
      "đề_nghị": 1947,
      "cuộc_đời": 1948,
      "khai_mạc": 1949,
      "trường_hợp": 1950,
      "thách_thức": 1951,
      "dấu_": 1952,
      "nhĩ_kỳ": 1953,
      "thực_tiễn": 1954,
      "thổ_nhĩ_kỳ": 1955,
      "80": 1956,
      "90": 1957,
      "cư": 1958,
      "e_": 1959,
      "esa": 1960,
      "ja": 1961,
      "mức_": 1962,
      "tình": 1963,
      "vốn": 1964,
      "xác_": 1965,
      "đô": 1966,
      "động_": 1967,
      "̣c": 1968,
      "ầy": 1969,
      "ừa_": 1970,
      "ng_uỷ_viên": 1971,
      "phả": 1972,
      "_thệ": 1973,
      "khuô": 1974,
      "bảng": 1975,
      "biểu_": 1976,
      "cách_mạng_th": 1977,
      "khám_xét": 1978,
      "chủ_nghĩa": 1979,
      "thái_bình_dương": 1980,
      "thay_đổi": 1981,
      "_thuộc": 1982,
      "tuyên_thệ": 1983,
      "danh_sách": 1984,
      "trí_tuệ": 1985,
      "44": 1986,
      "55": 1987,
      "cận": 1988,
      "dp": 1989,
      "ha": 1990,
      "hế": 1991,
      "kiên_": 1992,
      "lự": 1993,
      "long": 1994,
      "mu": 1995,
      "malaysia": 1996,
      "qh": 1997,
      "ru": 1998,
      "t_thực": 1999,
      "vu": 2000,
      "xác_đ": 2001,
      "điện": 2002,
      "điệp": 2003,
      "đời_": 2004,
      "ứt": 2005,
      "chú": 2006,
      "_thân": 2007,
      "2024": 2008,
      "_con": 2009,
      "n_động": 2010,
      "nh_phúc": 2011,
      "quảng": 2012,
      "công_vụ": 2013,
      "a_chọn": 2014,
      "cơ_quan_": 2015,
      "nguyễn_đ": 2016,
      "chấm_d": 2017,
      "đối_thoại": 2018,
      "thiết_thực": 2019,
      "quyết_tâm": 2020,
      "đặt": 2021,
      "xvii": 2022,
      "i_dương": 2023,
      "thượng_": 2024,
      "thông_tấn_": 2025,
      "khoảng": 2026,
      "đàm_phán": 2027,
      "usd": 2028,
      "hải_dương": 2029,
      "âm_l": 2030,
      "bao_": 2031,
      "đường_lối": 2032,
      "cương_vị": 2033,
      "khẩu": 2034,
      "mức_độ": 2035,
      "khuôn_khổ": 2036,
      "lựa_chọn": 2037,
      "xác_định": 2038,
      "đời_sống": 2039,
      "chấm_dứt": 2040,
      "thông_tấn_xã": 2041,
      "az": 2042,
      "ara": 2043,
      "g7": 2044,
      "hi": 2045,
      "loại": 2046,
      "nổi_": 2047,
      "pap": 2048,
      "sơn": 2049,
      "viết": 2050,
      "ze": 2051,
      "đầy": 2052,
      "ỡng": 2053,
      "_tiến": 2054,
      "trực": 2055,
      "khả": 2056,
      "iêng": 2057,
      "nghiệm": 2058,
      "rael": 2059,
      "thứ_trưởng": 2060,
      "_lời": 2061,
      "t_đai": 2062,
      "_vọng": 2063,
      "đất_đai": 2064,
      "thông_điệp": 2065,
      "bàn": 2066,
      "israel": 2067,
      "tiến_bộ": 2068,
      "kiểm_toán": 2069,
      "đa_số": 2070,
      "phục_hồi": 2071,
      "võ_văn": 2072,
      "cụ_thể": 2073,
      "hội_đồng_nhân_dân": 2074,
      "cấp_": 2075,
      "không_chỉ": 2076,
      "nguồn": 2077,
      "t_chẽ": 2078,
      "trả_lời": 2079,
      "chặt_chẽ": 2080,
      "lực_lượng": 2081,
      "biểu_quyết": 2082,
      "75": 2083,
      "bậ": 2084,
      "bế": 2085,
      "bác_": 2086,
      "bật": 2087,
      "dành": 2088,
      "ham": 2089,
      "hid": 2090,
      "hơn_": 2091,
      "kiến": 2092,
      "lâu_": 2093,
      "nào": 2094,
      "riêng": 2095,
      "tv": 2096,
      "vận": 2097,
      "ánh": 2098,
      "ép": 2099,
      "đủ": 2100,
      "̣i": 2101,
      "ạng": 2102,
      "ạch": 2103,
      "ắk": 2104,
      "ột": 2105,
      "nhanh": 2106,
      "nhất_": 2107,
      "thư": 2108,
      "iện_": 2109,
      "_thời": 2110,
      "iểu": 2111,
      "đảm": 2112,
      "thủ_tục": 2113,
      "học_": 2114,
      "diễn_biến": 2115,
      "con": 2116,
      "xix": 2117,
      "thời_đ": 2118,
      "xvi": 2119,
      "tuyên_giáo": 2120,
      "hoặc": 2121,
      "bà_con": 2122,
      "n_bó": 2123,
      "is_": 2124,
      "văn_phòng": 2125,
      "phát_biểu": 2126,
      "giao_thông": 2127,
      "ili": 2128,
      "gắn_bó": 2129,
      "quyết_liệt": 2130,
      "việt_á": 2131,
      "thêm": 2132,
      "wef": 2133,
      "new_": 2134,
      "nổi_bật": 2135,
      "trực_thuộc": 2136,
      "võ_văn_thưởng": 2137,
      "bậc": 2138,
      "hơn_nữa": 2139,
      "37": 2140,
      "68": 2141,
      "_nhân": 2142,
      "bỉ": 2143,
      "bác": 2144,
      "bel": 2145,
      "bước_": 2146,
      "dù": 2147,
      "hay": 2148,
      "kiệm": 2149,
      "mi": 2150,
      "mir": 2151,
      "tan": 2152,
      "vii": 2153,
      "xâm_l": 2154,
      "ái_": 2155,
      "ôi_": 2156,
      "đáng": 2157,
      "đăng_": 2158,
      "̀ng": 2159,
      "ngo": 2160,
      "trọng": 2161,
      "phương_": 2162,
      "khuy": 2163,
      "viện_": 2164,
      "p_ứng": 2165,
      "_ma": 2166,
      "_năng": 2167,
      "n_lực": 2168,
      "n_lợi": 2169,
      "dimir": 2170,
      "cơ_hội": 2171,
      "ary": 2172,
      "arus": 2173,
      "kết_luận": 2174,
      "đáp_ứng": 2175,
      "hình_thành": 2176,
      "giải_thưởng": 2177,
      "ghi_": 2178,
      "cam_kết": 2179,
      "chất_lượng": 2180,
      "nội_vụ": 2181,
      "vận_": 2182,
      "nông_dân": 2183,
      "bảo_đảm": 2184,
      "cần_thơ": 2185,
      "sức_mạnh": 2186,
      "dư_luận": 2187,
      "dấu_ấn": 2188,
      "papi": 2189,
      "xâm_lược": 2190,
      "khuyế": 2191,
      "dimir_": 2192,
      "_uỷ_viên": 2193,
      "cc": 2194,
      "kel": 2195,
      "lai": 2196,
      "nắ": 2197,
      "os": 2198,
      "sĩ": 2199,
      "sinh_": 2200,
      "tù": 2201,
      "tán": 2202,
      "vinh_": 2203,
      "vla": 2204,
      "yên": 2205,
      "àu": 2206,
      "đào": 2207,
      "ngân": 2208,
      "_túc": 2209,
      "_tượng": 2210,
      "_tám": 2211,
      "chốt": 2212,
      "n_s": 2213,
      "phili": 2214,
      "_thổ": 2215,
      "2010": 2216,
      "_mô": 2217,
      "n_đề": 2218,
      "đồng_phạm": 2219,
      "ng_cáo": 2220,
      "kháng_cáo": 2221,
      "ttg": 2222,
      "chuẩ": 2223,
      "qđns": 2224,
      "qđttg": 2225,
      "nghiêm_túc": 2226,
      "phía": 2227,
      "ưu_tiên": 2228,
      "nông_nghiệp": 2229,
      "tiến_trình": 2230,
      "lãnh_tụ": 2231,
      "lãnh_thổ": 2232,
      "giám_sát": 2233,
      "khoản": 2234,
      "thu_h": 2235,
      "dimir_putin": 2236,
      "philipp": 2237,
      "43": 2238,
      "63": 2239,
      "95": 2240,
      "_nhất": 2241,
      "_chung": 2242,
      "dài": 2243,
      "io": 2244,
      "it": 2245,
      "lan": 2246,
      "lòng": 2247,
      "pci": 2248,
      "sứ": 2249,
      "sóc": 2250,
      "xhc": 2251,
      "áu": 2252,
      "áy": 2253,
      "áng_": 2254,
      "ưỡng": 2255,
      "ẳng": 2256,
      "_tập": 2257,
      "_tích": 2258,
      "ng_đoàn": 2259,
      "trước_": 2260,
      "phần_l": 2261,
      "_thảo": 2262,
      "khách": 2263,
      "khủng_": 2264,
      "ngày_n": 2265,
      "m_đ": 2266,
      "chủ_trương": 2267,
      "_lượng": 2268,
      "trung_bình": 2269,
      "công_thương": 2270,
      "bản_l": 2271,
      "nhất_trí": 2272,
      "nhân_sự": 2273,
      "nhà_báo": 2274,
      "_mạc": 2275,
      "tổng_kết": 2276,
      "thường_niên": 2277,
      "khánh_": 2278,
      "iên_phủ": 2279,
      "chủ_nghĩa_xã_hội": 2280,
      "huyện": 2281,
      "giao_l": 2282,
      "ký_kết": 2283,
      "joh": 2284,
      "kiểm_sát": 2285,
      "lê_": 2286,
      "manuel": 2287,
      "tương_lai": 2288,
      "giám_đốc": 2289,
      "tếxã": 2290,
      "mek": 2291,
      "cung_cấp": 2292,
      "trưởng_đoàn": 2293,
      "điện_biên_phủ": 2294,
      "thượng_viện": 2295,
      "khả_năng": 2296,
      "bế_mạc": 2297,
      "viện_kiểm_sát": 2298,
      "ghi_nhận": 2299,
      "tán_thành": 2300,
      "vladimir_putin": 2301,
      "chuẩn_": 2302,
      "xhcn": 2303,
      "khủng_ho": 2304,
      "ngày_nay": 2305,
      "48": 2306,
      "_bộ": 2307,
      "a_m": 2308,
      "bù": 2309,
      "buô": 2310,
      "biện_": 2311,
      "cố": 2312,
      "cước": 2313,
      "hưởng": 2314,
      "lương": 2315,
      "lập_": 2316,
      "mù": 2317,
      "nổ": 2318,
      "ron": 2319,
      "te": 2320,
      "ter": 2321,
      "tand": 2322,
      "tập_": 2323,
      "xa": 2324,
      "xúc": 2325,
      "ăm_": 2326,
      "đợ": 2327,
      "đầu_": 2328,
      "đúng": 2329,
      "́n": 2330,
      "ấm": 2331,
      "ền_hình": 2332,
      "ệnh_": 2333,
      "_tạp": 2334,
      "chứng_": 2335,
      "thương": 2336,
      "quán": 2337,
      "iệp_": 2338,
      "phức": 2339,
      "phấn_đ": 2340,
      "2030": 2341,
      "vàng": 2342,
      "_trách": 2343,
      "khai": 2344,
      "iếm": 2345,
      "m_nay": 2346,
      "_sinh": 2347,
      "ng_thành": 2348,
      "hợp_": 2349,
      "áng_tám": 2350,
      "cảm": 2351,
      "nh_vượng": 2352,
      "ines": 2353,
      "chiếm": 2354,
      "chuyê": 2355,
      "bài": 2356,
      "erkel": 2357,
      "địa_": 2358,
      "sơ_bộ": 2359,
      "điều_hành": 2360,
      "hoàn_toàn": 2361,
      "hoàn_thiện": 2362,
      "tuần": 2363,
      "kim": 2364,
      "lý_luận": 2365,
      "thịnh_vượng": 2366,
      "hôm_nay": 2367,
      "đề_xuất": 2368,
      "căn_cước": 2369,
      "hải_phòng": 2370,
      "đại_tướng": 2371,
      "cách_mạng_tháng_tám": 2372,
      "bao_gồm": 2373,
      "khánh_hoà": 2374,
      "giao_lưu": 2375,
      "đợt": 2376,
      "phức_tạp": 2377,
      "phấn_đấu": 2378,
      "35": 2379,
      "46": 2380,
      "47": 2381,
      "_r": 2382,
      "bá": 2383,
      "bến": 2384,
      "bia": 2385,
      "btv": 2386,
      "bệnh_": 2387,
      "cổ": 2388,
      "dũng": 2389,
      "kỹ": 2390,
      "kia": 2391,
      "lạ": 2392,
      "lệ": 2393,
      "loạt": 2394,
      "pra": 2395,
      "song": 2396,
      "sức": 2397,
      "tô": 2398,
      "tân": 2399,
      "tinh_": 2400,
      "vương": 2401,
      "vững": 2402,
      "xanh": 2403,
      "ình_ph": 2404,
      "ít": 2405,
      "điể": 2406,
      "đời": 2407,
      "đế_": 2408,
      "̀n": 2409,
      "́t": 2410,
      "ạy": 2411,
      "ẩm_": 2412,
      "chỗ": 2413,
      "chăm_": 2414,
      "ther": 2415,
      "thập_": 2416,
      "trong_": 2417,
      "phục": 2418,
      "t_phá": 2419,
      "_thuật": 2420,
      "uyết": 2421,
      "nghĩ": 2422,
      "hà_": 2423,
      "phát": 2424,
      "_đình": 2425,
      "đại_đoàn_kết": 2426,
      "1950": 2427,
      "_may": 2428,
      "n_đắp": 2429,
      "gia_": 2430,
      "ng_thể": 2431,
      "hoàng_": 2432,
      "đồng_hành": 2433,
      "bản_": 2434,
      "nhập_": 2435,
      "số_lượng": 2436,
      "inz": 2437,
      "đối_lập": 2438,
      "_ki": 2439,
      "chiếm_đ": 2440,
      "thế_hệ": 2441,
      "dự_kh": 2442,
      "asem": 2443,
      "truy_tố": 2444,
      "tài": 2445,
      "đột": 2446,
      "giải_quyết": 2447,
      "xem": 2448,
      "liên_tục": 2449,
      "tập_đ": 2450,
      "tiêu_biểu": 2451,
      "xuất_khẩu": 2452,
      "hậu_": 2453,
      "và": 2454,
      "nội_các": 2455,
      "thị_trường": 2456,
      "trọng_thể": 2457,
      "bảo_an": 2458,
      "xung_đột": 2459,
      "_tổng_th": 2460,
      "tiếp_xúc": 2461,
      "_nhiên": 2462,
      "năng_lực": 2463,
      "hiệp_hội": 2464,
      "đương_kim": 2465,
      "esa_may": 2466,
      "vun_đắp": 2467,
      "nguyễn_đức_": 2468,
      "belarus": 2469,
      "bước_ngo": 2470,
      "nắm": 2471,
      "philippines": 2472,
      "biện_pháp": 2473,
      "điển_hình": 2474,
      "đế_quốc": 2475,
      "theresa_may": 2476,
      "chiếm_đoạt": 2477,
      "dự_khuyết": 2478,
      "bước_ngoặt": 2479,
      "78": 2480,
      "_việc": 2481,
      "_nguyên": 2482,
      "bất_th": 2483,
      "cron": 2484,
      "dầu_": 2485,
      "ep": 2486,
      "gen": 2487,
      "hư": 2488,
      "kịp": 2489,
      "luậ": 2490,
      "nông": 2491,
      "nếu": 2492,
      "nửa": 2493,
      "nson": 2494,
      "on_": 2495,
      "ran": 2496,
      "sớ": 2497,
      "sỹ": 2498,
      "tn": 2499,
      "vô": 2500,
      "áp_": 2501,
      "óng": 2502,
      "đỗ": 2503,
      "đông": 2504,
      "đua": 2505,
      "điểm_": 2506,
      "ngọ": 2507,
      "ngôn": 2508,
      "_tải": 2509,
      "_tiếp": 2510,
      "chữ": 2511,
      "chúng": 2512,
      "phân": 2513,
      "_thứ": 2514,
      "giặc": 2515,
      "iệ": 2516,
      "u_gọi": 2517,
      "nghiệp_": 2518,
      "quang_": 2519,
      "_đầu": 2520,
      "từ_chức": 2521,
      "_còn": 2522,
      "trung_hoa": 2523,
      "cuối_": 2524,
      "inde": 2525,
      "hiệu": 2526,
      "argen": 2527,
      "aly": 2528,
      "aland": 2529,
      "dự_thảo": 2530,
      "tuy_nhiên": 2531,
      "chuyên_": 2532,
      "cá_nhân": 2533,
      "i_dậy": 2534,
      "hữu": 2535,
      "ứng_viên": 2536,
      "tài_chính": 2537,
      "tina": 2538,
      "sinh_viên": 2539,
      "giải_pháp": 2540,
      "mà_còn": 2541,
      "giờ_đ": 2542,
      "thay_mặt": 2543,
      "tuyên_bố_chung": 2544,
      "cuộc_": 2545,
      "paris": 2546,
      "đảm_bảo": 2547,
      "tiềm_": 2548,
      "tranh_cử": 2549,
      "kêu_gọi": 2550,
      "phản_": 2551,
      "zealand": 2552,
      "bản_lĩnh": 2553,
      "johnson": 2554,
      "mekong": 2555,
      "khủng_hoảng": 2556,
      "nổi_dậy": 2557,
      "chuyên_đề": 2558,
      "địa_bàn": 2559,
      "bất_thường": 2560,
      "sớm": 2561,
      "cuối_cùng": 2562,
      "index": 2563,
      "argentina": 2564,
      "39": 2565,
      "41": 2566,
      "67": 2567,
      "89": 2568,
      "_ph": 2569,
      "bo": 2570,
      "bra": 2571,
      "bor": 2572,
      "cana": 2573,
      "des": 2574,
      "en_": 2575,
      "go": 2576,
      "hã": 2577,
      "hung": 2578,
      "hầu_": 2579,
      "hùng": 2580,
      "iv": 2581,
      "ipu": 2582,
      "k_": 2583,
      "lớ": 2584,
      "lúc": 2585,
      "no": 2586,
      "nq": 2587,
      "oda": 2588,
      "tiền": 2589,
      "yo": 2590,
      "đắk": 2591,
      "ạc": 2592,
      "ồng_": 2593,
      "_tí": 2594,
      "_tiện": 2595,
      "_tảng": 2596,
      "chặt": 2597,
      "thử": 2598,
      "phan_": 2599,
      "_tre": 2600,
      "_truy": 2601,
      "uyện": 2602,
      "hài_l": 2603,
      "iềm": 2604,
      "phát_động": 2605,
      "quy_mô": 2606,
      "quốc_anh": 2607,
      "nghị_định": 2608,
      "đại_hoá": 2609,
      "195": 2610,
      "cuốn": 2611,
      "_su": 2612,
      "công_nghiệp_": 2613,
      "tiết_": 2614,
      "tổng_thể": 2615,
      "doanh": 2616,
      "_ký": 2617,
      "tổng_công_ty": 2618,
      "cánh": 2619,
      "1971": 2620,
      "chức_năng": 2621,
      "đột_phá": 2622,
      "vương_quốc_anh": 2623,
      "ton": 2624,
      "nền_tảng": 2625,
      "khởi_": 2626,
      "thái_nguyên": 2627,
      "tự_": 2628,
      "bắc_ninh": 2629,
      "hiện_đại_hoá": 2630,
      "trần_đại_": 2631,
      "trọng_đ": 2632,
      "chủ_chốt": 2633,
      "tếthương": 2634,
      "t_sức": 2635,
      "cạnh_tranh": 2636,
      "dcnd": 2637,
      "đông_nam_á_": 2638,
      "nguyễn_thị_ki": 2639,
      "hết_sức": 2640,
      "điện_tử": 2641,
      "quảng_trị": 2642,
      "new_zealand": 2643,
      "bến_tre": 2644,
      "thập_kỷ": 2645,
      "tập_đoàn": 2646,
      "_tổng_thống": 2647,
      "nguyễn_đức_chung": 2648,
      "kịp_thời": 2649,
      "ngọc_": 2650,
      "tiềm_năng": 2651,
      "desh": 2652,
      "hungary": 2653,
      "hài_lòng": 2654,
      "nguyễn_thị_kim_": 2655,
      "42": 2656,
      "ad": 2657,
      "av": 2658,
      "gcc": 2659,
      "hiến": 2660,
      "ko": 2661,
      "lừa_": 2662,
      "ldp": 2663,
      "na": 2664,
      "nai": 2665,
      "se": 2666,
      "sp": 2667,
      "tiể": 2668,
      "tâm": 2669,
      "tấm": 2670,
      "vọng": 2671,
      "xoá": 2672,
      "́i": 2673,
      "̉a": 2674,
      "ảnh_": 2675,
      "ặng": 2676,
      "ịa_phương": 2677,
      "chdcnd": 2678,
      "tròn": 2679,
      "hào": 2680,
      "hành_v": 2681,
      "2011": 2682,
      "quốc_vương": 2683,
      "_máy": 2684,
      "n_điểm": 2685,
      "n_đấu": 2686,
      "n_đoàn": 2687,
      "vụ_việc": 2688,
      "_sơ": 2689,
      "đồng_nai": 2690,
      "liên_đoàn": 2691,
      "hồng_": 2692,
      "đối_thủ": 2693,
      "chiến_đấu": 2694,
      "_bệnh": 2695,
      "thực_hành": 2696,
      "hoạt": 2697,
      "bộ_ngành": 2698,
      "bắc": 2699,
      "dịch_bệnh": 2700,
      "ứng_phó": 2701,
      "bình_thuận": 2702,
      "uae": 2703,
      "phú_": 2704,
      "xã_hội_chủ_nghĩa": 2705,
      "n_vọng": 2706,
      "thời_hạn": 2707,
      "bình_đ": 2708,
      "1961": 2709,
      "1968": 2710,
      "nguyễn_thanh_": 2711,
      "pháp_lý": 2712,
      "bắc_giang": 2713,
      "hôm": 2714,
      "xếp": 2715,
      "emmanuel": 2716,
      "di_ara": 2717,
      "cần_thiết": 2718,
      "năng_lượng": 2719,
      "vững_mạnh": 2720,
      "nói_chung": 2721,
      "kinh_doanh": 2722,
      "tìm": 2723,
      "xác_nhận": 2724,
      "bác_hồ": 2725,
      "đăng_ký": 2726,
      "trọng_tâm": 2727,
      "italy": 2728,
      "phần_lan": 2729,
      "chuẩn_bị": 2730,
      "mùa": 2731,
      "bệnh_viện": 2732,
      "chăm_sóc": 2733,
      "hà_giang": 2734,
      "dầu_khí": 2735,
      "chữa": 2736,
      "giờ_địa_phương": 2737,
      "canada": 2738,
      "hãng": 2739,
      "hầu_hết": 2740,
      "công_nghiệp_hoá": 2741,
      "nguyễn_thị_kim_ngân": 2742,
      "lừa_đảo": 2743,
      "ảnh_hưởng": 2744,
      "hành_vi": 2745,
      "emmanuel_ma": 2746,
      "77": 2747,
      "86": 2748,
      "bã": 2749,
      "can": 2750,
      "cdc": 2751,
      "fran": 2752,
      "ga": 2753,
      "gì": 2754,
      "g20": 2755,
      "gương": 2756,
      "iz": 2757,
      "kích": 2758,
      "mắc": 2759,
      "ni": 2760,
      "nê": 2761,
      "ninh_": 2762,
      "one": 2763,
      "oana": 2764,
      "sẵ": 2765,
      "sở": 2766,
      "sam": 2767,
      "yan": 2768,
      "áp": 2769,
      "õi": 2770,
      "ùng_": 2771,
      "úng_đ": 2772,
      "đăng_c": 2773,
      "đọc": 2774,
      "đúng_đ": 2775,
      "́ng": 2776,
      "ới_": 2777,
      "ỵ_s": 2778,
      "ngãi": 2779,
      "_tự": 2780,
      "_tại": 2781,
      "cha": 2782,
      "chxhcn": 2783,
      "thì": 2784,
      "thuậ": 2785,
      "thanh": 2786,
      "ng_cấp": 2787,
      "iệt_": 2788,
      "trú": 2789,
      "tranh": 2790,
      "trái": 2791,
      "_thầu": 2792,
      "_theo": 2793,
      "_trẻ": 2794,
      "khắp": 2795,
      "quan_điểm": 2796,
      "quy_": 2797,
      "_độ": 2798,
      "_điểm": 2799,
      "kỳ_vọng": 2800,
      "ra_m": 2801,
      "có_mặt": 2802,
      "_cai": 2803,
      "1954": 2804,
      "của": 2805,
      "gia_l": 2806,
      "n_la": 2807,
      "công_ước": 2808,
      "nhật": 2809,
      "nhân_loại": 2810,
      "saudi_ara": 2811,
      "nguyễn_h": 2812,
      "đón": 2813,
      "lãnh_": 2814,
      "thành_phần": 2815,
      "tổng_cục": 2816,
      "nguyễn_văn_": 2817,
      "chiến_trường": 2818,
      "xviii": 2819,
      "nguyên_thủ": 2820,
      "kết_hợp": 2821,
      "hạt_": 2822,
      "đánh": 2823,
      "bài_": 2824,
      "địa": 2825,
      "1977": 2826,
      "sơn_la": 2827,
      "thông_tấn": 2828,
      "thuốc": 2829,
      "bước_tiến": 2830,
      "làm_nên": 2831,
      "tuần_l": 2832,
      "nâng_cấp": 2833,
      "quảng_ngãi": 2834,
      "lào_cai": 2835,
      "liên_tiếp": 2836,
      "cứu_": 2837,
      "nguyễn_t": 2838,
      "iến_công": 2839,
      "1992": 2840,
      "lou": 2841,
      "tổng_tiến_công": 2842,
      "nghị_sự": 2843,
      "cảnh_cáo": 2844,
      "tuổi_trẻ": 2845,
      "dương_apec": 2846,
      "shinz": 2847,
      "vũ_": 2848,
      "o_abe": 2849,
      "đề_cập": 2850,
      "động_lực": 2851,
      "muốn": 2852,
      "cơ_quan_hành_chính": 2853,
      "vận_tải": 2854,
      "is_johnson": 2855,
      "thu_hút": 2856,
      "phân_tích": 2857,
      "boris_johnson": 2858,
      "tiết_kiệm": 2859,
      "trần_đại_quang": 2860,
      "emmanuel_macron": 2861,
      "ninh_bình": 2862,
      "đăng_cai": 2863,
      "đúng_đắn": 2864,
      "tuần_lễ": 2865,
      "shinzo_abe": 2866,
      "69": 2867,
      "72": 2868,
      "_ý": 2869,
      "bc": 2870,
      "bồ": 2871,
      "cl": 2872,
      "dẫn": 2873,
      "fum": 2874,
      "nội": 2875,
      "nằm": 2876,
      "rè": 2877,
      "rút": 2878,
      "sông": 2879,
      "sco": 2880,
      "slo": 2881,
      "tắt": 2882,
      "ur": 2883,
      "uter": 2884,
      "vươ": 2885,
      "viii": 2886,
      "đơn": 2887,
      "đan_": 2888,
      "ưu_": 2889,
      "ồng": 2890,
      "ngũ": 2891,
      "ngạch": 2892,
      "nha": 2893,
      "_tội": 2894,
      "_tắc": 2895,
      "chắc": 2896,
      "thi": 2897,
      "thế": 2898,
      "thực": 2899,
      "thấp": 2900,
      "ng_nói": 2901,
      "tro": 2902,
      "trương_": 2903,
      "trường": 2904,
      "t_vọng": 2905,
      "_thọ": 2906,
      "_thách": 2907,
      "_thôn": 2908,
      "_trang": 2909,
      "_trình_": 2910,
      "_trắng": 2911,
      "nh_xuân": 2912,
      "giàu": 2913,
      "khung": 2914,
      "c_dù": 2915,
      "đại_sứ": 2916,
      "_cường": 2917,
      "cuối": 2918,
      "_ninh": 2919,
      "_dõi": 2920,
      "công_nhân": 2921,
      "đồng_bộ": 2922,
      "nhà_đầu": 2923,
      "tiếng_nói": 2924,
      "hà_nam": 2925,
      "theo_dõi": 2926,
      "i_giáo": 2927,
      "đối_mặt": 2928,
      "ban_nhân_dân": 2929,
      "hồ_sơ": 2930,
      "hồi_giáo": 2931,
      "angel": 2932,
      "tham_ô": 2933,
      "mạch": 2934,
      "phương_tiện": 2935,
      "nei": 2936,
      "tiếp_theo": 2937,
      "hạnh_phúc": 2938,
      "an_giang": 2939,
      "bào": 2940,
      "khát_vọng": 2941,
      "uỷ_ban_nhân_dân": 2942,
      "hđba": 2943,
      "_hoá": 2944,
      "đoàn_viên": 2945,
      "ishid": 2946,
      "n_khích": 2947,
      "văn_bản": 2948,
      "văn_kiện": 2949,
      "chương_trình_": 2950,
      "ghi": 2951,
      "tập_thể": 2952,
      "thanh_hoá": 2953,
      "1960": 2954,
      "vĩnh_phúc": 2955,
      "vakia": 2956,
      "moon_": 2957,
      "mặc_dù": 2958,
      "kim_ngạch": 2959,
      "ngân_hàng": 2960,
      "rõ_r": 2961,
      "_tổng": 2962,
      "sáng_kiến": 2963,
      "t_sư": 2964,
      "tranh_luận": 2965,
      "trưởng_thành": 2966,
      "nói_riêng": 2967,
      "tìm_": 2968,
      "khuyến_khích": 2969,
      "đào_tạo": 2970,
      "trước_đây": 2971,
      "a_merkel": 2972,
      "bùi_": 2973,
      "lương_thực": 2974,
      "gia_nhập": 2975,
      "luật_sư": 2976,
      "nông_thôn": 2977,
      "thử_thách": 2978,
      "đông_nam_á_asean": 2979,
      "nêu": 2980,
      "thuận_lợi": 2981,
      "lãnh_sự": 2982,
      "fumio": 2983,
      "slovakia": 2984,
      "vươn": 2985,
      "nhà_đầu_tư": 2986,
      "angela_merkel": 2987,
      "chương_trình_nghị_sự": 2988,
      "moon_ja": 2989,
      "03": 2990,
      "120": 2991,
      "49": 2992,
      "53": 2993,
      "73": 2994,
      "_al": 2995,
      "bú": 2996,
      "bại": 2997,
      "bru": 2998,
      "bình_ph": 2999,
      "cần_": 3000,
      "dữ": 3001,
      "hiểu": 3002,
      "lâu": 3003,
      "land": 3004,
      "mô": 3005,
      "mẫ": 3006,
      "mua": 3007,
      "nđ": 3008,
      "nar": 3009,
      "rằng": 3010,
      "tâ": 3011,
      "tâm_": 3012,
      "uli": 3013,
      "wi": 3014,
      "xứ": 3015,
      "áthái_bình_dương": 3016,
      "ét": 3017,
      "đê": 3018,
      "đương": 3019,
      "ảnh": 3020,
      "ật_": 3021,
      "_tật": 3022,
      "chúc": 3023,
      "n_m": 3024,
      "thăng": 3025,
      "ng_cử": 3026,
      "ng_sơn": 3027,
      "phong_": 3028,
      "_thiết": 3029,
      "_thiệu": 3030,
      "_trạng": 3031,
      "khu": 3032,
      "khắc_": 3033,
      "ướng_": 3034,
      "ước": 3035,
      "nghìn": 3036,
      "hàm": 3037,
      "bộ_máy": 3038,
      "p_báo": 3039,
      "_lục": 3040,
      "_lạp": 3041,
      "_cấp": 3042,
      "_sạn": 3043,
      "nguyệ": 3044,
      "nguyên_": 3045,
      "nguyện": 3046,
      "n_luyện": 3047,
      "_vậy": 3048,
      "công_chức": 3049,
      "đồng_bào": 3050,
      "cao_b": 3051,
      "họp_báo": 3052,
      "cải": 3053,
      "biểu_tượng": 3054,
      "đóng": 3055,
      "cách_chức": 3056,
      "giản": 3057,
      "không_thể": 3058,
      "đảng_đoàn": 3059,
      "kỷ_lục": 3060,
      "nghị_án": 3061,
      "tuyên_ngôn": 3062,
      "chức_danh": 3063,
      "nhận_thức": 3064,
      "nhân_tố": 3065,
      "20172022": 3066,
      "n_bình": 3067,
      "đàm": 3068,
      "_thị_": 3069,
      "kiểm_điểm": 3070,
      "thay_thế": 3071,
      "1995": 3072,
      "nữ_hoàng": 3073,
      "chiến_sĩ": 3074,
      "đấu_thầu": 3075,
      "quyền_lực": 3076,
      "1989": 3077,
      "tây_": 3078,
      "vận_động": 3079,
      "bạch": 3080,
      "xung_kích": 3081,
      "coi_trọng": 3082,
      "cấm": 3083,
      "cung_ứng": 3084,
      "hy_lạp": 3085,
      "chí": 3086,
      "bệnh_tật": 3087,
      "hiệp_ước": 3088,
      "vững_chắc": 3089,
      "kinh_nghiệm": 3090,
      "kiên_cường": 3091,
      "thời_đại": 3092,
      "thời_điểm": 3093,
      "vận_dụng": 3094,
      "n_sàng": 3095,
      "khách_sạn": 3096,
      "bán_": 3097,
      "nghĩa": 3098,
      "phan_văn_": 3099,
      "spd": 3100,
      "phú_yên": 3101,
      "sẵn_sàng": 3102,
      "yanmar": 3103,
      "trúng_cử": 3104,
      "gia_lai": 3105,
      "saudi_arabia": 3106,
      "rèn_luyện": 3107,
      "đan_mạch": 3108,
      "brunei": 3109,
      "bình_phước": 3110,
      "cao_bằng": 3111,
      "06": 3112,
      "110": 3113,
      "56": 3114,
      "66": 3115,
      "85": 3116,
      "92": 3117,
      "că": 3118,
      "cậ": 3119,
      "cường_": 3120,
      "csu": 3121,
      "cống_": 3122,
      "cdu": 3123,
      "d_": 3124,
      "dịp": 3125,
      "ez": 3126,
      "ene": 3127,
      "fid": 3128,
      "fone": 3129,
      "gử": 3130,
      "hải": 3131,
      "hiếm": 3132,
      "im": 3133,
      "lin": 3134,
      "lâm_": 3135,
      "mệnh": 3136,
      "mậu": 3137,
      "myanmar": 3138,
      "nét": 3139,
      "pal": 3140,
      "sy": 3141,
      "sắc_": 3142,
      "tận": 3143,
      "vừa_": 3144,
      "xin": 3145,
      "ài_": 3146,
      "ậ": 3147,
      "èo": 3148,
      "ù_": 3149,
      "đất": 3150,
      "ư_ký": 3151,
      "̣ng": 3152,
      "ịu": 3153,
      "ngô": 3154,
      "ngang": 3155,
      "_toả": 3156,
      "chil": 3157,
      "n_kết": 3158,
      "n_chế": 3159,
      "n_si": 3160,
      "thong": 3161,
      "trang": 3162,
      "phẩm_": 3163,
      "i_nhiệm": 3164,
      "i_ngũ": 3165,
      "_thi": 3166,
      "nh_long": 3167,
      "khống": 3168,
      "an_toàn": 3169,
      "tổng": 3170,
      "chính_trường": 3171,
      "đại_lễ": 3172,
      "hội_đàm": 3173,
      "_lệnh": 3174,
      "_cột": 3175,
      "1930": 3176,
      "n_đại": 3177,
      "ba_lan": 3178,
      "gia_đình": 3179,
      "ng_thẳng": 3180,
      "sai_phạm": 3181,
      "bí_thư_thứ": 3182,
      "nhà_trắng": 3183,
      "ine": 3184,
      "chỉnh": 3185,
      "hiện_đại": 3186,
      "ar_": 3187,
      "_bỏ": 3188,
      "ali": 3189,
      "giới_thiệu": 3190,
      "thực_dân": 3191,
      "xu_thế": 3192,
      "chấp_nhận": 3193,
      "châu_phi": 3194,
      "viện_trợ": 3195,
      "ng_cầu_": 3196,
      "hạn_chế": 3197,
      "souli": 3198,
      "đề_án": 3199,
      "đội_ngũ": 3200,
      "iên_chức": 3201,
      "liên_hiệp": 3202,
      "khoẻ": 3203,
      "_huy": 3204,
      "tin_tưởng": 3205,
      "bangla": 3206,
      "đài": 3207,
      "quảng_nam": 3208,
      "tiêu_chuẩn": 3209,
      "học_tập": 3210,
      "vĩnh_long": 3211,
      "hình_ảnh": 3212,
      "mobi": 3213,
      "sản_phẩm": 3214,
      "gắn": 3215,
      "gắn_kết": 3216,
      "tương_đương": 3217,
      "trưng_cầu_": 3218,
      "trụ_cột": 3219,
      "quyết_nghị": 3220,
      "di_chúc": 3221,
      "đảm_nhiệm": 3222,
      "shi": 3223,
      "sức_khoẻ": 3224,
      "hy_sinh": 3225,
      "điện_biên": 3226,
      "cấp_uỷ": 3227,
      "hide": 3228,
      "lâu_dài": 3229,
      "ái_quốc": 3230,
      "vinh_dự": 3231,
      "lập_pháp": 3232,
      "tập_cậ": 3233,
      "đầu_mối": 3234,
      "tinh_giản": 3235,
      "trong_sáng": 3236,
      "hậu_giang": 3237,
      "điểm_chỉ": 3238,
      "bãi_nhiệm": 3239,
      "hạt_nhân": 3240,
      "loun_si": 3241,
      "mẫu": 3242,
      "nđcp": 3243,
      "khắc_phục": 3244,
      "nguyện_vọng": 3245,
      "căng_thẳng": 3246,
      "cống_hiến": 3247,
      "gửi": 3248,
      "mậu_thân": 3249,
      "chile": 3250,
      "thongloun_si": 3251,
      "phẩm_chất": 3252,
      "bí_thư_thứ_nhất": 3253,
      "soulith": 3254,
      "bangladesh": 3255,
      "mobifone": 3256,
      "tập_cận_bình": 3257,
      "thongloun_sisoulith": 3258,
      "32": 3259,
      "800": 3260,
      "aj": 3261,
      "bở": 3262,
      "bày": 3263,
      "cà": 3264,
      "cự": 3265,
      "cân_": 3266,
      "dũ": 3267,
      "der": 3268,
      "ean": 3269,
      "ein": 3270,
      "gp": 3271,
      "gương_": 3272,
      "gar": 3273,
      "ka": 3274,
      "ky": 3275,
      "kiê": 3276,
      "lân_": 3277,
      "lượt": 3278,
      "láng_": 3279,
      "mô_": 3280,
      "mới_": 3281,
      "na_": 3282,
      "niềm": 3283,
      "nặng": 3284,
      "oc": 3285,
      "pf": 3286,
      "pen": 3287,
      "sắp": 3288,
      "sôi_": 3289,
      "tả": 3290,
      "tnh": 3291,
      "vượ": 3292,
      "yu": 3293,
      "zil": 3294,
      "ðảng": 3295,
      "đươ": 3296,
      "đa_": 3297,
      "ới": 3298,
      "̀i": 3299,
      "ềng": 3300,
      "ệt": 3301,
      "ừng_": 3302,
      "ngọn": 3303,
      "nhấn_": 3304,
      "_tất": 3305,
      "_tình": 3306,
      "_tay": 3307,
      "_tiến_": 3308,
      "_tài": 3309,
      "chịu": 3310,
      "n_d": 3311,
      "n_giữ": 3312,
      "thí": 3313,
      "thao": 3314,
      "tháo": 3315,
      "tri": 3316,
      "tru": 3317,
      "trình": 3318,
      "phường": 3319,
      "t_chất": 3320,
      "_trú": 3321,
      "giềng": 3322,
      "ano": 3323,
      "ani_": 3324,
      "nghe": 3325,
      "nghỉ": 3326,
      "nghiên_": 3327,
      "ược_": 3328,
      "quang_uỷ_viên": 3329,
      "phái_": 3330,
      "quy_trình": 3331,
      "_đủ": 3332,
      "_điện": 3333,
      "đại_cử_tri": 3334,
      "p_chí": 3335,
      "rac": 3336,
      "_lại": 3337,
      "_liệu": 3338,
      "_cả": 3339,
      "_cas": 3340,
      "_mỹ": 3341,
      "_mau": 3342,
      "công_bằng": 3343,
      "công_khai": 3344,
      "sal": 3345,
      "sau_": 3346,
      "bảy": 3347,
      "nhân_quyền": 3348,
      "bank": 3349,
      "nh_vũ": 3350,
      "chỉ_thị": 3351,
      "asos": 3352,
      "ngoại_": 3353,
      "_báo": 3354,
      "dự_báo": 3355,
      "tổng_giám_đốc": 3356,
      "mạng": 3357,
      "nguyễn_văn": 3358,
      "kỷ_nguyên": 3359,
      "els": 3360,
      "eland": 3361,
      "el_cas": 3362,
      "như_vậy": 3363,
      "dân_vận": 3364,
      "truyền_hình": 3365,
      "trở_lại": 3366,
      "hoàn_tất": 3367,
      "phút": 3368,
      "xuân_mậu_thân": 3369,
      "ireland": 3370,
      "duy_nhất": 3371,
      "_thủ_tướng": 3372,
      "châu_âu_ep": 3373,
      "ill": 3374,
      "đồng_tháp": 3375,
      "đông_đảo": 3376,
      "đại": 3377,
      "_tuổi": 3378,
      "trung_tướng": 3379,
      "tạp_chí": 3380,
      "trần_văn_": 3381,
      "vương_đình_huệ_chủ_tịch": 3382,
      "luận_tội": 3383,
      "tây_ninh": 3384,
      "trọng_": 3385,
      "_gỡ": 3386,
      "căn_cứ": 3387,
      "di_sản": 3388,
      "sáng_lập": 3389,
      "không_khí": 3390,
      "buổi": 3391,
      "tiền_": 3392,
      "trịngoại": 3393,
      "hy_vọng": 3394,
      "1946": 3395,
      "kênh": 3396,
      "cư_trú": 3397,
      "e_pen": 3398,
      "động_viên": 3399,
      "hết_": 3400,
      "chú_ý": 3401,
      "aza": 3402,
      "đầy_đủ": 3403,
      "việt_á_c": 3404,
      "lạng_sơn": 3405,
      "prayu": 3406,
      "tân_thủ_tướng": 3407,
      "phát_thanh": 3408,
      "bản_sắc": 3409,
      "nhập_cảnh": 3410,
      "áp_dụng": 3411,
      "cuộc_sống": 3412,
      "phản_ứng": 3413,
      "_truyền_hình": 3414,
      "tiểu_v": 3415,
      "franc": 3416,
      "gìn_giữ": 3417,
      "bài_học": 3418,
      "ishida_": 3419,
      "moon_jaein": 3420,
      "bán_đảo": 3421,
      "fidel_cas": 3422,
      "vừa_qua": 3423,
      "shihide": 3424,
      "cà_mau": 3425,
      "cựu_": 3426,
      "lân_cận": 3427,
      "láng_giềng": 3428,
      "mô_hình": 3429,
      "mới_đây": 3430,
      "na_uy": 3431,
      "sôi_nổi": 3432,
      "tnhh": 3433,
      "nhấn_mạnh": 3434,
      "tháo_gỡ": 3435,
      "asosai": 3436,
      "05": 3437,
      "400": 3438,
      "76": 3439,
      "_quý": 3440,
      "ak": 3441,
      "anh_vũ": 3442,
      "bam": 3443,
      "binh": 3444,
      "bái": 3445,
      "cờ": 3446,
      "cập": 3447,
      "et": 3448,
      "ev": 3449,
      "gan": 3450,
      "hằng": 3451,
      "kè": 3452,
      "kiên": 3453,
      "kar": 3454,
      "ko_": 3455,
      "kiếm": 3456,
      "kishida_": 3457,
      "linh_": 3458,
      "liền": 3459,
      "lgar": 3460,
      "mườ": 3461,
      "nước": 3462,
      "odi": 3463,
      "obam": 3464,
      "rum": 3465,
      "sạch": 3466,
      "tiên_": 3467,
      "ủ": 3468,
      "vc": 3469,
      "vp": 3470,
      "vẻ": 3471,
      "xô": 3472,
      "xít": 3473,
      "yên_": 3474,
      "ãn": 3475,
      "ốc": 3476,
      "̀nh": 3477,
      "́p": 3478,
      "̉n": 3479,
      "̉ng": 3480,
      "ạt": 3481,
      "nhỏ": 3482,
      "nhanh_": 3483,
      "nhu_cầu": 3484,
      "_tăng": 3485,
      "_tập_": 3486,
      "_tàu": 3487,
      "chi_": 3488,
      "chục": 3489,
      "chóng": 3490,
      "n_mạnh": 3491,
      "thời": 3492,
      "thất_": 3493,
      "ng_d": 3494,
      "ng_cách": 3495,
      "ng_yên": 3496,
      "ng_muốn": 3497,
      "que": 3498,
      "quốc": 3499,
      "phe": 3500,
      "phổ": 3501,
      "phù_": 3502,
      "i_h": 3503,
      "i_cấp": 3504,
      "_thật": 3505,
      "khen": 3506,
      "khai_tr": 3507,
      "iêm_": 3508,
      "chính_uỷ_viên": 3509,
      "nghi": 3510,
      "nghèo": 3511,
      "nghiêm_": 3512,
      "m_chính": 3513,
      "2027": 3514,
      "chủng": 3515,
      "bộ_đ": 3516,
      "ân_chương": 3517,
      "_đó": 3518,
      "_đỡ": 3519,
      "_đường": 3520,
      "hội_đoàn": 3521,
      "hội_viên": 3522,
      "_cùng": 3523,
      "giữ_g": 3524,
      "_sư": 3525,
      "sự_thật": 3526,
      "_nam": 3527,
      "_nông": 3528,
      "gia_tăng": 3529,
      "giai_cấp": 3530,
      "hoàn_": 3531,
      "n_lậu": 3532,
      "_vang": 3533,
      "công_việc": 3534,
      "công_nhận": 3535,
      "liêm_chính": 3536,
      "a_r": 3537,
      "cao_quý": 3538,
      "102": 3539,
      "20202021": 3540,
      "chỉnh_": 3541,
      "tổng_thư_ký": 3542,
      "dodo": 3543,
      "dogan": 3544,
      "đối_nội": 3545,
      "các": 3546,
      "tính_": 3547,
      "anh_hùng": 3548,
      "dự_toán": 3549,
      "tổng_hợp": 3550,
      "tổng_liên_đoàn": 3551,
      "ũng_tàu": 3552,
      "thông_cáo": 3553,
      "nguyên_tắc": 3554,
      "dân_ý": 3555,
      "tuyên_phạt": 3556,
      "eria": 3557,
      "erdogan": 3558,
      "1976": 3559,
      "xét_nghiệm": 3560,
      "nộp": 3561,
      "thái": 3562,
      "giáo_hoàng": 3563,
      "giáo_sư": 3564,
      "500": 3565,
      "chế_độ": 3566,
      "huy_": 3567,
      "huy_động": 3568,
      "phát_hiện": 3569,
      "huân_chương": 3570,
      "một_cách": 3571,
      "chuyển_biến": 3572,
      "uss": 3573,
      "thời_cơ": 3574,
      "joko_": 3575,
      "đồng_thuận": 3576,
      "1996": 3577,
      "ai_cập": 3578,
      "mong_muốn": 3579,
      "tình_cảm": 3580,
      "tình_nguyện": 3581,
      "_tuấn": 3582,
      "_tuấn_": 3583,
      "sản_xuất": 3584,
      "đình_chỉ": 3585,
      "nghệ_thuật": 3586,
      "nước_nhà": 3587,
      "thị_tr": 3588,
      "quyền_lợi": 3589,
      "abdu": 3590,
      "dav": 3591,
      "kiện_toàn": 3592,
      "_thuỵ_s": 3593,
      "biên_giới": 3594,
      "vật_chất": 3595,
      "quyết_sách": 3596,
      "dech": 3597,
      "cục_": 3598,
      "maha": 3599,
      "quan_chức": 3600,
      "đảm_nhận": 3601,
      "biến_động": 3602,
      "chủ_yếu": 3603,
      "bulgar": 3604,
      "vũ_huy": 3605,
      "giúp_đỡ": 3606,
      "khoảng_cách": 3607,
      "hcm": 3608,
      "tình_trạng": 3609,
      "phản_đ": 3610,
      "kiên_giang": 3611,
      "chúng_t": 3612,
      "nhất_là": 3613,
      "việt_á_trung": 3614,
      "phương_hướng": 3615,
      "lan_toả": 3616,
      "buôn_lậu": 3617,
      "hưng_yên": 3618,
      "tncs": 3619,
      "vô_cùng": 3620,
      "iện": 3621,
      "trung_hoa_tập_": 3622,
      "brazil": 3623,
      "lớn_mạnh": 3624,
      "nqcp": 3625,
      "yoshihide": 3626,
      "đắk_nông": 3627,
      "tự_hào": 3628,
      "trọng_điểm": 3629,
      "xoá_bỏ": 3630,
      "samdech": 3631,
      "tìm_hiểu": 3632,
      "búa": 3633,
      "cần_kiệm": 3634,
      "widodo": 3635,
      "cải_thiện": 3636,
      "trưng_cầu_dân_ý": 3637,
      "nghiên_cứu": 3638,
      "_điện_tử": 3639,
      "tiểu_vùng": 3640,
      "francis": 3641,
      "fidel_castro": 3642,
      "kèm": 3643,
      "kishida_fumio": 3644,
      "obama": 3645,
      "vẻ_vang": 3646,
      "yên_bái": 3647,
      "nhanh_chóng": 3648,
      "phù_hợp": 3649,
      "bộ_đội": 3650,
      "giữ_gìn": 3651,
      "joko_widodo": 3652,
      "bulgaria": 3653,
      "vũ_huy_hoàng": 3654,
      "trung_hoa_tập_cận": 3655,
      "01": 3656,
      "04": 3657,
      "354": 3658,
      "65": 3659,
      "82": 3660,
      "8h": 3661,
      "93": 3662,
      "_ng": 3663,
      "_ứng": 3664,
      "at": 3665,
      "anh_uỷ_viên": 3666,
      "bri": 3667,
      "bqh": 3668,
      "càng": 3669,
      "dan": 3670,
      "dược_": 3671,
      "ey": 3672,
      "ê": 3673,
      "end": 3674,
      "fer": 3675,
      "guel": 3676,
      "geria": 3677,
      "hiểm_": 3678,
      "in_": 3679,
      "ks": 3680,
      "kịch": 3681,
      "ken": 3682,
      "kiêm": 3683,
      "lục": 3684,
      "les": 3685,
      "mv": 3686,
      "mụ": 3687,
      "máu": 3688,
      "nú": 3689,
      "nqu": 3690,
      "nối": 3691,
      "ol": 3692,
      "pas": 3693,
      "per": 3694,
      "rị": 3695,
      "rạng": 3696,
      "sắ": 3697,
      "suy": 3698,
      "tê": 3699,
      "tác_đ": 3700,
      "vô_": 3701,
      "vesa": 3702,
      "vướng_": 3703,
      "viên_chức": 3704,
      "xâm": 3705,
      "yor": 3706,
      "át": 3707,
      "áthái_": 3708,
      "ánh_xuân": 3709,
      "ất": 3710,
      "ùi": 3711,
      "đậ": 3712,
      "đbqh": 3713,
      "̀u": 3714,
      "̀y": 3715,
      "ầng": 3716,
      "ẩm_phán": 3717,
      "ặn": 3718,
      "ệt_đ": 3719,
      "ọt": 3720,
      "ngăn_": 3721,
      "ngắn": 3722,
      "nhi": 3723,
      "nhì": 3724,
      "nhạy": 3725,
      "_tỏ": 3726,
      "_tinh": 3727,
      "_tồn": 3728,
      "_tầng": 3729,
      "chu_": 3730,
      "chế_": 3731,
      "char": 3732,
      "chánh": 3733,
      "n_uỷ_viên": 3734,
      "tha": 3735,
      "thông": 3736,
      "thuỷ_": 3737,
      "thích": 3738,
      "thiệt_": 3739,
      "ng_kể": 3740,
      "ng_cảm": 3741,
      "trình_": 3742,
      "trump": 3743,
      "phan": 3744,
      "phận": 3745,
      "i_nga": 3746,
      "t_bậc": 3747,
      "_thác": 3748,
      "_thừa": 3749,
      "_thái": 3750,
      "_trần": 3751,
      "khảo": 3752,
      "khôi_": 3753,
      "ước_đ": 3754,
      "việt_tr": 3755,
      "nghê": 3756,
      "n_hoá": 3757,
      "n_hải": 3758,
      "2012": 3759,
      "_đoán": 3760,
      "oái": 3761,
      "từ_trần": 3762,
      "_lĩnh": 3763,
      "_lắk": 3764,
      "1917": 3765,
      "t_điểm": 3766,
      "_mar": 3767,
      "_minh_": 3768,
      "đốn": 3769,
      "ba_đình": 3770,
      "_sẻ": 3771,
      "_sco": 3772,
      "ng_thái": 3773,
      "_duy": 3774,
      "n_lạc": 3775,
      "cửa": 3776,
      "công_tố": 3777,
      "liên_hệ": 3778,
      "liên_lạc": 3779,
      "tỉnh_thành": 3780,
      "âu_asem": 3781,
      "125": 3782,
      "126": 3783,
      "i_giới": 3784,
      "20222027": 3785,
      "mỹtriều": 3786,
      "aro": 3787,
      "bầu_chọn": 3788,
      "cop": 3789,
      "dự_đoán": 3790,
      "thực_sự": 3791,
      "ng_đáng": 3792,
      "xuống": 3793,
      "lĩnh": 3794,
      "kế_thừa": 3795,
      "eliz": 3796,
      "bảo_h": 3797,
      "c_đích": 3798,
      "ninh_thuận": 3799,
      "dân_số": 3800,
      "hoãn": 3801,
      "đáng_kể": 3802,
      "i_dưỡng": 3803,
      "ông_ty": 3804,
      "sát_": 3805,
      "nhật_cường": 3806,
      "khoa": 3807,
      "n_bè": 3808,
      "16h": 3809,
      "thuế": 3810,
      "tiến_công": 3811,
      "phạm_vi": 3812,
      "appf": 3813,
      "văn_minh": 3814,
      "tài_nguyên": 3815,
      "tine": 3816,
      "phát_xít": 3817,
      "ngoại_trưởng": 3818,
      "latinh": 3819,
      "hàng_loạt": 3820,
      "estine": 3821,
      "chia_sẻ": 3822,
      "xuất_bản": 3823,
      "1993": 3824,
      "lý_tưởng": 3825,
      "hậu": 3826,
      "hình_mẫu": 3827,
      "vang_d": 3828,
      "2007": 3829,
      "manet": 3830,
      "định_hình": 3831,
      "võ_thị_": 3832,
      "khoa_học_": 3833,
      "mah": 3834,
      "hội_đồng_bộ_trưởng": 3835,
      "bạn_bè": 3836,
      "sáng_suốt": 3837,
      "khai_sinh": 3838,
      "tiếp_cận": 3839,
      "nguồ": 3840,
      "thể": 3841,
      "abeth": 3842,
      "đồng": 3843,
      "cách_mạng_tháng_": 3844,
      "quảng_trường": 3845,
      "hito": 3846,
      "new_yor": 3847,
      "miguel": 3848,
      "thu_hẹp": 3849,
      "tập_hợp": 3850,
      "khai_thác": 3851,
      "btvqh": 3852,
      "kỹ_thuật": 3853,
      "trong_sạch": 3854,
      "chuyên_gia": 3855,
      "cuộc_chiến": 3856,
      "671": 3857,
      "đắk_lắk": 3858,
      "trọng_đại": 3859,
      "avũng_tàu": 3860,
      "bình_định": 3861,
      "bình_đẳng": 3862,
      "canel": 3863,
      "ra_mắt": 3864,
      "rõ_ràng": 3865,
      "môi_giới": 3866,
      "xứng_đáng": 3867,
      "phan_văn_anh_vũ": 3868,
      "palestine": 3869,
      "bởi": 3870,
      "dũng_cảm": 3871,
      "kiên_định": 3872,
      "vượt_bậc": 3873,
      "thí_điểm": 3874,
      "anocha": 3875,
      "ani_slovakia": 3876,
      "sau_này": 3877,
      "trọng_yếu": 3878,
      "tiền_giang": 3879,
      "việt_á_công_ty": 3880,
      "linh_hoạt": 3881,
      "mười_nga": 3882,
      "rumani_slovakia": 3883,
      "tiên_phong": 3884,
      "thất_bại": 3885,
      "chỉnh_đốn": 3886,
      "tính_chất": 3887,
      "cục_diện": 3888,
      "chúng_ta": 3889,
      "brics": 3890,
      "kenya": 3891,
      "mục_đích": 3892,
      "nqubtvqh": 3893,
      "rịavũng_tàu": 3894,
      "tác_động": 3895,
      "vesak": 3896,
      "vướng_mắc": 3897,
      "áthái_bình_": 3898,
      "ệt_đối": 3899,
      "chu_ngọc_": 3900,
      "thuỷ_chung": 3901,
      "thích_ứng": 3902,
      "khôi_phục": 3903,
      "_scot": 3904,
      "elizabeth": 3905,
      "bảo_hiểm_": 3906,
      "vang_dội": 3907,
      "võ_thị_ánh_xuân": 3908,
      "cách_mạng_tháng_mười_nga": 3909,
      "08": 3910,
      "33": 3911,
      "34": 3912,
      "52": 3913,
      "79": 3914,
      "_an": 3915,
      "_bản": 3916,
      "_quán": 3917,
      "af": 3918,
      "ah": 3919,
      "binh_": 3920,
      "biden": 3921,
      "bwe": 3922,
      "cn": 3923,
      "cực_": 3924,
      "cze": 3925,
      "dặn": 3926,
      "ex": 3927,
      "gu": 3928,
      "hại": 3929,
      "hăng_": 3930,
      "hình_ph": 3931,
      "jer": 3932,
      "kaza": 3933,
      "lz": 3934,
      "lá": 3935,
      "lộ": 3936,
      "loà": 3937,
      "liều": 3938,
      "las": 3939,
      "liềm": 3940,
      "mã": 3941,
      "mtt": 3942,
      "mãi": 3943,
      "merkel": 3944,
      "nand": 3945,
      "oa": 3946,
      "pe": 3947,
      "rộng_": 3948,
      "stan": 3949,
      "tộ": 3950,
      "tam": 3951,
      "tức": 3952,
      "tiên": 3953,
      "tay": 3954,
      "tang": 3955,
      "tiêm": 3956,
      "tám": 3957,
      "uý": 3958,
      "vê": 3959,
      "vịnh": 3960,
      "vật": 3961,
      "xh": 3962,
      "xướng": 3963,
      "xxii": 3964,
      "zam": 3965,
      "zim": 3966,
      "ành_": 3967,
      "à_v": 3968,
      "ền": 3969,
      "ùm": 3970,
      "ý_thức": 3971,
      "đổi": 3972,
      "đòn": 3973,
      "đem": 3974,
      "̣t": 3975,
      "ảm_": 3976,
      "ấm_": 3977,
      "ễn": 3978,
      "ngờ": 3979,
      "ngừa": 3980,
      "nhu": 3981,
      "nhớ": 3982,
      "_tú": 3983,
      "_tụng": 3984,
      "chó": 3985,
      "n_giáo": 3986,
      "n_hàng": 3987,
      "n_chặt": 3988,
      "n_manet": 3989,
      "thụ": 3990,
      "thiên": 3991,
      "thuận": 3992,
      "thượng": 3993,
      "thẩm_phán": 3994,
      "quận": 3995,
      "quần_": 3996,
      "tra": 3997,
      "trần": 3998,
      "trừng_": 3999,
      "trà_v": 4000,
      "pha": 4001,
      "phố": 4002,
      "phi_": 4003,
      "i_người": 4004,
      "2000": 4005,
      "_thu_": 4006,
      "_triệt": 4007,
      "_trầm": 4008,
      "già": 4009,
      "khiến": 4010,
      "khép": 4011,
      "khstan": 4012,
      "c_liê": 4013,
      "c_làm": 4014,
      "việc_làm": 4015,
      "iên_h": 4016,
      "t_nửa": 4017,
      "uy_tí": 4018,
      "việt_namhoa_kỳ": 4019,
      "2028": 4020,
      "ao_": 4021,
      "n_hoà": 4022,
      "aic": 4023,
      "đại_dương": 4024,
      "p_xếp": 4025,
      "thứ_": 4026,
      "_le_pen": 4027,
      "_cách": 4028,
      "_clin": 4029,
      "trung_đông": 4030,
      "_mo": 4031,
      "n_độ": 4032,
      "n_đường": 4033,
      "bay": 4034,
      "barac": 4035,
      "babwe": 4036,
      "gian_l": 4037,
      "khoán": 4038,
      "_vì": 4039,
      "_vua": 4040,
      "_văn_": 4041,
      "công_lập": 4042,
      "một_nửa": 4043,
      "thủ_lĩnh": 4044,
      "nhận_định": 4045,
      "cho_ph": 4046,
      "nhân_văn": 4047,
      "nhà_vua": 4048,
      "nh_văn_": 4049,
      "tiếng": 4050,
      "tiến_độ": 4051,
      "ind": 4052,
      "20232028": 4053,
      "chỉ_tiêu": 4054,
      "chính_phủ_điện_tử": 4055,
      "20222026": 4056,
      "liên_xô": 4057,
      "hiện_tại": 4058,
      "ban_nha": 4059,
      "nhà_xuất_bản": 4060,
      "đối_tượng": 4061,
      "anh_dũng": 4062,
      "chiếc": 4063,
      "dựng": 4064,
      "tuyệt_đối": 4065,
      "xico": 4066,
      "chuyên": 4067,
      "kết_n": 4068,
      "châu_lục": 4069,
      "ngày": 4070,
      "hạ_tầng": 4071,
      "dân_tuý": 4072,
      "tuyên_quang": 4073,
      "i_động": 4074,
      "thành_quả": 4075,
      "er_": 4076,
      "i_liệu": 4077,
      "thường_kỳ": 4078,
      "khác_biệt": 4079,
      "mở_đường": 4080,
      "1972": 4081,
      "uỷ_hội": 4082,
      "tài_liệu": 4083,
      "132": 4084,
      "n_bán": 4085,
      "_hùng": 4086,
      "res": 4087,
      "istan": 4088,
      "170": 4089,
      "điều_chỉnh": 4090,
      "phòngan": 4091,
      "chính_đáng": 4092,
      "toàn_thể": 4093,
      "huyết": 4094,
      "thắt": 4095,
      "hun_manet": 4096,
      "dẫn_d": 4097,
      "minh_bạch": 4098,
      "quảng_bình": 4099,
      "là": 4100,
      "tư_cách": 4101,
      "thời_sự": 4102,
      "quân_uỷ": 4103,
      "bền_chặt": 4104,
      "1965": 4105,
      "lên_đường": 4106,
      "vĩnh": 4107,
      "1998": 4108,
      "thể_chế": 4109,
      "chiến_công": 4110,
      "mor": 4111,
      "mozam": 4112,
      "los": 4113,
      "nghệ_an": 4114,
      "2003": 4115,
      "2005": 4116,
      "2008": 4117,
      "phê_bình": 4118,
      "1980": 4119,
      "1986": 4120,
      "1988": 4121,
      "mark_": 4122,
      "marine": 4123,
      "tương_đồng": 4124,
      "nam_phi": 4125,
      "căn_bản": 4126,
      "tuyên_truy": 4127,
      "bạn_hàng": 4128,
      "bạc_liê": 4129,
      "sáng_giá": 4130,
      "buộc": 4131,
      "danh_hiệu": 4132,
      "mexico": 4133,
      "trịnh_văn_": 4134,
      "uela": 4135,
      "trí_thức": 4136,
      "chia_r": 4137,
      "t_chanocha": 4138,
      "bique": 4139,
      "xuân_th": 4140,
      "bất_ngờ": 4141,
      "đề_cương": 4142,
      "xác_minh": 4143,
      "chú_trọng": 4144,
      "cơ_quan_chức_năng": 4145,
      "lâu_đời": 4146,
      "đăng_quang": 4147,
      "trọng_trách": 4148,
      "sinh_sống": 4149,
      "sinh_hoạt": 4150,
      "buôn_bán": 4151,
      "lập_nghiệp": 4152,
      "chứng_khoán": 4153,
      "quán_triệt": 4154,
      "hợp_pháp": 4155,
      "hợp_lệ": 4156,
      "hoàng_gia": 4157,
      "nhập_khẩu": 4158,
      "tiền_t": 4159,
      "_tính": 4160,
      "_suga": 4161,
      "khởi_xướng": 4162,
      "nato": 4163,
      "hào_hùng": 4164,
      "20112016": 4165,
      "ra_modi": 4166,
      "nguyễn_hữ": 4167,
      "cứu_chữa": 4168,
      "bcđ": 4169,
      "bồi_dưỡng": 4170,
      "clmv": 4171,
      "uterres": 4172,
      "thực_thi": 4173,
      "dữ_liệu": 4174,
      "narend": 4175,
      "thăng_trầm": 4176,
      "chính": 4177,
      "eanbank": 4178,
      "gương_mặt": 4179,
      "oceanbank": 4180,
      "được": 4181,
      "trung_thành": 4182,
      "ngoại_xâm": 4183,
      "prayut_chanocha": 4184,
      "khai_trừ": 4185,
      "davos": 4186,
      "phản_đối": 4187,
      "yoshihide_suga": 4188,
      "kịch_bản": 4189,
      "núi": 4190,
      "sắp_xếp": 4191,
      "vô_giá": 4192,
      "đậm": 4193,
      "nguồn_lực": 4194,
      "new_york": 4195,
      "czech": 4196,
      "hình_phạt": 4197,
      "kazakhstan": 4198,
      "loài_người": 4199,
      "mttq": 4200,
      "tiên_tiến": 4201,
      "zimbabwe": 4202,
      "thượng_tướng": 4203,
      "quần_chúng": 4204,
      "trừng_phạt": 4205,
      "trà_vinh": 4206,
      "uy_tín": 4207,
      "_clinton": 4208,
      "gian_lận": 4209,
      "cho_phép": 4210,
      "dẫn_dắt": 4211,
      "mozambique": 4212,
      "marine_le_pen": 4213,
      "tuyên_truyền": 4214,
      "bạc_liêu": 4215,
      "chia_rẽ": 4216,
      "narendra_modi": 4217,
      "07": 4218,
      "219": 4219,
      "38": 4220,
      "58": 4221,
      "62": 4222,
      "64": 4223,
      "74": 4224,
      "700": 4225,
      "94": 4226,
      "_j": 4227,
      "_ch": 4228,
      "_gi": 4229,
      "_ii": 4230,
      "_giá": 4231,
      "_hồng_": 4232,
      "bđ": 4233,
      "bức": 4234,
      "bán": 4235,
      "ber": 4236,
      "cch": 4237,
      "c_th": 4238,
      "cộng": 4239,
      "cpo": 4240,
      "dày": 4241,
      "dri": 4242,
      "dạy": 4243,
      "ek": 4244,
      "e_d": 4245,
      "fre": 4246,
      "gm": 4247,
      "gdp": 4248,
      "gene": 4249,
      "hái": 4250,
      "hels": 4251,
      "hill": 4252,
      "hiện": 4253,
      "ip_": 4254,
      "ira": 4255,
      "jan": 4256,
      "jcpo": 4257,
      "kl": 4258,
      "ku": 4259,
      "kon": 4260,
      "kiến_": 4261,
      "lđ": 4262,
      "lư": 4263,
      "loạ": 4264,
      "lan_": 4265,
      "len": 4266,
      "lưu_": 4267,
      "mông_": 4268,
      "ma_": 4269,
      "miễ": 4270,
      "nô": 4271,
      "nề": 4272,
      "nang": 4273,
      "pt": 4274,
      "pan": 4275,
      "pvn": 4276,
      "rg": 4277,
      "ria": 4278,
      "súng": 4279,
      "tu_": 4280,
      "tầm_": 4281,
      "txvn": 4282,
      "tồn": 4283,
      "tô_": 4284,
      "tiểu": 4285,
      "uộc": 4286,
      "une": 4287,
      "usal": 4288,
      "uhito": 4289,
      "vo": 4290,
      "vay": 4291,
      "viêm": 4292,
      "vóc": 4293,
      "wa": 4294,
      "was": 4295,
      "xứng": 4296,
      "xgp": 4297,
      "yip_": 4298,
      "za": 4299,
      "zan": 4300,
      "zuela": 4301,
      "ái_lan": 4302,
      "áâu_asem": 4303,
      "éc": 4304,
      "én": 4305,
      "êm": 4306,
      "ít_": 4307,
      "ố": 4308,
      "đt": 4309,
      "đò": 4310,
      "đăng": 4311,
      "̃n": 4312,
      "̉m": 4313,
      "̉u": 4314,
      "̉nh": 4315,
      "ọng_": 4316,
      "ởng_": 4317,
      "ngữ": 4318,
      "ngton": 4319,
      "nhẹ": 4320,
      "nhắc": 4321,
      "nhảy": 4322,
      "_tây": 4323,
      "_tum": 4324,
      "_tiết": 4325,
      "_túng": 4326,
      "_tĩnh": 4327,
      "_tặng": 4328,
      "_ttxvn": 4329,
      "chung_": 4330,
      "châm": 4331,
      "chứng": 4332,
      "chạy": 4333,
      "n_quyết": 4334,
      "n_quân": 4335,
      "thẳ": 4336,
      "thẻ": 4337,
      "thắng": 4338,
      "thừa": 4339,
      "then_": 4340,
      "thpt": 4341,
      "ng_an": 4342,
      "trầ": 4343,
      "trương": 4344,
      "trôi": 4345,
      "trọn": 4346,
      "phật_": 4347,
      "i_châu": 4348,
      "2050": 4349,
      "2045": 4350,
      "_thắ": 4351,
      "_thường": 4352,
      "_thiểu": 4353,
      "_thái_lan": 4354,
      "_triều": 4355,
      "_tranh_": 4356,
      "_trăng": 4357,
      "_trùm": 4358,
      "_trọng_": 4359,
      "khiêm": 4360,
      "ani": 4361,
      "ngày_đ": 4362,
      "việt_namlào": 4363,
      "nghề": 4364,
      "iểu_": 4365,
      "iển_l": 4366,
      "hài_": 4367,
      "qua_đời": 4368,
      "hội_tụ": 4369,
      "chủ_lực": 4370,
      "năm_tuổi": 4371,
      "phán_quyết": 4372,
      "quốc_chủ_tịch": 4373,
      "quốc_cường": 4374,
      "đại_học": 4375,
      "ral": 4376,
      "_liên": 4377,
      "_lưỡng": 4378,
      "1911": 4379,
      "1955": 4380,
      "_mệnh": 4381,
      "n_đoạn": 4382,
      "n_đọc": 4383,
      "bal": 4384,
      "_sh": 4385,
      "_dương": 4386,
      "_dội": 4387,
      "nguyê": 4388,
      "_vă": 4389,
      "_vũ": 4390,
      "_vọt": 4391,
      "cửu_": 4392,
      "đồng_ý": 4393,
      "say": 4394,
      "san_": 4395,
      "112": 4396,
      "ộng_sản": 4397,
      "nhân_lực": 4398,
      "cuộc_tổng": 4399,
      "nhà_s": 4400,
      "chỉ_nam": 4401,
      "chính_trị_": 4402,
      "chấn_động": 4403,
      "angri": 4404,
      "cap": 4405,
      "ari": 4406,
      "_biến": 4407,
      "_báu": 4408,
      "dựa": 4409,
      "tuyến": 4410,
      "ường_chứng_khoán": 4411,
      "tổng_biên_chế": 4412,
      "đảng_uỷ_viên": 4413,
      "kết_tinh": 4414,
      "bộ_phận": 4415,
      "nguyễn_vă": 4416,
      "nguyễn_quang_": 4417,
      "thiếu_": 4418,
      "tốc_đ": 4419,
      "đặng_": 4420,
      "đặc_th": 4421,
      "bảo_tồn": 4422,
      "giám": 4423,
      "gián_đoạn": 4424,
      "150": 4425,
      "gói": 4426,
      "dân_cư": 4427,
      "an_nghê": 4428,
      "iden_": 4429,
      "hoan_nghê": 4430,
      "nam_su": 4431,
      "tàn_b": 4432,
      "hành_pháp": 4433,
      "ứng_dụng": 4434,
      "thông_tư": 4435,
      "1820": 4436,
      "hữu_hạn": 4437,
      "_hấp": 4438,
      "_hiển_l": 4439,
      "_tốn": 4440,
      "thuỵ_s": 4441,
      "phụ_trách": 4442,
      "phú_thọ": 4443,
      "tte": 4444,
      "ttxgp": 4445,
      "_tư_lệnh": 4446,
      "lợi_thế": 4447,
      "tài_năng": 4448,
      "top": 4449,
      "thường_trú": 4450,
      "bangko": 4451,
      "sipas": 4452,
      "phát_ngôn": 4453,
      "huỳ": 4454,
      "huân": 4455,
      "quảng_bá": 4456,
      "tpp": 4457,
      "lai_châu": 4458,
      "giao_": 4459,
      "tiêu_chí": 4460,
      "tự_cường": 4461,
      "phạm_minh_chính_uỷ_viên": 4462,
      "qđnd": 4463,
      "1967": 4464,
      "pháp_quyền": 4465,
      "phân_biệt": 4466,
      "vĩ_mô": 4467,
      "1999": 4468,
      "lý_hiển_l": 4469,
      "nguyễn_xuân_phúc_tổng_thống": 4470,
      "đông_nam": 4471,
      "kế_nhiệm": 4472,
      "tỉnh": 4473,
      "đa_d": 4474,
      "ấn_dũng": 4475,
      "nội_bộ": 4476,
      "nội_chính": 4477,
      "long_an": 4478,
      "viễn": 4479,
      "mặt_": 4480,
      "kim_chỉ_nam": 4481,
      "tại_": 4482,
      "hội": 4483,
      "hô_hấp": 4484,
      "2002": 4485,
      "trần_sỹ": 4486,
      "định_danh": 4487,
      "tây_nguyên": 4488,
      "tương_xứng": 4489,
      "con_số": 4490,
      "paris_": 4491,
      "unc": 4492,
      "thành_tích": 4493,
      "_go": 4494,
      "_gắng": 4495,
      "gặp_": 4496,
      "riza": 4497,
      "hội_đồng_nhà_nước": 4498,
      "căn_dặn": 4499,
      "xung_phong": 4500,
      "dương_văn": 4501,
      "bao_trùm": 4502,
      "shangri": 4503,
      "trịnh_xuân": 4504,
      "trị_vì": 4505,
      "bắt_tay": 4506,
      "hải_uỷ_viên": 4507,
      "hải_quân": 4508,
      "đắc_cử_chức": 4509,
      "vũ_trang": 4510,
      "cptpp": 4511,
      "cương_lĩnh": 4512,
      "1949": 4513,
      "luân_": 4514,
      "quý_báu": 4515,
      "thiếu_tướng": 4516,
      "đề_cử": 4517,
      "_trung_ương": 4518,
      "_trung_quốc": 4519,
      "jakar": 4520,
      "xác_lập": 4521,
      "hàng": 4522,
      "kiên_quyết": 4523,
      "rutte": 4524,
      "bao_giờ": 4525,
      "arab": 4526,
      "hington": 4527,
      "bác_sỹ": 4528,
      "hamas": 4529,
      "hamma": 4530,
      "nhất_hđnd": 4531,
      "nhất_quán": 4532,
      "thư_ký": 4533,
      "phương_án": 4534,
      "phương_châm": 4535,
      "ary_clinton": 4536,
      "vận_mệnh": 4537,
      "khuyết_điểm": 4538,
      "vinh_quang": 4539,
      "vinh_danh": 4540,
      "đào_hồng_": 4541,
      "sứ_mệnh": 4542,
      "sóc_trăng": 4543,
      "phần_lớn": 4544,
      "lê_quốc_": 4545,
      "chuẩn_y": 4546,
      "cố_gắng": 4547,
      "đầu_bảng": 4548,
      "chứng_minh": 4549,
      "cổ_vũ": 4550,
      "kỹ_lưỡng": 4551,
      "tôn_giáo": 4552,
      "tinh_hoa": 4553,
      "nghĩa_": 4554,
      "gia_hạn": 4555,
      "chuyên_nghiệp": 4556,
      "brahi": 4557,
      "k_obama": 4558,
      "khởi_nghĩa": 4559,
      "avg": 4560,
      "tiểu_": 4561,
      "chdcnd_triều": 4562,
      "thanh_tra": 4563,
      "quy_chế": 4564,
      "quy_hoạch": 4565,
      "nguyễn_hồng_": 4566,
      "địa_điểm": 4567,
      "nguyễn_tấn_dũng": 4568,
      "thực_tế": 4569,
      "trương_quốc_cường": 4570,
      "đại_sứ_quán": 4571,
      "rõ_rệt": 4572,
      "dữ_dội": 4573,
      "naruhito": 4574,
      "tâm_huyết": 4575,
      "phong_cách": 4576,
      "phong_phú": 4577,
      "nguyên_nhân": 4578,
      "tây_ban_nha": 4579,
      "enezuela": 4580,
      "lâm_bệnh": 4581,
      "syriza": 4582,
      "sắc_lệnh": 4583,
      "tận_tình": 4584,
      "đài_truyền_hình": 4585,
      "bày_tỏ": 4586,
      "thao_túng": 4587,
      "phái_đoàn": 4588,
      "hết_lòng": 4589,
      "kiên_trì": 4590,
      "ủy": 4591,
      "phổ_biến": 4592,
      "hoàn_cảnh": 4593,
      "huy_chương": 4594,
      "_tuấn_uỷ_viên": 4595,
      "thị_trường_chứng_khoán": 4596,
      "abdul": 4597,
      "_thuỵ_sỹ": 4598,
      "tế": 4599,
      "charles": 4600,
      "miguel_d": 4601,
      "jerusal": 4602,
      "thứ_bảy": 4603,
      "barack_obama": 4604,
      "chuyên_trách": 4605,
      "kết_nối": 4606,
      "quân_uỷ_trung_ương": 4607,
      "mark_rutte": 4608,
      "nguyễn_hữu_": 4609,
      "bđkh": 4610,
      "cchc": 4611,
      "geneva": 4612,
      "helsin": 4613,
      "hillary_clinton": 4614,
      "jcpoa": 4615,
      "kon_tum": 4616,
      "loại_": 4617,
      "mông_cổ": 4618,
      "tồn_tại": 4619,
      "unesco": 4620,
      "washington": 4621,
      "yip_erdogan": 4622,
      "ít_nhất": 4623,
      "nhảy_vọt": 4624,
      "thừa_th": 4625,
      "then_chốt": 4626,
      "phật_giáo": 4627,
      "khiêm_tốn": 4628,
      "ngày_đêm": 4629,
      "tốc_độ": 4630,
      "đặc_thù": 4631,
      "hoan_nghênh": 4632,
      "nam_sudan": 4633,
      "tàn_bạo": 4634,
      "bangkok": 4635,
      "lý_hiển_long": 4636,
      "viễn_thông": 4637,
      "paris_pháp": 4638,
      "shangrila": 4639,
      "chdcnd_triều_tiên": 4640,
      "02": 4641,
      "220": 4642,
      "348": 4643,
      "51": 4644,
      "57": 4645,
      "650": 4646,
      "88": 4647,
      "91": 4648,
      "98": 4649,
      "900": 4650,
      "_f": 4651,
      "_hội": 4652,
      "_pháp": 4653,
      "_ya": 4654,
      "_nguyên_": 4655,
      "_hạ_tầng": 4656,
      "ac": 4657,
      "a_l": 4658,
      "br": 4659,
      "bấ": 4660,
      "biê": 4661,
      "bai": 4662,
      "bách": 4663,
      "bin": 4664,
      "ben": 4665,
      "bạn": 4666,
      "bước_đ": 4667,
      "cú": 4668,
      "cây": 4669,
      "cẩm": 4670,
      "cấu": 4671,
      "cãi": 4672,
      "cep": 4673,
      "c03": 4674,
      "dâ": 4675,
      "diê": 4676,
      "dục": 4677,
      "dum": 4678,
      "darus": 4679,
      "dài_": 4680,
      "echo": 4681,
      "eco": 4682,
      "ff": 4683,
      "gũ": 4684,
      "gỡ": 4685,
      "gấp": 4686,
      "gand": 4687,
      "gần_": 4688,
      "gốc": 4689,
      "h30": 4690,
      "hùng_": 4691,
      "iu": 4692,
      "ia_": 4693,
      "ibrahi": 4694,
      "kí": 4695,
      "kề": 4696,
      "ki_": 4697,
      "kre": 4698,
      "kạn": 4699,
      "kor": 4700,
      "ly": 4701,
      "lữ": 4702,
      "liệ": 4703,
      "lửa": 4704,
      "mác": 4705,
      "mất": 4706,
      "may": 4707,
      "mel": 4708,
      "mec": 4709,
      "mật": 4710,
      "mai_": 4711,
      "môn": 4712,
      "miễn": 4713,
      "nn": 4714,
      "nò": 4715,
      "nạn": 4716,
      "nor": 4717,
      "nồng_": 4718,
      "ó": 4719,
      "oanh_": 4720,
      "pn": 4721,
      "pso": 4722,
      "qali": 4723,
      "qer_": 4724,
      "rú": 4725,
      "ram": 4726,
      "ri_lan": 4727,
      "san": 4728,
      "schu": 4729,
      "sri_lan": 4730,
      "tc": 4731,
      "tg": 4732,
      "ty": 4733,
      "tầ": 4734,
      "tặ": 4735,
      "tách": 4736,
      "tấn_": 4737,
      "utt": 4738,
      "un_s": 4739,
      "ugand": 4740,
      "vù": 4741,
      "viê": 4742,
      "vua": 4743,
      "vil": 4744,
      "vậy": 4745,
      "việ": 4746,
      "vùng_": 4747,
      "với": 4748,
      "vks": 4749,
      "who": 4750,
      "war_": 4751,
      "xu_": 4752,
      "xxi": 4753,
      "xô_": 4754,
      "y_án": 4755,
      "z_tr": 4756,
      "ánh_": 4757,
      "ầu": 4758,
      "ênh_": 4759,
      "ên_hải": 4760,
      "ì_": 4761,
      "ình_uỷ_viên": 4762,
      "ðại": 4763,
      "ùng_uỷ_viên": 4764,
      "đă": 4765,
      "địch": 4766,
      "đập": 4767,
      "đhđ": 4768,
      "đe_d": 4769,
      "ức": 4770,
      "́nh": 4771,
      "̣̂": 4772,
      "ải_": 4773,
      "ắc_đ": 4774,
      "ềm": 4775,
      "ệt_": 4776,
      "ốc_": 4777,
      "ồi": 4778,
      "ổn": 4779,
      "ộn": 4780,
      "ợi_": 4781,
      "ngại": 4782,
      "ngài": 4783,
      "ngọc": 4784,
      "ngợi": 4785,
      "nhiên": 4786,
      "_từ": 4787,
      "_tan": 4788,
      "_tang": 4789,
      "_tấn_": 4790,
      "_tim": 4791,
      "_techo": 4792,
      "chứ": 4793,
      "chiê": 4794,
      "chinh": 4795,
      "chấp": 4796,
      "chel": 4797,
      "chào": 4798,
      "chênh_": 4799,
      "chức": 4800,
      "n_ng": 4801,
      "n_ma": 4802,
      "n_dụng": 4803,
      "thô": 4804,
      "thống": 4805,
      "thir": 4806,
      "thẩm_": 4807,
      "thật_": 4808,
      "thềm": 4809,
      "ng_viên": 4810,
      "quê": 4811,
      "trống": 4812,
      "trận": 4813,
      "tránh": 4814,
      "phật": 4815,
      "phùng_": 4816,
      "i_su": 4817,
      "i_nghiệm": 4818,
      "t_mor": 4819,
      "_thao": 4820,
      "_thường_": 4821,
      "_thoái": 4822,
      "_trúc": 4823,
      "gió": 4824,
      "giấy": 4825,
      "kha": 4826,
      "khiển": 4827,
      "khâu": 4828,
      "khắc": 4829,
      "ane": 4830,
      "anistan": 4831,
      "anwar_": 4832,
      "chín": 4833,
      "iếu_": 4834,
      "u_mạnh": 4835,
      "ngày_sinh": 4836,
      "việt_namcuba": 4837,
      "đạp": 4838,
      "ượu_": 4839,
      "hà_tĩnh": 4840,
      "iềm_": 4841,
      "n_hồng_": 4842,
      "bộ_tư_lệnh": 4843,
      "ân_xô_": 4844,
      "_đức_": 4845,
      "_đẹp": 4846,
      "_đồng": 4847,
      "nghị_lực": 4848,
      "kỳ_tích": 4849,
      "quốc_tịch": 4850,
      "quốc_tang": 4851,
      "_lùi": 4852,
      "_cơ": 4853,
      "_công": 4854,
      "_cấu": 4855,
      "1912": 4856,
      "1931": 4857,
      "t_động_sản": 4858,
      "_một": 4859,
      "baf": 4860,
      "baqer_": 4861,
      "_si": 4862,
      "_sal": 4863,
      "_sau": 4864,
      "_sáu": 4865,
      "_sát": 4866,
      "_nên": 4867,
      "gian_khổ": 4868,
      "ng_thanh": 4869,
      "ng_thưởng": 4870,
      "ng_thắn": 4871,
      "hoà_": 4872,
      "_dịch": 4873,
      "n_lâm": 4874,
      "n_liệu": 4875,
      "_vị": 4876,
      "_vấn": 4877,
      "_vaj": 4878,
      "công_quốc_gia": 4879,
      "đồng_minh": 4880,
      "sáng": 4881,
      "cao_cấp": 4882,
      "cao_cả": 4883,
      "cao_đẹp": 4884,
      "108": 4885,
      "20212025": 4886,
      "20212030": 4887,
      "1113": 4888,
      "nhân_ái": 4889,
      "nhà_tài": 4890,
      "cảm_": 4891,
      "din": 4892,
      "số_hoá": 4893,
      "ay_": 4894,
      "cơ_cấu": 4895,
      "ina": 4896,
      "hà_nôi": 4897,
      "129": 4898,
      "i_giảm_": 4899,
      "hồng": 4900,
      "anh_em": 4901,
      "art": 4902,
      "ard_": 4903,
      "cos": 4904,
      "cois_": 4905,
      "_ber": 4906,
      "_buộc": 4907,
      "algeria": 4908,
      "dự_luật": 4909,
      "thực_phẩm": 4910,
      "ng_đa": 4911,
      "ng_đất": 4912,
      "20182023": 4913,
      "đảng_bộ_trưởng": 4914,
      "bốn": 4915,
      "bản_thân": 4916,
      "nguyễn_văn_h": 4917,
      "nguyễn_bắc_": 4918,
      "nguyễn_ái_": 4919,
      "kế_toán": 4920,
      "kế_vị": 4921,
      "tối_đ": 4922,
      "tố_tụng": 4923,
      "ella": 4924,
      "chiến_tranh_": 4925,
      "ninhquốc": 4926,
      "ng_cốt": 4927,
      "giáp": 4928,
      "như_thế": 4929,
      "thiết_bị": 4930,
      "thương_binh": 4931,
      "an_mah": 4932,
      "300": 4933,
      "đáp": 4934,
      "erbai": 4935,
      "i_lọi": 4936,
      "mở_đầu": 4937,
      "trở_nên": 4938,
      "1974": 4939,
      "1978": 4940,
      "tàu": 4941,
      "động_thái": 4942,
      "22h": 4943,
      "1890": 4944,
      "_hương": 4945,
      "_hun_s": 4946,
      "recep": 4947,
      "isi": 4948,
      "điều_khoản": 4949,
      "điều_lệ": 4950,
      "puan_mah": 4951,
      "toàn_thắng": 4952,
      "bình_thường_": 4953,
      "tiến_sĩ": 4954,
      "phạm_công_t": 4955,
      "chủ_nghĩa_phát_xít": 4956,
      "tuân": 4957,
      "huế": 4958,
      "chủ": 4959,
      "ghanistan": 4960,
      "chuyển_": 4961,
      "lah": 4962,
      "tư_duy": 4963,
      "tư_pháp": 4964,
      "usse": 4965,
      "giao_thương": 4966,
      "giao_dịch": 4967,
      "_thịt": 4968,
      "este": 4969,
      "esper": 4970,
      "đóng_cửa": 4971,
      "duyên_hải": 4972,
      "thể_thao": 4973,
      "hoáxã": 4974,
      "quát": 4975,
      "quán_quân": 4976,
      "nguyễn_xuân_ký": 4977,
      "1962": 4978,
      "1964": 4979,
      "nguyễn_th": 4980,
      "châu_âu_e": 4981,
      "lê_đức": 4982,
      "lê_văn": 4983,
      "lê_minh_": 4984,
      "xuất_hiện": 4985,
      "yêu_": 4986,
      "triển_vọng": 4987,
      "1990": 4988,
      "lý_do": 4989,
      "mohamma": 4990,
      "đảng": 4991,
      "đẩy_lùi": 4992,
      "nghệ_s": 4993,
      "thị_thực": 4994,
      "bắc_kạn": 4995,
      "nghị_sỹ": 4996,
      "2006": 4997,
      "cảnh_báo": 4998,
      "_thuẫn": 4999,
      "_thuột": 5000,
      "trần_quốc_": 5001,
      "trần_cẩm": 5002,
      "tự_do_hoá": 5003,
      "vương_đình_huệ_uỷ_viên": 5004,
      "martin_": 5005,
      "dez": 5006,
      "võ_nguyên_": 5007,
      "_gu": 5008,
      "_guterres": 5009,
      "rison": 5010,
      "tác_dụng": 5011,
      "hội_đồng_quản_trị": 5012,
      "di_cư": 5013,
      "bạn_đọc": 5014,
      "_tổng_": 5015,
      "chủ_quyền": 5016,
      "chủ_quản": 5017,
      "dương_oana": 5018,
      "dương_oceanbank": 5019,
      "tối_thiểu": 5020,
      "hoàng_trung_": 5021,
      "rodri": 5022,
      "tiền_đề": 5023,
      "trịan": 5024,
      "joe_biden_": 5025,
      "australia_scot": 5026,
      "điện_lực": 5027,
      "tiếp_nhận": 5028,
      "_nhìn": 5029,
      "cpp": 5030,
      "năm_": 5031,
      "tranh_cãi": 5032,
      "aipa44": 5033,
      "cơ_sở_hạ_tầng": 5034,
      "cáo_buộc": 5035,
      "yếu_tố": 5036,
      "trải_nghiệm": 5037,
      "1941": 5038,
      "abe_sh": 5039,
      "luxem": 5040,
      "luồng": 5041,
      "vững_vàng": 5042,
      "csđt": 5043,
      "364": 5044,
      "bất_ổn": 5045,
      "liz_tr": 5046,
      "đương_nhiệm": 5047,
      "yaw": 5048,
      "thu_nhập": 5049,
      "dấu_hiệu": 5050,
      "cử": 5051,
      "đô_thị": 5052,
      "hà": 5053,
      "longkor": 5054,
      "thượng_nghị_sĩ": 5055,
      "azcanel": 5056,
      "azerbai": 5057,
      "cấp_bậc": 5058,
      "cấp_bách": 5059,
      "hamon": 5060,
      "hamad": 5061,
      "bước_đầu": 5062,
      "khuyến_": 5063,
      "sinh_mệnh": 5064,
      "io_guterres": 5065,
      "lan_thương": 5066,
      "buôn_ma": 5067,
      "chứng_kiến": 5068,
      "cổng": 5069,
      "lệch": 5070,
      "pradesh": 5071,
      "bản_chất": 5072,
      "inzo": 5073,
      "tài_trợ": 5074,
      "hậu_phương": 5075,
      "vào": 5076,
      "on_su": 5077,
      "vốn": 5078,
      "áp_đảo": 5079,
      "điểm_cao": 5080,
      "phản_ánh": 5081,
      "bour": 5082,
      "góp": 5083,
      "lớp": 5084,
      "tiền_thân": 5085,
      "1952": 5086,
      "1959": 5087,
      "xoá_đó": 5088,
      "bắc_trung_": 5089,
      "francois_": 5090,
      "nguyễn_văn_sơn": 5091,
      "địa_lý": 5092,
      "cứu_hộ": 5093,
      "vũ_khí": 5094,
      "scot": 5095,
      "nha_trang": 5096,
      "tìm_kiếm": 5097,
      "bùi_văn_": 5098,
      "fumio_k": 5099,
      "tân_hoà": 5100,
      "đến": 5101,
      "n_móng": 5102,
      "cường_uỷ_viên": 5103,
      "d_baqer_": 5104,
      "lâm_đồng": 5105,
      "ận": 5106,
      "ngô_văn": 5107,
      "ar_pradesh": 5108,
      "cân_bằng": 5109,
      "deri": 5110,
      "đa_khoa": 5111,
      "_tayyip_erdogan": 5112,
      "tri_thức": 5113,
      "trình_tự": 5114,
      "nghe_nhìn": 5115,
      "_cảm": 5116,
      "salam": 5117,
      "cựu_ngoại": 5118,
      "vcci": 5119,
      "chi_phí": 5120,
      "i_hỏi": 5121,
      "khen_thưởng": 5122,
      "nghị": 5123,
      "nghi_thức": 5124,
      "nghiêm_minh": 5125,
      "mahathir": 5126,
      "maha_vaj": 5127,
      "francisco": 5128,
      "máu_thịt": 5129,
      "suy_thoái": 5130,
      "nhạy_cảm": 5131,
      "chế_hoá": 5132,
      "thiệt_hại": 5133,
      "trình_bày": 5134,
      "khảo_sát": 5135,
      "việt_trung": 5136,
      "cop28": 5137,
      "vesak_liên": 5138,
      "chu_ngọc_anh": 5139,
      "elizabeth_ii": 5140,
      "bảo_hiểm_xã_hội": 5141,
      "afghanistan": 5142,
      "cực_hữu": 5143,
      "lộ_trình": 5144,
      "nandez": 5145,
      "tội_phạm": 5146,
      "về": 5147,
      "chói_lọi": 5148,
      "trần_thanh_": 5149,
      "giàu_mạnh": 5150,
      "inda_": 5151,
      "trịnh_văn_quyết": 5152,
      "tiền_tuyến": 5153,
      "new_york_mỹ": 5154,
      "frederi": 5155,
      "iralongkor": 5156,
      "kiến_quốc": 5157,
      "lan_uỷ_viên": 5158,
      "miễn_nhiệm": 5159,
      "nền_móng": 5160,
      "tầm_vóc": 5161,
      "tô_ân_xô_": 5162,
      "đòi_hỏi": 5163,
      "thẳng_thắn": 5164,
      "nghề_nghiệp": 5165,
      "nguyên_liệu": 5166,
      "_văn_h": 5167,
      "chính_trị_gia": 5168,
      "huỳnh": 5169,
      "giao_phó": 5170,
      "trịnh_xuân_thanh": 5171,
      "luân_chuyển": 5172,
      "đào_hồng_lan_uỷ_viên": 5173,
      "jerusalem": 5174,
      "loại_hình": 5175,
      "acmec": 5176,
      "bất_động_sản": 5177,
      "bước_đi": 5178,
      "diễn": 5179,
      "darussalam": 5180,
      "dài_hạn": 5181,
      "gũi": 5182,
      "gần_gũi": 5183,
      "ibrahim": 5184,
      "liệt_s": 5185,
      "mật_thiết": 5186,
      "mai_văn_": 5187,
      "nòng_cốt": 5188,
      "oanh_liệt": 5189,
      "qalibaf": 5190,
      "rút_": 5191,
      "schulz": 5192,
      "sri_lanka": 5193,
      "tỷ": 5194,
      "tầng_": 5195,
      "tặng_thưởng": 5196,
      "tấn_công": 5197,
      "uttar_pradesh": 5198,
      "uganda": 5199,
      "vùng_đất": 5200,
      "việt": 5201,
      "vksnd": 5202,
      "xu_hướng": 5203,
      "đập_tan": 5204,
      "đe_doạ": 5205,
      "_techo_hun_s": 5206,
      "chênh_lệch": 5207,
      "thống_trị": 5208,
      "thật_sự": 5209,
      "t_morrison": 5210,
      "anwar_ibrahim": 5211,
      "_salman": 5212,
      "nhà_tài_trợ": 5213,
      "hà_nôi_ttxvn": 5214,
      "i_giảm_nghèo": 5215,
      "nguyễn_bắc_son": 5216,
      "nguyễn_ái_quốc_chủ_tịch": 5217,
      "tối_đa": 5218,
      "recep_tayyip_erdogan": 5219,
      "puan_mahar": 5220,
      "bình_thường_hoá": 5221,
      "phạm_công_tạc": 5222,
      "lê_đức_thọ": 5223,
      "lê_văn_thành": 5224,
      "mohammad_baqer_": 5225,
      "trần_cẩm_tú": 5226,
      "martin_schulz": 5227,
      "võ_nguyên_giáp": 5228,
      "joe_biden_chủ_tịch": 5229,
      "abe_shinzo": 5230,
      "luxembour": 5231,
      "liz_truss": 5232,
      "azerbaijan": 5233,
      "buôn_ma_thuột": 5234,
      "xoá_đói_giảm_nghèo": 5235,
      "tân_hoàng_": 5236,
      "maha_vajiralongkor": 5237,
      "acmecs": 5238,
      "_techo_hun_sen": 5239,
      "mohammad_baqer_qalibaf": 5240,
      "luxembourg": 5241,
      "225": 5242,
      "445": 5243,
      "470": 5244,
      "61": 5245,
      "600": 5246,
      "71": 5247,
      "87": 5248,
      "96": 5249,
      "912": 5250,
      "_z": 5251,
      "_chính": 5252,
      "_dân": 5253,
      "_quốc": 5254,
      "_anh": 5255,
      "_iii": 5256,
      "_xanh": 5257,
      "_quang_": 5258,
      "_đạp": 5259,
      "ag": 5260,
      "ath": 5261,
      "bh": 5262,
      "bất": 5263,
      "biến": 5264,
      "băng": 5265,
      "bạo": 5266,
      "bon": 5267,
      "bình_uỷ_viên": 5268,
      "cd": 5269,
      "cù": 5270,
      "cũ": 5271,
      "cở": 5272,
      "câu": 5273,
      "cập_": 5274,
      "cột": 5275,
      "cẩm_": 5276,
      "ctn": 5277,
      "dg": 5278,
      "dễ": 5279,
      "dứ": 5280,
      "dc_": 5281,
      "dầu": 5282,
      "dường_": 5283,
      "dùng": 5284,
      "dòng": 5285,
      "di_d": 5286,
      "dừng": 5287,
      "dốt": 5288,
      "dậy": 5289,
      "dám": 5290,
      "ew": 5291,
      "evi": 5292,
      "eyaw": 5293,
      "fa": 5294,
      "fdi": 5295,
      "for": 5296,
      "ga_": 5297,
      "gòn": 5298,
      "gọn": 5299,
      "gaza": 5300,
      "glas": 5301,
      "he": 5302,
      "hê": 5303,
      "huỷ": 5304,
      "hướng_": 5305,
      "hiểu_": 5306,
      "ic": 5307,
      "ipso": 5308,
      "jus": 5309,
      "jon": 5310,
      "jean": 5311,
      "ka_": 5312,
      "kva": 5313,
      "kiệt_": 5314,
      "kur": 5315,
      "kiềm_": 5316,
      "l_": 5317,
      "le": 5318,
      "lt": 5319,
      "lẫ": 5320,
      "lượ": 5321,
      "la_": 5322,
      "lương_": 5323,
      "leo": 5324,
      "lưu": 5325,
      "lạnh": 5326,
      "lưỡng": 5327,
      "lừng_": 5328,
      "le_pen": 5329,
      "ley": 5330,
      "lùi": 5331,
      "lma_": 5332,
      "mai": 5333,
      "mun": 5334,
      "mlin": 5335,
      "n1": 5336,
      "nấ": 5337,
      "nan": 5338,
      "niên_": 5339,
      "nis": 5340,
      "niệm": 5341,
      "nara": 5342,
      "nước_đ": 5343,
      "oan": 5344,
      "odo": 5345,
      "o_h": 5346,
      "pvc": 5347,
      "pvp": 5348,
      "qg": 5349,
      "ró": 5350,
      "ri_": 5351,
      "rãi": 5352,
      "rinda_": 5353,
      "só": 5354,
      "sư": 5355,
      "sao": 5356,
      "sai": 5357,
      "sin": 5358,
      "sen": 5359,
      "siết": 5360,
      "siêu": 5361,
      "ste": 5362,
      "sài_": 5363,
      "sdg": 5364,
      "skva": 5365,
      "tậ": 5366,
      "tờ": 5367,
      "tân_": 5368,
      "tta": 5369,
      "tis": 5370,
      "toán": 5371,
      "tất_th": 5372,
      "tâm_l": 5373,
      "uế": 5374,
      "ude": 5375,
      "uru": 5376,
      "uard_": 5377,
      "ví": 5378,
      "vắ": 5379,
      "vẹ": 5380,
      "vỡ": 5381,
      "vết": 5382,
      "vấp": 5383,
      "ven": 5384,
      "venezuela": 5385,
      "wab": 5386,
      "xo": 5387,
      "xay": 5388,
      "ye": 5389,
      "ym": 5390,
      "ý": 5391,
      "yế": 5392,
      "yam": 5393,
      "yeo": 5394,
      "y_al": 5395,
      "ziz": 5396,
      "zcanel": 5397,
      "ành_ph": 5398,
      "ần": 5399,
      "ấp": 5400,
      "ân_hoá": 5401,
      "éo": 5402,
      "ôm": 5403,
      "ộc": 5404,
      "ý_định": 5405,
      "đỉ": 5406,
      "điê": 5407,
      "đinh_": 5408,
      "đoa": 5409,
      "ữ": 5410,
      "̀m": 5411,
      "́o": 5412,
      "̉i": 5413,
      "̣n": 5414,
      "̣nh": 5415,
      "ản": 5416,
      "ảng_": 5417,
      "ấp_": 5418,
      "ất_định": 5419,
      "ận_h": 5420,
      "ằng_": 5421,
      "ẳn": 5422,
      "ịa": 5423,
      "ốn_h": 5424,
      "ớp": 5425,
      "ợ_cấp": 5426,
      "ngời": 5427,
      "ngôi": 5428,
      "ngoái": 5429,
      "nhờ": 5430,
      "nhất": 5431,
      "nhân_hoá": 5432,
      "nhất_định": 5433,
      "_tô": 5434,
      "_tề": 5435,
      "_tiế": 5436,
      "_tường_": 5437,
      "chân": 5438,
      "chi_l": 5439,
      "chen": 5440,
      "cháu": 5441,
      "cháy": 5442,
      "chánh_": 5443,
      "chwab": 5444,
      "chớp": 5445,
      "n_cấp": 5446,
      "n_nhân": 5447,
      "tho": 5448,
      "thồ": 5449,
      "thươ": 5450,
      "thầu": 5451,
      "thang": 5452,
      "thon": 5453,
      "thôi_": 5454,
      "ng_sự": 5455,
      "ng_mặt": 5456,
      "ng_phát": 5457,
      "ng_vũ_trang": 5458,
      "quận_h": 5459,
      "triệ": 5460,
      "triều_": 5461,
      "trật": 5462,
      "trần_l": 5463,
      "trái_": 5464,
      "trì_": 5465,
      "trợ_cấp": 5466,
      "phar": 5467,
      "phai_": 5468,
      "phép": 5469,
      "phno": 5470,
      "i_ra": 5471,
      "i_chủ_tịch": 5472,
      "i_mở": 5473,
      "i_vàng": 5474,
      "t_giữ": 5475,
      "t_pháp": 5476,
      "t_giảm": 5477,
      "t_danh": 5478,
      "_thập": 5479,
      "_thuậ": 5480,
      "_thang": 5481,
      "_thiệp": 5482,
      "_thải": 5483,
      "_thông_t": 5484,
      "_thanh_uỷ_viên": 5485,
      "_thiếu_": 5486,
      "_trude": 5487,
      "nh_cao": 5488,
      "gian": 5489,
      "giới_": 5490,
      "giữ": 5491,
      "khúc": 5492,
      "khối_": 5493,
      "khơi": 5494,
      "khắc_đ": 5495,
      "c_lợi": 5496,
      "amm": 5497,
      "anca": 5498,
      "anton": 5499,
      "anthon": 5500,
      "iết_": 5501,
      "việt_namtrung_quốc": 5502,
      "m_b": 5503,
      "m_si": 5504,
      "m_bắt": 5505,
      "m_pe": 5506,
      "hàn_lâm": 5507,
      "đãi": 5508,
      "quan_l": 5509,
      "quang_t": 5510,
      "hội_trường": 5511,
      "ười": 5512,
      "ao_ph": 5513,
      "quy_luật": 5514,
      "quy_tụ": 5515,
      "quyền": 5516,
      "quốc_khá": 5517,
      "quốc_đảo": 5518,
      "_đỏ": 5519,
      "_đông_": 5520,
      "_đặt": 5521,
      "_đào": 5522,
      "ait": 5523,
      "aine": 5524,
      "đại_hội_": 5525,
      "thứ_sáu": 5526,
      "_ly": 5527,
      "_lược": 5528,
      "_lau": 5529,
      "_lắp": 5530,
      "_cầu": 5531,
      "trung_bộ": 5532,
      "trung_học_": 5533,
      "_mai": 5534,
      "_mai_": 5535,
      "_mưu": 5536,
      "_mười": 5537,
      "bả": 5538,
      "ban_l": 5539,
      "cuộc": 5540,
      "cuốn_h": 5541,
      "_sức_": 5542,
      "_sto": 5543,
      "_sánh": 5544,
      "_séc": 5545,
      "_schwab": 5546,
      "_nào": 5547,
      "_new": 5548,
      "ng_thị": 5549,
      "ng_thân": 5550,
      "ng_thép": 5551,
      "_dàng": 5552,
      "nguy_cơ": 5553,
      "n_lao": 5554,
      "_vai_": 5555,
      "_viên_chức": 5556,
      "toà_th": 5557,
      "công_chức_": 5558,
      "công_giáo": 5559,
      "đồng_đều": 5560,
      "đồng_lòng": 5561,
      "thủ_trưởng": 5562,
      "hợp_thành": 5563,
      "hợp_đồng": 5564,
      "công_trình": 5565,
      "liêm": 5566,
      "lần_thứ": 5567,
      "a_x": 5568,
      "a_quốc_gia": 5569,
      "cao_tố": 5570,
      "cao_tuổi": 5571,
      "cao_minh_": 5572,
      "cao_sức_": 5573,
      "104": 5574,
      "nhất_tề": 5575,
      "hành_trình": 5576,
      "111": 5577,
      "113": 5578,
      "nhân_dịp": 5579,
      "dilma_": 5580,
      "banes": 5581,
      "ayeyaw": 5582,
      "anh_tra": 5583,
      "tiến_hoá": 5584,
      "20232025": 5585,
      "tổng_thanh_tra": 5586,
      "lập_thân": 5587,
      "127": 5588,
      "128": 5589,
      "dor": 5590,
      "do_đó": 5591,
      "douard_": 5592,
      "đói": 5593,
      "kinh_tế_thị": 5594,
      "cách_ly": 5595,
      "ban_ngành": 5596,
      "phóng_viên": 5597,
      "mỹ_đức": 5598,
      "lãi_su": 5599,
      "nhà_riêng": 5600,
      "car": 5601,
      "iazcanel": 5602,
      "giản_d": 5603,
      "chiếu": 5604,
      "chiến_kh": 5605,
      "cob": 5606,
      "_bỉ": 5607,
      "_biệt": 5608,
      "_bol": 5609,
      "_bén": 5610,
      "ali_": 5611,
      "alex": 5612,
      "dự_": 5613,
      "cộng_hoà_séc": 5614,
      "tuyển_": 5615,
      "20192024": 5616,
      "tổng_kiểm": 5617,
      "tổng_cộng": 5618,
      "đảng_lần_thứ": 5619,
      "xây_lắp": 5620,
      "bộ_y_tế": 5621,
      "nguyễn_duy": 5622,
      "nguyễn_ngọc_": 5623,
      "nguyễn_khắc_đ": 5624,
      "phương_thức": 5625,
      "nes": 5626,
      "netan": 5627,
      "nexay": 5628,
      "đặc_": 5629,
      "mạiđầu": 5630,
      "cái": 5631,
      "ngai_vàng": 5632,
      "dân_sự": 5633,
      "hạch": 5634,
      "som": 5635,
      "so_sánh": 5636,
      "sonexay": 5637,
      "an_sinh": 5638,
      "bắt_giữ": 5639,
      "truyề": 5640,
      "truyền": 5641,
      "ernandez": 5642,
      "i_lực": 5643,
      "khái": 5644,
      "149": 5645,
      "1417": 5646,
      "nam_định": 5647,
      "nam_mỹ": 5648,
      "133": 5649,
      "229": 5650,
      "2225": 5651,
      "ubtv": 5652,
      "180": 5653,
      "184": 5654,
      "lênin": 5655,
      "_hưởng": 5656,
      "reuter": 5657,
      "đoàn_chủ_tịch": 5658,
      "giáo_hội": 5659,
      "171": 5660,
      "định": 5661,
      "thủ": 5662,
      "thuốc_": 5663,
      "giải_trình": 5664,
      "giải_tán": 5665,
      "phụng_sự": 5666,
      "văn_học": 5667,
      "phạm_pháp_luật": 5668,
      "phạm_hùng": 5669,
      "phạm_xuân_th": 5670,
      "cầu_truyền_hình": 5671,
      "chủ_nghĩa_dân_tuý": 5672,
      "làm_giàu": 5673,
      "đánh_bạ": 5674,
      "đánh_bại": 5675,
      "ổi_cao_sức_": 5676,
      "phúc_": 5677,
      "....": 5678,
      "tte_": 5679,
      "270": 5680,
      "tosa": 5681,
      "tin_trude": 5682,
      "tunis": 5683,
      "tuổi_cao_sức_": 5684,
      "phong_tặng": 5685,
      "đài_": 5686,
      "tạo_tác": 5687,
      "hur": 5688,
      "huấn": 5689,
      "chung_thân": 5690,
      "sâu_sát": 5691,
      "sâu_xa": 5692,
      "minh_chứng": 5693,
      "một_chiều": 5694,
      "khởi_động": 5695,
      "laziz": 5696,
      "xe_đạp": 5697,
      "cam_go": 5698,
      "tư_lệnh": 5699,
      "tư_vấn": 5700,
      "n_vinh": 5701,
      "est": 5702,
      "bình_diện": 5703,
      "quân_hàm": 5704,
      "quân_chủng": 5705,
      "phòng_ngừa": 5706,
      "ander": 5707,
      "ngoài_ra": 5708,
      "người_phát_ngôn": 5709,
      "jom": 5710,
      "jomar": 5711,
      "qđtw": 5712,
      "nguyễn_xuân_phúc_": 5713,
      "thành_tố": 5714,
      "nguyễn_trọng_": 5715,
      "sinh_thái": 5716,
      "lê_thanh_": 5717,
      "lê_tiến_": 5718,
      "lê_đức_": 5719,
      "phân_cấp": 5720,
      "phân_bổ": 5721,
      "phân_chia": 5722,
      "phân_luồng": 5723,
      "xuất_nhập_khẩu": 5724,
      "nóng": 5725,
      "đảo_chính": 5726,
      "thể_chế_hoá": 5727,
      "đông_á": 5728,
      "đông_uru": 5729,
      "vati": 5730,
      "moral": 5731,
      "moskva": 5732,
      "tim": 5733,
      "đã": 5734,
      "tình_báo": 5735,
      "lo_ng": 5736,
      "thị_": 5737,
      "bắc_kinh": 5738,
      "bắc_xhcn": 5739,
      "bắc_ireland": 5740,
      "nguyễn_phú_trọng_tổng": 5741,
      "2009": 5742,
      "_thuý": 5743,
      "triệu_tập": 5744,
      "pach": 5745,
      "pade": 5746,
      "1982": 5747,
      "maroc": 5748,
      "trục_lợi": 5749,
      "bảo_hộ": 5750,
      "việt_uỷ_viên": 5751,
      "tối_ngày": 5752,
      "aus_schwab": 5753,
      "lhpn": 5754,
      "macron": 5755,
      "tác_chiến": 5756,
      "quan_sát": 5757,
      "ong_uỷ_viên": 5758,
      "xung_lực": 5759,
      "biên_chế_viên_chức": 5760,
      "australia_": 5761,
      "chủ_nhật": 5762,
      "dương_appf": 5763,
      "dương_cptpp": 5764,
      "kém": 5765,
      "không_gian": 5766,
      "công_nghệ_thông_t": 5767,
      "doanh_nhân": 5768,
      "burg": 5769,
      "bao_cấp": 5770,
      "mette_": 5771,
      "rousse": 5772,
      "shir": 5773,
      "tiền_nhiệm": 5774,
      "t_sao": 5775,
      "19451954": 5776,
      "_nha": 5777,
      "_nhiu": 5778,
      "chi_tiết": 5779,
      "phủ_": 5780,
      "aipa43": 5781,
      "999": 5782,
      "cáo_trạng": 5783,
      "trường_chinh": 5784,
      "1943": 5785,
      "1948": 5786,
      "bias": 5787,
      "biê": 5788,
      "duro": 5789,
      "dưỡng": 5790,
      "lui": 5791,
      "chặn": 5792,
      "chặng": 5793,
      "khẩn_cấp": 5794,
      "sonaro": 5795,
      "bất_kỳ": 5796,
      "bất_đồng": 5797,
      "bất_khu": 5798,
      "đương_đầu": 5799,
      "đương_đại": 5800,
      "đề_cao": 5801,
      "lực_lượ": 5802,
      "nsnn": 5803,
      "yahu": 5804,
      "_trung_uỷ_viên": 5805,
      "nguyễn_thị_thu_": 5806,
      "e_in": 5807,
      "tình_thế": 5808,
      "động_đất": 5809,
      "hành": 5810,
      "ruz": 5811,
      "vua_": 5812,
      "azo_h": 5813,
      "khả_thi": 5814,
      "cấp_bộ": 5815,
      "751": 5816,
      "bế_tắc": 5817,
      "lâu_nay": 5818,
      "lâu_đài": 5819,
      "học_giả": 5820,
      "học_viện": 5821,
      "học_sinh": 5822,
      "võ_văn_thưởng_tổng_thống": 5823,
      "tanzan": 5824,
      "ngoa": 5825,
      "_maduro": 5826,
      "vận_chuyển": 5827,
      "nắm_bắt": 5828,
      "20102015": 5829,
      "philippe": 5830,
      "áng_lập": 5831,
      "bản_lề": 5832,
      "lê_quang_": 5833,
      "mekong_": 5834,
      "khủng_hoảng_": 5835,
      "487": 5836,
      "bùi": 5837,
      "bùng_phát": 5838,
      "cố_ý": 5839,
      "chứng_nhận": 5840,
      "hợp_nhất": 5841,
      "hợp_lý": 5842,
      "tổng": 5843,
      "tân_tổng_thống": 5844,
      "chăm_lo": 5845,
      "bản_án": 5846,
      "hậu_cần": 5847,
      "hưởng_": 5848,
      "luật_pháp": 5849,
      "áp_lực": 5850,
      "đỗ_mười": 5851,
      "chuyên_môn": 5852,
      "bol": 5853,
      "gow": 5854,
      "lớn_lao": 5855,
      "yoon_su": 5856,
      "_tín_nhiệm": 5857,
      "19711975": 5858,
      "tự_phê_bình": 5859,
      "ady": 5860,
      "sẽ": 5861,
      "nguyễn_thanh_long": 5862,
      "nguyễn_thanh_hải": 5863,
      "bão": 5864,
      "can_thiệp": 5865,
      "gang_thép": 5866,
      "nigeria": 5867,
      "thanh_thiếu_": 5868,
      "tranh_thủ": 5869,
      "quy_phạm_pháp_luật": 5870,
      "19541975": 5871,
      "hạt_nhân_hoá": 5872,
      "bài_bản": 5873,
      "địa_cầu": 5874,
      "vũ_hồng_": 5875,
      "bồ_đào": 5876,
      "clv": 5877,
      "uterte": 5878,
      "đơn_từ": 5879,
      "ưu_quang_uỷ_viên": 5880,
      "ishida": 5881,
      "19601976": 5882,
      "bùi_nhật_": 5883,
      "_al_sau": 5884,
      "bút_danh": 5885,
      "cần_cù": 5886,
      "tầm": 5887,
      "tâm_lý": 5888,
      "đêm": 5889,
      "đề": 5890,
      "cải_tổ": 5891,
      "tây_nhật_bản": 5892,
      "saudi_arabia_salman": 5893,
      "cường_quốc": 5894,
      "syria": 5895,
      "ật": 5896,
      "trang_trọng": 5897,
      "inea": 5898,
      "cân_nhắc": 5899,
      "gương_mẫu": 5900,
      "kỳ": 5901,
      "đường": 5902,
      "trị": 5903,
      "phái_bộ": 5904,
      "nguyễn_văn_thể": 5905,
      "nguyễn_văn_thắng": 5906,
      "els_bỉ": 5907,
      "trần_văn_nam": 5908,
      "trần_văn_ró": 5909,
      "cựu_giám": 5910,
      "phổ_thông": 5911,
      "thông_cáo_chung": 5912,
      "thái_tử": 5913,
      "ussels_bỉ": 5914,
      "thị_trấn": 5915,
      "abdulaziz": 5916,
      "_thuỵ_sĩ": 5917,
      "_ngọc": 5918,
      "dược_phẩm": 5919,
      "dược_bộ_y_tế": 5920,
      "hiểm_nguy": 5921,
      "hiểm_yếu": 5922,
      "ksen": 5923,
      "suy_nghĩ": 5924,
      "ngăn_ngừa": 5925,
      "ngăn_chặn": 5926,
      "nhạy_bén": 5927,
      "thiệt_mạng": 5928,
      "trình_độ": 5929,
      "sát_cánh": 5930,
      "khoa_học_xã_hội": 5931,
      "áthái_bình_dương_apec": 5932,
      "chu_ngọc_anh_uỷ_viên": 5933,
      "_scotland": 5934,
      "bảo_hiểm_y_tế": 5935,
      "cntt": 5936,
      "expo": 5937,
      "guay": 5938,
      "hăng_hái": 5939,
      "hăng_say": 5940,
      "mãn_nhiệm": 5941,
      "rộng_rãi": 5942,
      "tam_gi": 5943,
      "vật_thể": 5944,
      "ấm_no": 5945,
      "thụ_hưởng": 5946,
      "thiên_tài": 5947,
      "iên_huế": 5948,
      "_mohamad": 5949,
      "20052010": 5950,
      "xuân_thuỷ": 5951,
      "davos_thuỵ_sỹ": 5952,
      "_jr": 5953,
      "gms": 5954,
      "klaus_schwab": 5955,
      "lưu_hành": 5956,
      "nội": 5957,
      "panmun": 5958,
      "_tây_dương": 5959,
      "chung_khảo": 5960,
      "trần_hồng_": 5961,
      "hài_hoà": 5962,
      "balmoral": 5963,
      "cửu_long": 5964,
      "nhà_sáng_lập": 5965,
      "capella": 5966,
      "nguyễn_quang_dương": 5967,
      "thiếu_niên": 5968,
      "đặng_quốc_khá": 5969,
      "thuỵ_sỹ": 5970,
      "đa_dạng": 5971,
      "mặt_hàng": 5972,
      "tại_vị": 5973,
      "unclos": 5974,
      "gặp_gỡ": 5975,
      "jakarta": 5976,
      "arab_thống": 5977,
      "lê_quốc_phong": 5978,
      "nghĩa_vụ": 5979,
      "abdullah": 5980,
      "charles_iii": 5981,
      "miguel_diazcanel": 5982,
      "helsinki_": 5983,
      "thừa_thiên_huế": 5984,
      "bangkok_thái_lan": 5985,
      "brussels_bỉ": 5986,
      "cúm": 5987,
      "cây_xanh": 5988,
      "cấu_trúc": 5989,
      "dâng": 5990,
      "duma_quốc_gia": 5991,
      "kề_vai_": 5992,
      "kremlin": 5993,
      "máclênin": 5994,
      "norodo": 5995,
      "nồng_ấm": 5996,
      "chứa": 5997,
      "thống": 5998,
      "thẩm_quyền": 5999,
      "quê_hương": 6000,
      "_siphan": 6001,
      "ina_s": 6002,
      "cos_jr": 6003,
      "tuân_thủ": 6004,
      "huếđà_nẵng": 6005,
      "esteban_l": 6006,
      "esperanca": 6007,
      "nguyễn_thành_ph": 6008,
      "lê_minh_khái": 6009,
      "nghệ_sĩ": 6010,
      "_guinea": 6011,
      "rodrig": 6012,
      "australia_scott_morrison": 6013,
      "năm_ngoái": 6014,
      "bắc_trung_bộ": 6015,
      "scotland": 6016,
      "fumio_kishida": 6017,
      "ngô_văn_tuấn_uỷ_viên": 6018,
      "mahathir_mohamad": 6019,
      "francisco_nhiu": 6020,
      "trần_thanh_liêm": 6021,
      "frederiksen": 6022,
      "liệt_sĩ": 6023,
      "mai_văn_chính_uỷ_viên": 6024,
      "rút_lui": 6025,
      "tầng_lớp": 6026,
      "puan_maharani": 6027,
      "trần_cẩm_tú_uỷ_viên": 6028,
      "tân_hoàng_minh": 6029,
      "mohammad_baqer_qalibaf_chủ_tịch": 6030,
      "bất_tín_nhiệm": 6031,
      "cởi_mở": 6032,
      "cập_nhật": 6033,
      "cẩm_nang": 6034,
      "dễ_dàng": 6035,
      "dường_như": 6036,
      "di_dời": 6037,
      "glasgow": 6038,
      "hướng_dẫn": 6039,
      "hiểu_biết": 6040,
      "ipsos": 6041,
      "justin_trude": 6042,
      "kiệt_xuất": 6043,
      "kiềm_chế": 6044,
      "lẫy": 6045,
      "leo_thang": 6046,
      "lừng_lẫy": 6047,
      "nấc": 6048,
      "nước_độc": 6049,
      "rinda_francisco_nhiu": 6050,
      "sóng_": 6051,
      "sentosa": 6052,
      "sài_gòn": 6053,
      "tận_dụng": 6054,
      "tất_thành_": 6055,
      "tâm_linh": 6056,
      "vắng_mặt": 6057,
      "yếu_": 6058,
      "y_albanes": 6059,
      "đỉnh_cao": 6060,
      "chi_lăng": 6061,
      "chánh_án": 6062,
      "thôi_việc": 6063,
      "quận_huyện": 6064,
      "trật_tự": 6065,
      "trần_lưu_quang_uỷ_viên": 6066,
      "trì_hoãn": 6067,
      "pharma": 6068,
      "phnom_pe": 6069,
      "giới_chức": 6070,
      "khối_doanh_nghiệp": 6071,
      "antonio_guterres": 6072,
      "anthony_albanes": 6073,
      "m_sihamon": 6074,
      "quan_liêu": 6075,
      "ao_phra": 6076,
      "đại_hội_đảng_lần_thứ": 6077,
      "_laurinda_francisco_nhiu": 6078,
      "trung_học_phổ_thông": 6079,
      "cuốn_hút": 6080,
      "công_chức_viên_chức": 6081,
      "cao_tốc": 6082,
      "cao_minh_quang": 6083,
      "dilma_rousse": 6084,
      "ayeyawady": 6085,
      "douard_philippe": 6086,
      "kinh_tế_thị_trường": 6087,
      "lãi_suất": 6088,
      "giản_dị": 6089,
      "chiến_khu": 6090,
      "alexander": 6091,
      "tuyển_chọn": 6092,
      "netanyahu": 6093,
      "sonexay_siphan": 6094,
      "ubtvqh": 6095,
      "reuters": 6096,
      "phạm_xuân_thăng": 6097,
      "đánh_bạc": 6098,
      "tunisia": 6099,
      "tuổi_cao_sức_yếu": 6100,
      "đông_uruguay": 6101,
      "vatican": 6102,
      "lo_ngại": 6103,
      "công_nghệ_thông_tin": 6104,
      "mette_frederiksen": 6105,
      "biểu": 6106,
      "bất_khuất": 6107,
      "lực_lượng_vũ_trang": 6108,
      "nguyễn_thị_thu_hà": 6109,
      "azo_hernandez": 6110,
      "tanzania": 6111,
      "hưởng_ứng": 6112,
      "bồ_đào_nha": 6113,
      "đơn_từ_chức": 6114,
      "_al_saud": 6115,
      "abdulaziz_al_saud": 6116,
      "tam_giác": 6117,
      "panmunjom": 6118,
      "đặng_quốc_khánh_uỷ_viên": 6119,
      "helsinki_phần_lan": 6120,
      "kề_vai_sát_cánh": 6121,
      "norodom_sihamon": 6122,
      "esteban_lazo_hernandez": 6123,
      "esperanca_laurinda_francisco_nhiu": 6124,
      "anthony_albanese": 6125,
      "dilma_rousseff": 6126,
      "esperanca_laurinda_francisco_nhiuane": 6127,
      "130": 6128,
      "214": 6129,
      "213": 6130,
      "2129": 6131,
      "312": 6132,
      "317": 6133,
      "350": 6134,
      "326": 6135,
      "370": 6136,
      "360": 6137,
      "420": 6138,
      "410": 6139,
      "450": 6140,
      "499": 6141,
      "468": 6142,
      "578": 6143,
      "593": 6144,
      "5n1": 6145,
      "81": 6146,
      "83": 6147,
      "810": 6148,
      "860": 6149,
      "880": 6150,
      "875": 6151,
      "868": 6152,
      "8445": 6153,
      "97": 6154,
      "9h": 6155,
      "919": 6156,
      "911": 6157,
      "947": 6158,
      "985": 6159,
      "_e": 6160,
      "_o": 6161,
      "_là": 6162,
      "_chủ": 6163,
      "_ra": 6164,
      "_quan": 6165,
      "_ba": 6166,
      "_nhà_nước": 6167,
      "_chiều": 6168,
      "_hàng": 6169,
      "_phủ": 6170,
      "_giam": 6171,
      "_ngọc_": 6172,
      "_ak": 6173,
      "_chiếu": 6174,
      "á": 6175,
      "aqu": 6176,
      "au_": 6177,
      "aki": 6178,
      "aec": 6179,
      "akel": 6180,
      "ako": 6181,
      "a_new": 6182,
      "bb": 6183,
      "bj": 6184,
      "bm": 6185,
      "bn": 6186,
      "biên": 6187,
      "bus": 6188,
      "biến_": 6189,
      "bút": 6190,
      "bám": 6191,
      "bén": 6192,
      "beco": 6193,
      "bầu": 6194,
      "b_ra": 6195,
      "cq": 6196,
      "ct": 6197,
      "cô": 6198,
      "cắ": 6199,
      "cừ": 6200,
      "cong": 6201,
      "ca_": 6202,
      "cành": 6203,
      "cang": 6204,
      "ctt": 6205,
      "cốt": 6206,
      "cốc": 6207,
      "cri": 6208,
      "cro": 6209,
      "cấp": 6210,
      "diệ": 6211,
      "dung_": 6212,
      "dây": 6213,
      "del": 6214,
      "dấn": 6215,
      "dâm_": 6216,
      "dro": 6217,
      "diệt_": 6218,
      "ea": 6219,
      "eg": 6220,
      "eh": 6221,
      "eth": 6222,
      "eng_": 6223,
      "e_s": 6224,
      "etin": 6225,
      "ede": 6226,
      "epp": 6227,
      "e_con": 6228,
      "ebc": 6229,
      "etro": 6230,
      "edouard_philippe": 6231,
      "fl": 6232,
      "f_s": 6233,
      "fga": 6234,
      "fven": 6235,
      "gr": 6236,
      "gá": 6237,
      "gọ": 6238,
      "gách": 6239,
      "gay": 6240,
      "geo": 6241,
      "gạo": 6242,
      "glu": 6243,
      "grac": 6244,
      "guterres": 6245,
      "hơ": 6246,
      "hẹ": 6247,
      "hủ": 6248,
      "hứ": 6249,
      "hi_": 6250,
      "ha_": 6251,
      "hin": 6252,
      "hổi": 6253,
      "hiếu": 6254,
      "hel": 6255,
      "hứng": 6256,
      "hẹp": 6257,
      "hòn": 6258,
      "hỏi": 6259,
      "hậ": 6260,
      "hali": 6261,
      "hát": 6262,
      "hcap": 6263,
      "hẳn": 6264,
      "ita": 6265,
      "i_techo_hun_sen": 6266,
      "i_trung_uỷ_viên": 6267,
      "ib_ra": 6268,
      "iebc": 6269,
      "ju": 6270,
      "jam": 6271,
      "jai": 6272,
      "jib_ra": 6273,
      "kk": 6274,
      "kt": 6275,
      "kay": 6276,
      "kas": 6277,
      "kiệt": 6278,
      "ker": 6279,
      "kto": 6280,
      "kab": 6281,
      "kem": 6282,
      "ka_m": 6283,
      "kali": 6284,
      "knes": 6285,
      "lb": 6286,
      "lí": 6287,
      "ló": 6288,
      "lô": 6289,
      "lề": 6290,
      "lỗ": 6291,
      "linh": 6292,
      "l_s": 6293,
      "ldo": 6294,
      "luô": 6295,
      "lis": 6296,
      "lus": 6297,
      "lời_": 6298,
      "lland": 6299,
      "lọt": 6300,
      "laro": 6301,
      "mú": 6302,
      "mơ": 6303,
      "mư": 6304,
      "mỏ": 6305,
      "mực": 6306,
      "min": 6307,
      "man_": 6308,
      "mâu": 6309,
      "mer": 6310,
      "men": 6311,
      "mau": 6312,
      "mừng": 6313,
      "mon": 6314,
      "mỏi": 6315,
      "mvi": 6316,
      "mắt": 6317,
      "máy": 6318,
      "m_thiết": 6319,
      "mới": 6320,
      "mệt_": 6321,
      "mjomar": 6322,
      "nạ": 6323,
      "nặ": 6324,
      "nương": 6325,
      "neo": 6326,
      "nuô": 6327,
      "nốt": 6328,
      "no_": 6329,
      "nồng": 6330,
      "niên_h": 6331,
      "op": 6332,
      "ov": 6333,
      "o_l": 6334,
      "o_c": 6335,
      "osa": 6336,
      "oas": 6337,
      "ola": 6338,
      "oil": 6339,
      "oman": 6340,
      "oha": 6341,
      "omi": 6342,
      "òng": 6343,
      "o_ma": 6344,
      "o_ber": 6345,
      "ofven": 6346,
      "okay": 6347,
      "omvi": 6348,
      "p5": 6349,
      "pgi": 6350,
      "pca": 6351,
      "pia": 6352,
      "pau": 6353,
      "pez": 6354,
      "pctn": 6355,
      "pic": 6356,
      "qat": 6357,
      "rà": 6358,
      "rơ": 6359,
      "rủ": 6360,
      "rực": 6361,
      "r_m": 6362,
      "ráo": 6363,
      "rin": 6364,
      "rer": 6365,
      "rừng": 6366,
      "rơi": 6367,
      "rồng_": 6368,
      "rượu_": 6369,
      "r_sto": 6370,
      "r_bol": 6371,
      "sí": 6372,
      "sô": 6373,
      "sổ": 6374,
      "sụ": 6375,
      "sông_": 6376,
      "ser": 6377,
      "sre": 6378,
      "sti": 6379,
      "sĩ_": 6380,
      "sóng": 6381,
      "séc": 6382,
      "số": 6383,
      "sisi": 6384,
      "tb": 6385,
      "tị": 6386,
      "tử": 6387,
      "t_t": 6388,
      "tươ": 6389,
      "tộc": 6390,
      "tướng": 6391,
      "ta_": 6392,
      "tường": 6393,
      "tia": 6394,
      "tôi": 6395,
      "toát": 6396,
      "tva": 6397,
      "tôn": 6398,
      "tái_": 6399,
      "tiệp_": 6400,
      "taly": 6401,
      "tali": 6402,
      "tgp": 6403,
      "ttha": 6404,
      "tart": 6405,
      "tka_": 6406,
      "test": 6407,
      "ul": 6408,
      "up": 6409,
      "ung_th": 6410,
      "uổi": 6411,
      "ục": 6412,
      "ulou": 6413,
      "uhur": 6414,
      "vd": 6415,
      "vâ": 6416,
      "vác": 6417,
      "vinh": 6418,
      "vườ": 6419,
      "v_v": 6420,
      "vắc_": 6421,
      "vya": 6422,
      "vchen": 6423,
      "vvd": 6424,
      "wer": 6425,
      "wcs": 6426,
      "wol": 6427,
      "wait": 6428,
      "xỉ": 6429,
      "xương_": 6430,
      "xas": 6431,
      "xâm_": 6432,
      "xlen": 6433,
      "xấp_": 6434,
      "y_c": 6435,
      "y_d": 6436,
      "yas": 6437,
      "y_chủ_tịch": 6438,
      "y_ya": 6439,
      "zu": 6440,
      "zman": 6441,
      "zak": 6442,
      "áâu": 6443,
      "ái_đ": 6444,
      "ão": 6445,
      "ãn_m": 6446,
      "ết": 6447,
      "íazcanel": 6448,
      "ón": 6449,
      "ô_nh": 6450,
      "ôn_hoà": 6451,
      "ô_tô": 6452,
      "ý_dân": 6453,
      "đu": 6454,
      "đi_đ": 6455,
      "đi_l": 6456,
      "đôi": 6457,
      "đoạn": 6458,
      "đcs": 6459,
      "đất": 6460,
      "đó": 6461,
      "đầu": 6462,
      "ở": 6463,
      "ưỡ": 6464,
      "ưng": 6465,
      "́a": 6466,
      "́m": 6467,
      "̃ng": 6468,
      "̛̣": 6469,
      "̛́c": 6470,
      "̛̣c": 6471,
      "̣o": 6472,
      "̣p": 6473,
      "ạng_": 6474,
      "ả_r": 6475,
      "ẫu_": 6476,
      "ậm_": 6477,
      "ễn_": 6478,
      "ện_": 6479,
      "ịnh_": 6480,
      "ịp_": 6481,
      "ỏng": 6482,
      "ống_đa": 6483,
      "ổi_đ": 6484,
      "ộc_": 6485,
      "ợp": 6486,
      "ữ_uỷ_viên": 6487,
      "ữ_lượng": 6488,
      "ỵ_đ": 6489,
      "ngõ": 6490,
      "ngắ": 6491,
      "ngao": 6492,
      "ngàn": 6493,
      "ngôi_": 6494,
      "ngài_": 6495,
      "ngẫu_": 6496,
      "nhi_": 6497,
      "nhiệ": 6498,
      "nhạt": 6499,
      "nhôm": 6500,
      "nhãn_m": 6501,
      "nhịp_": 6502,
      "_tệ": 6503,
      "_tân": 6504,
      "_toá": 6505,
      "_tai": 6506,
      "_tối": 6507,
      "_tỉnh": 6508,
      "_tiền": 6509,
      "_tus": 6510,
      "_tóm": 6511,
      "chùng": 6512,
      "ches": 6513,
      "chăn_": 6514,
      "chèo": 6515,
      "chdc_": 6516,
      "chao_phra": 6517,
      "chlb": 6518,
      "n_chủ_tịch": 6519,
      "n_kinh_tế": 6520,
      "n_nguyên": 6521,
      "n_nhận": 6522,
      "n_viên": 6523,
      "n_cảm": 6524,
      "n_nhẹ": 6525,
      "n_ram": 6526,
      "n_yas": 6527,
      "thuy": 6528,
      "thân": 6529,
      "thân_": 6530,
      "thuỷ": 6531,
      "thưởng": 6532,
      "thâu": 6533,
      "thiên_": 6534,
      "thoát": 6535,
      "thôn": 6536,
      "thiện_": 6537,
      "thấm_": 6538,
      "thậm_": 6539,
      "ng_so": 6540,
      "ng_dịch": 6541,
      "ng_lễ": 6542,
      "ng_hổi": 6543,
      "ng_chăn_": 6544,
      "quỹ": 6545,
      "quật_": 6546,
      "quvết": 6547,
      "trừ": 6548,
      "triê": 6549,
      "trươ": 6550,
      "trời": 6551,
      "trúng": 6552,
      "trù_": 6553,
      "trái_đ": 6554,
      "trữ_lượng": 6555,
      "pheu": 6556,
      "phone": 6557,
      "phủ": 6558,
      "phòng": 6559,
      "phục": 6560,
      "i_xuân_": 6561,
      "i_ro": 6562,
      "i_ka": 6563,
      "i_vậy": 6564,
      "i_bão": 6565,
      "t_số": 6566,
      "t_hái": 6567,
      "207": 6568,
      "_thự": 6569,
      "_thoá": 6570,
      "_thuỷ": 6571,
      "_tháng": 6572,
      "_thực_": 6573,
      "_thi_đua": 6574,
      "_thav": 6575,
      "_thành_": 6576,
      "_trời": 6577,
      "nh_campuchia": 6578,
      "giai": 6579,
      "giống": 6580,
      "giết": 6581,
      "giáng": 6582,
      "giỏi": 6583,
      "giới": 6584,
      "gisti": 6585,
      "khô": 6586,
      "khubnd": 6587,
      "khen_": 6588,
      "khéo": 6589,
      "iênhu": 6590,
      "anu_v": 6591,
      "chí_c": 6592,
      "hộp": 6593,
      "hộ_chiếu": 6594,
      "iết_ch": 6595,
      "u_d": 6596,
      "u_đặ": 6597,
      "u_hiệu": 6598,
      "u_ky": 6599,
      "u_kenya": 6600,
      "ngày_một": 6601,
      "ại_tây_dương": 6602,
      "uy_": 6603,
      "việt_nam_c": 6604,
      "việt_namnhật_bản": 6605,
      "việt_namhàn_quốc": 6606,
      "việt_namthái_lan": 6607,
      "m_chứa": 6608,
      "làng": 6609,
      "hài": 6610,
      "hàn": 6611,
      "hà_văn": 6612,
      "hà_uỷ_viên": 6613,
      "hà_thị_": 6614,
      "hàm_chứa": 6615,
      "quay": 6616,
      "quanh": 6617,
      "quan_kh": 6618,
      "quang_thanh": 6619,
      "chủ_thể": 6620,
      "đản": 6621,
      "năm_tháng": 6622,
      "ân_tình": 6623,
      "phái": 6624,
      "n_hiệu": 6625,
      "quyết": 6626,
      "quốc_đoàn_": 6627,
      "_đi": 6628,
      "_đất": 6629,
      "_đơn": 6630,
      "_đua": 6631,
      "_đắp": 6632,
      "_đuổi": 6633,
      "_đống_đa": 6634,
      "aid": 6635,
      "aipo": 6636,
      "chính_thống": 6637,
      "chínhngân": 6638,
      "ông_vô": 6639,
      "đại_liên": 6640,
      "đại_hàn": 6641,
      "nhiệt_": 6642,
      "nhiệt_đ": 6643,
      "ra_s": 6644,
      "raham": 6645,
      "ra_lệnh": 6646,
      "ra_chiều": 6647,
      "ra_đi": 6648,
      "từ_biệt": 6649,
      "ất_thành": 6650,
      "_linh": 6651,
      "_liệt": 6652,
      "_loại": 6653,
      "_lái": 6654,
      "_lâm_": 6655,
      "_cu": 6656,
      "_cương": 6657,
      "_cao": 6658,
      "_cắt": 6659,
      "_cửa": 6660,
      "_cit": 6661,
      "tỉ_lệ": 6662,
      "19h": 6663,
      "1920": 6664,
      "1925": 6665,
      "1922": 6666,
      "1918": 6667,
      "1929": 6668,
      "1940": 6669,
      "1901": 6670,
      "19h30": 6671,
      "_mừng": 6672,
      "_mus": 6673,
      "_mil": 6674,
      "_mar_": 6675,
      "n_đông": 6676,
      "n_động_": 6677,
      "đống_đa": 6678,
      "bang_": 6679,
      "bác": 6680,
      "bashir": 6681,
      "cung": 6682,
      "_san": 6683,
      "_sinh_": 6684,
      "_sen": 6685,
      "_soát": 6686,
      "_start": 6687,
      "_nạn": 6688,
      "_nath": 6689,
      "gian_": 6690,
      "ng_thiết_": 6691,
      "hoà_nh": 6692,
      "hoàng_thái": 6693,
      "hoàng_thị": 6694,
      "hoài_trung_uỷ_viên": 6695,
      "hoài_bão": 6696,
      "_du": 6697,
      "_dụ": 6698,
      "_dân_": 6699,
      "_del": 6700,
      "_dép": 6701,
      "ập_thống": 6702,
      "n_lương": 6703,
      "n_linh": 6704,
      "n_luôn": 6705,
      "n_lofven": 6706,
      "_venezuela": 6707,
      "_viết_ch": 6708,
      "toà_trọng": 6709,
      "công_sản": 6710,
      "công_lý": 6711,
      "công_du": 6712,
      "công_sức": 6713,
      "công_cộng": 6714,
      "công_nương": 6715,
      "cửa_": 6716,
      "đồng_khởi": 6717,
      "đồng_bằng": 6718,
      "thủ_đức": 6719,
      "thủ_phủ": 6720,
      "a_hẹ": 6721,
      "sản": 6722,
      "sa_thải": 6723,
      "sabeco": 6724,
      "cao_trào": 6725,
      "cao_độ": 6726,
      "cao_tường_": 6727,
      "tổ_hợp": 6728,
      "101": 6729,
      "103": 6730,
      "105": 6731,
      "107": 6732,
      "1012": 6733,
      "hành_tinh": 6734,
      "cholz": 6735,
      "114": 6736,
      "115": 6737,
      "118": 6738,
      "11h": 6739,
      "1185": 6740,
      "nhân_viên": 6741,
      "nhàng": 6742,
      "nhà_tư": 6743,
      "biển_đông": 6744,
      "ền_thoại": 6745,
      "cảng": 6746,
      "dinand": 6747,
      "diazcanel": 6748,
      "din_yas": 6749,
      "sống_c": 6750,
      "số_liệu": 6751,
      "aya": 6752,
      "anh_tuấn": 6753,
      "nh_vác": 6754,
      "diễu_": 6755,
      "theo_đuổi": 6756,
      "121": 6757,
      "124": 6758,
      "1217": 6759,
      "do_h": 6760,
      "20222023": 6761,
      "liên_chính": 6762,
      "liên_nghị": 6763,
      "liên_chi": 6764,
      "đối_phó": 6765,
      "kinh_tế_": 6766,
      "as_g": 6767,
      "assan": 6768,
      "ban_bố": 6769,
      "hồ_văn_": 6770,
      "_chí_công": 6771,
      "ình_kha": 6772,
      "_kili": 6773,
      "_kov": 6774,
      "nhà_phân_tích": 6775,
      "nhà_rồng_": 6776,
      "đồng_tâm": 6777,
      "đồng_tiền": 6778,
      "cả": 6779,
      "tín_ng": 6780,
      "tín_hiệu": 6781,
      "nda": 6782,
      "có": 6783,
      "colas": 6784,
      "_bra": 6785,
      "_bắc": 6786,
      "alth": 6787,
      "aley": 6788,
      "ala_l": 6789,
      "al_kili": 6790,
      "dự_đại": 6791,
      "dự_tính": 6792,
      "_thành_tâm": 6793,
      "giới_tính": 6794,
      "cộng_hoà_trung_": 6795,
      "ường_văn": 6796,
      "20182021": 6797,
      "tổng_kim_ngạch": 6798,
      "tổng_lđ": 6799,
      "tổng_quát": 6800,
      "tổng_biên": 6801,
      "asean3": 6802,
      "xây_đắp": 6803,
      "diện_tích": 6804,
      "báo_điện_tử": 6805,
      "nguyễn_anh": 6806,
      "nguyễn_ái_quốc": 6807,
      "nguyễn_ngọc": 6808,
      "ên_việt_": 6809,
      "kỷ_cương": 6810,
      "tốn": 6811,
      "châu_phi_": 6812,
      "nepal": 6813,
      "bảo_trợ": 6814,
      "c_đáo": 6815,
      "c_đại_tây_dương": 6816,
      "thông_suốt": 6817,
      "thông_lệ": 6818,
      "những": 6819,
      "154": 6820,
      "158": 6821,
      "1519": 6822,
      "chiều_tối": 6823,
      "góc": 6824,
      "thương_lượng": 6825,
      "dân_quốc": 6826,
      "dân_quân": 6827,
      "son_m": 6828,
      "đều_đặ": 6829,
      "bắn": 6830,
      "bắc_đại_tây_dương": 6831,
      "biệt_thự": 6832,
      "iddin_yas": 6833,
      "20162020": 6834,
      "tuyên_dương": 6835,
      "hộ": 6836,
      "holland": 6837,
      "tháng_tám": 6838,
      "305": 6839,
      "i_đức": 6840,
      "i_đắp": 6841,
      "i_danh": 6842,
      "i_lạc": 6843,
      "khát": 6844,
      "mở_cửa": 6845,
      "250": 6846,
      "252": 6847,
      "1979": 6848,
      "sơn_uỷ_viên": 6849,
      "140": 6850,
      "144": 6851,
      "1469": 6852,
      "nam_ninh": 6853,
      "nội_lực": 6854,
      "đột_": 6855,
      "độc_đáo": 6856,
      "eni": 6857,
      "ens": 6858,
      "nhân_tài": 6859,
      "nhật_hoàng_": 6860,
      "nhật_cường_": 6861,
      "131": 6862,
      "134": 6863,
      "135": 6864,
      "136": 6865,
      "1315": 6866,
      "222": 6867,
      "aude": 6868,
      "ubai": 6869,
      "185": 6870,
      "189": 6871,
      "hđbc": 6872,
      "liên_hoan": 6873,
      "tại": 6874,
      "tang_lễ": 6875,
      "ta_mus": 6876,
      "n_bao_": 6877,
      "ấn_tượng": 6878,
      "_hết": 6879,
      "_hương_": 6880,
      "_hải_": 6881,
      "_heng_": 6882,
      "phạm_tội": 6883,
      "truyền_tải": 6884,
      "288": 6885,
      "isin": 6886,
      "ismai": 6887,
      "234": 6888,
      "2326": 6889,
      "163": 6890,
      "168": 6891,
      "175": 6892,
      "177": 6893,
      "17h": 6894,
      "umpu": 6895,
      "điều_binh_": 6896,
      "thuỵ_đ": 6897,
      "giải_trí": 6898,
      "pua_new": 6899,
      "chính_đảng": 6900,
      "chính_khách": 6901,
      "chính_nghĩa": 6902,
      "phạm_bình_": 6903,
      "phạm_đại_dương": 6904,
      "454": 6905,
      "456": 6906,
      "458": 6907,
      "văn_nghệ_sĩ": 6908,
      "ttb": 6909,
      "huy_uỷ_viên": 6910,
      "huyện_": 6911,
      "huyền_thoại": 6912,
      "244": 6913,
      "tài_ba": 6914,
      "tài_khoá": 6915,
      "ton_": 6916,
      "toky": 6917,
      "tuỳ": 6918,
      "tuổi_đ": 6919,
      "ác_liệt": 6920,
      "thắp": 6921,
      "thắm_thiết": 6922,
      "phong_toả": 6923,
      "sil": 6924,
      "chuộng": 6925,
      "giải_cứu": 6926,
      "giải_khát": 6927,
      "sâu_đậm": 6928,
      "sudan": 6929,
      "suga_": 6930,
      "suu_ky": 6931,
      "vì_vậy": 6932,
      "kit": 6933,
      "la_th": 6934,
      "latv": 6935,
      "lav_v": 6936,
      "xe_máy": 6937,
      "tự": 6938,
      "tư_nhân": 6939,
      "trao_tặng": 6940,
      "hàng_không": 6941,
      "hàng_hoá": 6942,
      "hàng_ngũ": 6943,
      "265": 6944,
      "297": 6945,
      "iro": 6946,
      "usepp": 6947,
      "usaid": 6948,
      "giờ_hết": 6949,
      "_đô_thị": 6950,
      "thời_cuộc": 6951,
      "lễ_quốc": 6952,
      "_thị_thanh": 6953,
      "_thị_mỹ": 6954,
      "_thị_mai_": 6955,
      "bình_chọn": 6956,
      "bình_quân": 6957,
      "quân_y": 6958,
      "quân_dân": 6959,
      "quân_khu": 6960,
      "thanh_sát": 6961,
      "tất_yếu": 6962,
      "thể_loại": 6963,
      "donal_trump": 6964,
      "chia_cắt": 6965,
      "quản_lý_nhà_nước": 6966,
      "quá_độ": 6967,
      "donald_tus": 6968,
      "poe": 6969,
      "pole": 6970,
      "poulou": 6971,
      "1963": 6972,
      "1969": 6973,
      "19678": 6974,
      "thành_thị": 6975,
      "nguyễn_thành_tâm": 6976,
      "châu_âu_ec": 6977,
      "châu_âu_donald_tus": 6978,
      "sinh_tử": 6979,
      "sinh_thời": 6980,
      "sinh_tồn": 6981,
      "pháp_anh": 6982,
      "pháp_nhân": 6983,
      "lê_thị": 6984,
      "lê_viết_ch": 6985,
      "nóng_hổi": 6986,
      "1997": 6987,
      "19922": 6988,
      "hệ_sinh": 6989,
      "lý_cường": 6990,
      "hoạch_định": 6991,
      "đông_anh": 6992,
      "đông_âu": 6993,
      "chiến_sự": 6994,
      "chiến_sỹ": 6995,
      "moldo": 6996,
      "timor": 6997,
      "đài": 6998,
      "đánh": 6999,
      "nguyễn_phú_cường": 7000,
      "nguyễn_phú_trọng_": 7001,
      "tình_yêu": 7002,
      "_tuý": 7003,
      "_tuân": 7004,
      "nội_quy": 7005,
      "nội_chiến": 7006,
      "nội_hàm": 7007,
      "long_sơn": 7008,
      "lodin": 7009,
      "lovchen": 7010,
      "logisti": 7011,
      "raisi": 7012,
      "vich": 7013,
      "visa": 7014,
      "vinh_uỷ_viên": 7015,
      "vietin": 7016,
      "vio_ber": 7017,
      "viup": 7018,
      "đình_chiến": 7019,
      "campuchialào": 7020,
      "_khai": 7021,
      "nước_lớn": 7022,
      "thị_trưởng": 7023,
      "abri_": 7024,
      "dad": 7025,
      "ưu_tú": 7026,
      "hồ": 7027,
      "hồi": 7028,
      "2001": 7029,
      "phê_duy": 7030,
      "19732022": 7031,
      "197322": 7032,
      "cứu_trợ": 7033,
      "đức_tính": 7034,
      "trần_phú": 7035,
      "hạ_nghị_sĩ": 7036,
      "mania": 7037,
      "mantan": 7038,
      "papua_new": 7039,
      "1981": 7040,
      "1983": 7041,
      "1985": 7042,
      "1987": 7043,
      "marxlen": 7044,
      "tây_nam": 7045,
      "vận_động_": 7046,
      "quyết_chiến": 7047,
      "park": 7048,
      "võ_văn_": 7049,
      "võ_ngọc": 7050,
      "võ_chí_công": 7051,
      "_lý_cường": 7052,
      "gặt_hái": 7053,
      "riya": 7054,
      "xuyên_việt_": 7055,
      "việt_minh": 7056,
      "việt_lào": 7057,
      "việt_xô": 7058,
      "việt_pháp_anh": 7059,
      "nam_kỳ": 7060,
      "547": 7061,
      "emmer": 7062,
      "mad": 7063,
      "ma_tuý": 7064,
      "quan_sát_": 7065,
      "iễm": 7066,
      "ong_acmecs": 7067,
      "đảm_đang": 7068,
      "ấn_độ_dương": 7069,
      "đắc_lực": 7070,
      "sáng_ngời": 7071,
      "dương_uỷ_viên": 7072,
      "hiến_dâng": 7073,
      "kéo": 7074,
      "công_nghệ_sinh_": 7075,
      "buồn": 7076,
      "danh_nhân": 7077,
      "ros": 7078,
      "rou": 7079,
      "roman_": 7080,
      "roxas": 7081,
      "rovich": 7082,
      "romania": 7083,
      "sức_sống": 7084,
      "_tử_đống_đa": 7085,
      "trị_giá": 7086,
      "văn_thành": 7087,
      "hải_sản": 7088,
      "cung_văn_hoá": 7089,
      "m_phát": 7090,
      "tiếp_diễn": 7091,
      "tiếp_nối": 7092,
      "hyiddin_yas": 7093,
      "o_duterte": 7094,
      "đường_ống": 7095,
      "đường_cao_tốc": 7096,
      "đường_dây": 7097,
      "20132023": 7098,
      "20132018": 7099,
      "hiệu_ứng": 7100,
      "tạm_thời": 7101,
      "991": 7102,
      "995": 7103,
      "9943": 7104,
      "o_nhật_bản": 7105,
      "thế": 7106,
      "trường_sơn": 7107,
      "kháng_nghị": 7108,
      "_thanh_bình": 7109,
      "1947": 7110,
      "hiệp_sĩ": 7111,
      "bí": 7112,
      "bia_": 7113,
      "bia_r": 7114,
      "duart": 7115,
      "luận": 7116,
      "phi_thường": 7117,
      "khẩu_hiệu": 7118,
      "tái_thiết": 7119,
      "đại_thắng": 7120,
      "quý_giá": 7121,
      "363": 7122,
      "365": 7123,
      "bất_lợi": 7124,
      "bất_chấp": 7125,
      "bất_hủ": 7126,
      "litva": 7127,
      "new_start": 7128,
      "new_del": 7129,
      "ppp": 7130,
      "yaako": 7131,
      "thu_hồi": 7132,
      "e_pach": 7133,
      "e_poe": 7134,
      "java": 7135,
      "tình_tiết": 7136,
      "độc": 7137,
      "động": 7138,
      "chủ_nghĩa_c": 7139,
      "muhyiddin_yas": 7140,
      "vụ": 7141,
      "vui_": 7142,
      "cơ_quan_quyền_lực": 7143,
      "cơ_quan_chuyên_môn": 7144,
      "nguyễn_đức": 7145,
      "nguyễn_đình": 7146,
      "nguyễn_đình_kha": 7147,
      "hình": 7148,
      "israelhamas": 7149,
      "cụ_thể_hoá": 7150,
      "752": 7151,
      "bác_bỏ": 7152,
      "kiến_tạo": 7153,
      "nhất_huy": 7154,
      "thứ": 7155,
      "coni": 7156,
      "giao_thông_thể": 7157,
      "372": 7158,
      "688": 7159,
      "bellen": 7160,
      "minh_uỷ_viên": 7161,
      "micha": 7162,
      "michel": 7163,
      "phương_diện": 7164,
      "viện_hàn_lâm": 7165,
      "vận_hành": 7166,
      "sinh_động": 7167,
      "tù_giam": 7168,
      "958": 7169,
      "9514": 7170,
      "iopia": 7171,
      "trước_hết": 7172,
      "trước_mắt": 7173,
      "john_": 7174,
      "lê_hồng_": 7175,
      "lê_quang_t": 7176,
      "lê_hoài_trung_uỷ_viên": 7177,
      "manuel_mar": 7178,
      "manuel_mar_": 7179,
      "cốt_": 7180,
      "lập_hiến": 7181,
      "mùi": 7182,
      "terina_s": 7183,
      "chuyển": 7184,
      "472": 7185,
      "4768": 7186,
      "_riết": 7187,
      "bệnh_binh": 7188,
      "cổng_dịch": 7189,
      "kỹ_năng": 7190,
      "kỹ_thuậ": 7191,
      "kiah": 7192,
      "lạc_": 7193,
      "lại_xuân_": 7194,
      "lạm_phát": 7195,
      "song_toàn": 7196,
      "tổ": 7197,
      "tôn_vinh": 7198,
      "tô_lâm_": 7199,
      "tân_tổng_th": 7200,
      "đời_thường": 7201,
      "thập_niên": 7202,
      "hà_ban": 7203,
      "19502020": 7204,
      "hoàng_cung": 7205,
      "nhập_cư": 7206,
      "_kim": 7207,
      "tập_đoà": 7208,
      "dầu_mỏ": 7209,
      "tntp": 7210,
      "đỗ_trọng": 7211,
      "đỗ_sơ": 7212,
      "đỗ_tiến_": 7213,
      "đỗ_thanh_bình": 7214,
      "đuakhen": 7215,
      "chữ_thập": 7216,
      "iệp": 7217,
      "trung_hoa_lý_cường": 7218,
      "giờ_đây": 7219,
      "phản_công": 7220,
      "mekonglan_thương": 7221,
      "398": 7222,
      "_phomvi": 7223,
      "boli": 7224,
      "botka_": 7225,
      "brador": 7226,
      "borneo": 7227,
      "golovchen": 7228,
      "ipu132": 7229,
      "k_yeo": 7230,
      "noi": 7231,
      "nobel": 7232,
      "nói": 7233,
      "yower": 7234,
      "phan_việt_": 7235,
      "1951": 7236,
      "1953": 7237,
      "19712023": 7238,
      "khởi_nghiệp": 7239,
      "tự_chủ": 7240,
      "trần_đại_quang_uỷ_viên": 7241,
      "đông_nam_á_aipa": 7242,
      "addad": 7243,
      "najib_ra": 7244,
      "set": 7245,
      "hồng_quân": 7246,
      "phú_quốc": 7247,
      "nguyễn_thanh_bình": 7248,
      "nguyễn_thanh_bình_uỷ_viên": 7249,
      "italy_s": 7250,
      "iz_": 7251,
      "nius": 7252,
      "nikk": 7253,
      "nicolas": 7254,
      "sẵn": 7255,
      "samaj": 7256,
      "áp_đặt": 7257,
      "thanh_toán": 7258,
      "tranh_tụng": 7259,
      "trái_tim": 7260,
      "19542019": 7261,
      "gia_lâm": 7262,
      "saudi_arabia_": 7263,
      "nguyễn_văn_nên": 7264,
      "nguyễn_văn_cừ": 7265,
      "19772022": 7266,
      "cứu_quốc": 7267,
      "nguyễn_tiế": 7268,
      "nguyễn_tất_thành": 7269,
      "nguyễn_tường_văn": 7270,
      "vũ_việt_tr": 7271,
      "bồi_đắp": 7272,
      "claude": 7273,
      "ưu_đãi": 7274,
      "trương_minh": 7275,
      "trương_vĩnh": 7276,
      "bùi_quang_": 7277,
      "bùi_văn_thành": 7278,
      "moon_jae_in": 7279,
      "một": 7280,
      "xứ_sở": 7281,
      "hàm_tử_đống_đa": 7282,
      "chiến_sĩ_thi_đua": 7283,
      "bạch_mai": 7284,
      "bán_cầu": 7285,
      "symjomar": 7286,
      "sắc_phong": 7287,
      "sắc_bén": 7288,
      "tận_trung": 7289,
      "ngô_đông_": 7290,
      "đại_lễ_đường": 7291,
      "trưng_cầu_ý_dân": 7292,
      "aji_h": 7293,
      "bởi_vậy": 7294,
      "cân_đối": 7295,
      "dũng_uỷ_viên": 7296,
      "katerina_s": 7297,
      "vượng_uỷ_viên": 7298,
      "_tiến_dũng": 7299,
      "_tiến_dũng_uỷ_viên": 7300,
      "thí_sinh": 7301,
      "thao_lược": 7302,
      "ani_chủ_tịch": 7303,
      "nghỉ_việc": 7304,
      "bảy_chủ": 7305,
      "ngoại_ngữ": 7306,
      "trọng_dụng": 7307,
      "tiền_phong": 7308,
      "hết_lời": 7309,
      "hết_mình": 7310,
      "prayut": 7311,
      "akp": 7312,
      "evo": 7313,
      "eveni": 7314,
      "kiên_trung": 7315,
      "odinga": 7316,
      "vpcq": 7317,
      "i_haley": 7318,
      "khai_trương": 7319,
      "nghiêm_chỉnh": 7320,
      "hoàn_kiếm": 7321,
      "huy_hiệu": 7322,
      "19962021": 7323,
      "19962016": 7324,
      "davao_": 7325,
      "phản_đế": 7326,
      "samdech_techo_hun_sen": 7327,
      "samdech_ak": 7328,
      "samdech_heng_": 7329,
      "joko_widodo_chủ_tịch": 7330,
      "8h30": 7331,
      "atf": 7332,
      "fernan": 7333,
      "ferdinand": 7334,
      "in_netanyahu": 7335,
      "nối_tiếp": 7336,
      "olym": 7337,
      "peru": 7338,
      "nhìn": 7339,
      "chế_biến": 7340,
      "thành": 7341,
      "thông_thoá": 7342,
      "phan_thị_mỹ": 7343,
      "nghệ": 7344,
      "_marx": 7345,
      "_marcos_jr": 7346,
      "aroglu": 7347,
      "cop26": 7348,
      "appf29": 7349,
      "hậu_thuẫn": 7350,
      "khoa_học_kỹ_thuật": 7351,
      "mah_ya": 7352,
      "áthái_bình_dương_appf": 7353,
      "5214": 7354,
      "ahr_sto": 7355,
      "cnxh": 7356,
      "cực_kỳ": 7357,
      "guta_mus": 7358,
      "lás": 7359,
      "pedro": 7360,
      "rộng_lớn": 7361,
      "tội_danh": 7362,
      "vật_tư": 7363,
      "nhuần": 7364,
      "thụ_lý": 7365,
      "thiên_tai": 7366,
      "thuận_tiện": 7367,
      "trang_thiết_": 7368,
      "phi_chính_phủ": 7369,
      "vĩnh_trung": 7370,
      "19862021": 7371,
      "tiền_tệ": 7372,
      "_junc": 7373,
      "ekong_acmecs": 7374,
      "gmt": 7375,
      "kuwait": 7376,
      "kuala_l": 7377,
      "lưu_vực": 7378,
      "lưu_ý": 7379,
      "nô_lệ": 7380,
      "nangag": 7381,
      "pany_ya": 7382,
      "rge": 7383,
      "tu_dưỡng": 7384,
      "chạy_đua": 7385,
      "trương_tấn_": 7386,
      "trương_thị_mai_": 7387,
      "_thắm": 7388,
      "_thắng_uỷ_viên": 7389,
      "iểu_số": 7390,
      "hài_cốt": 7391,
      "cửu_long_sơn": 7392,
      "saysom": 7393,
      "san_suu_ky": 7394,
      "nhà_sàn": 7395,
      "nguyễn_văn_linh": 7396,
      "nguyễn_quang_dương_uỷ_viên": 7397,
      "thiếu_nhi": 7398,
      "đặng_xuân_": 7399,
      "gói_thầu": 7400,
      "thuỵ_sĩ": 7401,
      "đa_dạng_": 7402,
      "20022007": 7403,
      "trần_sỹ_thanh": 7404,
      "trần_sỹ_thanh_uỷ_viên": 7405,
      "gặp_mặt": 7406,
      "dương_văn_trang": 7407,
      "dương_văn_thái": 7408,
      "jakarta_": 7409,
      "tiểu_ban": 7410,
      "tiểu_học": 7411,
      "quy_hoạch_đô_thị": 7412,
      "nguyễn_hồng_d": 7413,
      "miguel_díazcanel": 7414,
      "nguyễn_hữu_linh": 7415,
      "geneva_thuỵ_sĩ": 7416,
      "helsinki": 7417,
      "thừa_thiênhu": 7418,
      "biểu": 7419,
      "benjam": 7420,
      "dụcthể": 7421,
      "dụcđào": 7422,
      "eco_chủ_tịch": 7423,
      "hùng_ca": 7424,
      "kín": 7425,
      "kính": 7426,
      "lữ_văn_h": 7427,
      "lữ_quang_": 7428,
      "ram_nath": 7429,
      "tgđ": 7430,
      "việc": 7431,
      "viêng_chăn_": 7432,
      "vilaine": 7433,
      "vilnius": 7434,
      "vùng_biển": 7435,
      "đặc": 7436,
      "_tấn_việt_uỷ_viên": 7437,
      "_times": 7438,
      "chiến": 7439,
      "chấp_thuận": 7440,
      "chào_mừng": 7441,
      "phùng_quang_thanh": 7442,
      "khiển_tướng": 7443,
      "ượu_nước": 7444,
      "cảm_hứng": 7445,
      "nguyễn_văn_hiến": 7446,
      "chiến_tranh_lạnh": 7447,
      "tàu_thuỷ": 7448,
      "chuyển_giao": 7449,
      "chuyển_mình": 7450,
      "châu_âu_ep_": 7451,
      "yêu_sách": 7452,
      "yêu_chuộng": 7453,
      "trần_quốc_vượng_uỷ_viên": 7454,
      "_tổng_bí": 7455,
      "hoàng_trung_hải_uỷ_viên": 7456,
      "khuyến_nghị": 7457,
      "khuyến_cáo": 7458,
      "francois_holland": 7459,
      "bùi_văn_cường": 7460,
      "new_york_mỹ_đại": 7461,
      "tô_ân_xô_người": 7462,
      "tô_ân_xô_chánh": 7463,
      "huỳnh_tấn_việt_uỷ_viên": 7464,
      "phạm_công_tạc_thứ": 7465,
      "lê_đức_thọ_uỷ_viên": 7466,
      "maha_vajiralongkorn": 7467,
      "maha_vajiralongkorn_ram": 7468,
      "8716": 7469,
      "bhxh": 7470,
      "bạo_lực": 7471,
      "cdaroglu": 7472,
      "dứt_điểm": 7473,
      "fan_lofven": 7474,
      "health": 7475,
      "hệ": 7476,
      "huỷ_bỏ": 7477,
      "jonas_g": 7478,
      "jeanclaude": 7479,
      "kurd": 7480,
      "ltan_": 7481,
      "niên_uỷ_viên": 7482,
      "sự": 7483,
      "stefan_lofven": 7484,
      "tờ_trình": 7485,
      "tisco": 7486,
      "ví_dụ": 7487,
      "vẹn_nguyên": 7488,
      "xoay": 7489,
      "yamekong_acmecs": 7490,
      "điểm": 7491,
      "đinh_la_th": 7492,
      "_tiếng": 7493,
      "chân_thành": 7494,
      "thoto": 7495,
      "thường": 7496,
      "triều_đại": 7497,
      "trái_phiếu": 7498,
      "phai_nhạt": 7499,
      "_mưu_trưởng": 7500,
      "bảo": 7501,
      "toà_thánh": 7502,
      "dự_phòng": 7503,
      "nguyễn_duy_linh": 7504,
      "nguyễn_ngọc_hai": 7505,
      "nguyễn_khắc_định": 7506,
      "hạch_toá": 7507,
      "truyền_cảm": 7508,
      "thuốc_súng": 7509,
      "đài_phát_thanh": 7510,
      "huấn_thị": 7511,
      "lê_thanh_nghị": 7512,
      "lê_tiến_châu": 7513,
      "lê_đức_anh_": 7514,
      "thị_xã": 7515,
      "_thuý_lan": 7516,
      "padei_techo_hun_sen": 7517,
      "australia_anthony_albanese": 7518,
      "phủ_nhận": 7519,
      "vua_charles_iii": 7520,
      "ngoại": 7521,
      "mekong_lan_thương": 7522,
      "khủng_hoảng_chính_trị": 7523,
      "bùi_thanh_": 7524,
      "yoon_suk_yeo": 7525,
      "thanh_thiếu_nhi": 7526,
      "vũ_hồng_nam": 7527,
      "bùi_nhật_quang_uỷ_viên": 7528,
      "trần_văn_rón_uỷ_viên": 7529,
      "expo_cit": 7530,
      "nguyễn_thành_phong_uỷ_viên": 7531,
      "rodrigo_duterte": 7532,
      "glasgow_scotland": 7533,
      "justin_trudeau": 7534,
      "sóng_gió": 7535,
      "tất_thành_cang": 7536,
      "yếu_kém": 7537,
      "phnom_penh_campuchia": 7538,
      "ayeyawadychao_phra": 7539,
      "sonexay_siphandone": 7540,
      "norodom_sihamoni": 7541,
      "_obrador": 7542,
      "akihito": 7543,
      "akellaro": 7544,
      "bjp": 7545,
      "bms": 7546,
      "bush": 7547,
      "cắt_giảm": 7548,
      "congo": 7549,
      "ca_ngợi": 7550,
      "ctttg": 7551,
      "cốc_thái_lan": 7552,
      "dâm_ô": 7553,
      "diệt_chủng": 7554,
      "ehvilaine": 7555,
      "ethiopia": 7556,
      "e_conte": 7557,
      "flc": 7558,
      "f_scholz": 7559,
      "fgang_so": 7560,
      "grdp": 7561,
      "gánh_vác": 7562,
      "gọn_nhẹ": 7563,
      "george": 7564,
      "grace_poe": 7565,
      "hơn_bao_": 7566,
      "hứa_hẹ": 7567,
      "hậu": 7568,
      "halimah_ya": 7569,
      "hcapita": 7570,
      "juan_": 7571,
      "jair_bol": 7572,
      "ktxh": 7573,
      "kassymjomar": 7574,
      "kabul": 7575,
      "kemal_kili": 7576,
      "ka_moha": 7577,
      "kalimantan": 7578,
      "knesset": 7579,
      "lính": 7580,
      "lỗi_lạc": 7581,
      "l_sabri_": 7582,
      "luôn_luôn": 7583,
      "lisbon": 7584,
      "lusconi": 7585,
      "lời_nói": 7586,
      "múdez": 7587,
      "mưu_cầu": 7588,
      "mâu_thuẫn": 7589,
      "mệt_mỏi": 7590,
      "nạn_nhân": 7591,
      "nặng_": 7592,
      "niên_hiệu": 7593,
      "o_cruz": 7594,
      "olaf_scholz": 7595,
      "okayev": 7596,
      "paul": 7597,
      "pez_obrador": 7598,
      "pctntc": 7599,
      "qatar": 7600,
      "rà_soát": 7601,
      "r_malaysia": 7602,
      "ráo_riết": 7603,
      "rero_cruz": 7604,
      "rượu_bia": 7605,
      "sít_sao": 7606,
      "sôi_động": 7607,
      "sông_núi": 7608,
      "serbia": 7609,
      "srettha": 7610,
      "sĩ_quan": 7611,
      "tị_nạn": 7612,
      "t_tokayev": 7613,
      "tôn_trọng": 7614,
      "tiệp_khắc": 7615,
      "taliban": 7616,
      "tgpt": 7617,
      "ung_thư": 7618,
      "uhuru_kenya": 7619,
      "vấn": 7620,
      "vắc_xin": 7621,
      "vyaches": 7622,
      "wcsp5": 7623,
      "wolfgang_so": 7624,
      "xấp_xỉ": 7625,
      "y_dubai": 7626,
      "ô_nhiễm": 7627,
      "đi_đôi": 7628,
      "đi_lại": 7629,
      "ả_rập_thống": 7630,
      "ngôi_vị": 7631,
      "ngẫu_nhiên": 7632,
      "nhi_đồng": 7633,
      "nhiệm": 7634,
      "nhãn_mác": 7635,
      "nhịp_nhàng": 7636,
      "chèo_lái": 7637,
      "chdc_congo": 7638,
      "thuyền": 7639,
      "thân_phận": 7640,
      "thâu_tóm": 7641,
      "thiện_chí": 7642,
      "thấm_nhuần": 7643,
      "thậm_chí": 7644,
      "quật_cường": 7645,
      "triển": 7646,
      "trù_bị": 7647,
      "trái_đất": 7648,
      "pheu_th": 7649,
      "phone_phomvi": 7650,
      "i_kaguta_mus": 7651,
      "_thavisin": 7652,
      "khen_ngợi": 7653,
      "anu_vehvilaine": 7654,
      "chí_công_vô": 7655,
      "việt_nam_cl": 7656,
      "hà_văn_thắm": 7657,
      "quan_khách": 7658,
      "quốc_đoàn_uỷ_viên": 7659,
      "ra_sức": 7660,
      "_sena": 7661,
      "hoà_nhịp": 7662,
      "hoàng_thái_tử": 7663,
      "hoàng_thị_thuý_lan": 7664,
      "cao_tường_huy": 7665,
      "nhà_tư_tưởng": 7666,
      "sống_còn": 7667,
      "do_haddad": 7668,
      "assanal": 7669,
      "hồ_văn_niên_uỷ_viên": 7670,
      "_kovind": 7671,
      "nhà_rồng_chủ_tịch": 7672,
      "tín_ngưỡng": 7673,
      "cộng_hoà_trung_phi": 7674,
      "tổng_lđlđ": 7675,
      "tổng_biên_tập": 7676,
      "son_mnangag": 7677,
      "đều_đặn": 7678,
      "hội": 7679,
      "nhật_cường_công_ty": 7680,
      "hđbcqg": 7681,
      "ismail_sabri_": 7682,
      "umpur_malaysia": 7683,
      "điều_binh_khiển_tướng": 7684,
      "thuỵ_điển": 7685,
      "phạm_bình_minh": 7686,
      "huyện_uỷ": 7687,
      "tokyo_nhật_bản": 7688,
      "tuổi_đời": 7689,
      "suga_yoshihide": 7690,
      "latvia": 7691,
      "useppe_conte": 7692,
      "châu_âu_donald_tusk": 7693,
      "lê_viết_chữ_uỷ_viên": 7694,
      "hệ_sinh_thái": 7695,
      "moldova": 7696,
      "vietinbank": 7697,
      "vio_berlusconi": 7698,
      "phê_duyệt": 7699,
      "papua_new_guinea": 7700,
      "marxlenin": 7701,
      "vận_động_viên": 7702,
      "võ_văn_kiệt": 7703,
      "võ_ngọc_thành": 7704,
      "xuyên_việt_oil": 7705,
      "emmerson_mnangag": 7706,
      "quan_sát_viên": 7707,
      "công_nghệ_sinh_học": 7708,
      "roman_golovchen": 7709,
      "bia_rượu_nước": 7710,
      "duarte_pach": 7711,
      "yaakob": 7712,
      "muhyiddin_yassin": 7713,
      "nguyễn_đình_khang_uỷ_viên": 7714,
      "michael": 7715,
      "manuel_marrero_cruz": 7716,
      "manuel_mar_roxas": 7717,
      "kỹ_thuật_số": 7718,
      "tô_lâm_bộ_trưởng": 7719,
      "tân_tổng_thư_ký": 7720,
      "đỗ_sơn_hải": 7721,
      "đỗ_tiến_sỹ": 7722,
      "chữ_thập_đỏ": 7723,
      "yoweri_kaguta_mus": 7724,
      "najib_razak": 7725,
      "nikki_haley": 7726,
      "vũ_việt_trang": 7727,
      "trương_vĩnh_trọng": 7728,
      "aji_hassanal": 7729,
      "katerina_sakellaro": 7730,
      "vpcqcsđt": 7731,
      "samdech_akka_moha": 7732,
      "samdech_heng_sam": 7733,
      "fernando_haddad": 7734,
      "olympic": 7735,
      "thông_thoáng": 7736,
      "phan_thị_mỹ_thanh": 7737,
      "ahr_store": 7738,
      "trang_thiết_bị": 7739,
      "_juncker": 7740,
      "kuala_lumpur_malaysia": 7741,
      "pany_yathoto": 7742,
      "trương_tấn_sang": 7743,
      "trương_thị_mai_uỷ_viên": 7744,
      "cửu_long_sơn_tự": 7745,
      "saysomphone_phomvi": 7746,
      "san_suu_kyi": 7747,
      "jakarta_indonesia": 7748,
      "thừa_thiênhuế": 7749,
      "benjamin_netanyahu": 7750,
      "ram_nath_kovind": 7751,
      "viêng_chăn_lào": 7752,
      "francois_hollande": 7753,
      "maha_vajiralongkorn_rama_x": 7754,
      "jonas_gahr_store": 7755,
      "jeanclaude_juncker": 7756,
      "hạch_toán_kinh_tế": 7757,
      "yoon_suk_yeol": 7758,
      "expo_city_dubai": 7759,
      "ayeyawadychao_phrayamekong_acmecs": 7760,
      "hơn_bao_giờ_hết": 7761,
      "hứa_hẹn": 7762,
      "halimah_yacob": 7763,
      "jair_bolsonaro": 7764,
      "kassymjomart_tokayev": 7765,
      "kemal_kilicdaroglu": 7766,
      "srettha_thavisin": 7767,
      "uhuru_kenyatta": 7768,
      "vyacheslav_v": 7769,
      "wolfgang_sobotka_": 7770,
      "anu_vehvilainen": 7771,
      "chí_công_vô_tư": 7772,
      "ismail_sabri_yaakob": 7773,
      "emmerson_mnangagwa": 7774,
      "roman_golovchenko": 7775,
      "duarte_pacheco_chủ_tịch": 7776,
      "yoweri_kaguta_museveni": 7777,
      "katerina_sakellaropoulou": 7778,
      "samdech_akka_moha_sena": 7779,
      "saysomphone_phomvih": 7780,
      "09": 7781,
      "011": 7782,
      "013": 7783,
      "022": 7784,
      "021": 7785,
      "037": 7786,
      "068": 7787,
      "035": 7788,
      "078": 7789,
      "089": 7790,
      "092": 7791,
      "076": 7792,
      "091": 7793,
      "1h": 7794,
      "119": 7795,
      "12017": 7796,
      "1200": 7797,
      "11946": 7798,
      "12008": 7799,
      "211": 7800,
      "230": 7801,
      "218": 7802,
      "216": 7803,
      "3c": 7804,
      "3h": 7805,
      "319": 7806,
      "345": 7807,
      "324": 7808,
      "327": 7809,
      "31975": 7810,
      "355": 7811,
      "337": 7812,
      "339": 7813,
      "382": 7814,
      "4g": 7815,
      "411": 7816,
      "425": 7817,
      "414": 7818,
      "417": 7819,
      "424": 7820,
      "41975": 7821,
      "436": 7822,
      "437": 7823,
      "41971": 7824,
      "41976": 7825,
      "5a": 7826,
      "5g": 7827,
      "5s": 7828,
      "519": 7829,
      "510": 7830,
      "511": 7831,
      "52019": 7832,
      "52016": 7833,
      "525": 7834,
      "513": 7835,
      "521": 7836,
      "545": 7837,
      "599": 7838,
      "537": 7839,
      "568": 7840,
      "595": 7841,
      "567": 7842,
      "589": 7843,
      "52011": 7844,
      "577": 7845,
      "586": 7846,
      "51960": 7847,
      "592": 7848,
      "576": 7849,
      "582": 7850,
      "594": 7851,
      "5363": 7852,
      "6h": 7853,
      "6đ": 7854,
      "620": 7855,
      "630": 7856,
      "625": 7857,
      "613": 7858,
      "623": 7859,
      "617": 7860,
      "631": 7861,
      "670": 7862,
      "640": 7863,
      "699": 7864,
      "655": 7865,
      "648": 7866,
      "61971": 7867,
      "656": 7868,
      "61964": 7869,
      "720": 7870,
      "72016": 7871,
      "730": 7872,
      "725": 7873,
      "750": 7874,
      "721": 7875,
      "729": 7876,
      "740": 7877,
      "799": 7878,
      "744": 7879,
      "795": 7880,
      "811": 7881,
      "82019": 7882,
      "830": 7883,
      "813": 7884,
      "818": 7885,
      "82015": 7886,
      "816": 7887,
      "821": 7888,
      "854": 7889,
      "899": 7890,
      "855": 7891,
      "848": 7892,
      "839": 7893,
      "842": 7894,
      "8372": 7895,
      "8958": 7896,
      "910": 7897,
      "925": 7898,
      "914": 7899,
      "918": 7900,
      "917": 7901,
      "945": 7902,
      "929": 7903,
      "944": 7904,
      "968": 7905,
      "941": 7906,
      "967": 7907,
      "91977": 7908,
      "972": 7909,
      "949": 7910,
      "971": 7911,
      "9104": 7912,
      "9398": 7913,
      "_a": 7914,
      "_u": 7915,
      "_w": 7916,
      "_quốc_": 7917,
      "_đảng": 7918,
      "_uỷ": 7919,
      "_hoà": 7920,
      "_khoá": 7921,
      "_hợp": 7922,
      "_bí": 7923,
      "_kinh_tế": 7924,
      "_giới": 7925,
      "_hoạ": 7926,
      "_bộ_": 7927,
      "_chiến": 7928,
      "_như": 7929,
      "_ho": 7930,
      "_âm": 7931,
      "_chống": 7932,
      "_hình": 7933,
      "_xã_hội": 7934,
      "_bộ_trưởng": 7935,
      "_xuân_": 7936,
      "_giờ": 7937,
      "_chất": 7938,
      "_and": 7939,
      "_học": 7940,
      "_khí": 7941,
      "_phí": 7942,
      "_hoa_kỳ": 7943,
      "_quân": 7944,
      "_ri": 7945,
      "_em": 7946,
      "_phụ_nữ": 7947,
      "_ro": 7948,
      "_chi": 7949,
      "_việt": 7950,
      "_phi": 7951,
      "_phạt": 7952,
      "_hà_lan": 7953,
      "_ze": 7954,
      "_nguồn": 7955,
      "_wef": 7956,
      "_hữu": 7957,
      "_zealand": 7958,
      "_iv": 7959,
      "_hoạt": 7960,
      "_italy": 7961,
      "_wi": 7962,
      "_chúc": 7963,
      "_que": 7964,
      "_fer": 7965,
      "_pas": 7966,
      "_elizabeth": 7967,
      "_ban_nha": 7968,
      "_quê": 7969,
      "_hồng": 7970,
      "_học_viện": 7971,
      "_học_sinh": 7972,
      "ang_": 7973,
      "agi": 7974,
      "ap_": 7975,
      "aung_": 7976,
      "a_c": 7977,
      "a_d": 7978,
      "ata": 7979,
      "apu": 7980,
      "avid": 7981,
      "adimir_putin": 7982,
      "án": 7983,
      "àn": 7984,
      "ađơn": 7985,
      "b5": 7986,
      "be": 7987,
      "by": 7988,
      "bê": 7989,
      "bô": 7990,
      "bứ": 7991,
      "bụng": 7992,
      "bis": 7993,
      "bhu": 7994,
      "bấy": 7995,
      "bes": 7996,
      "băng_": 7997,
      "bun": 7998,
      "bem": 7999,
      "b_chủ_tịch": 8000,
      "bo_": 8001,
      "blu": 8002,
      "bcs": 8003,
      "bái_": 8004,
      "bos": 8005,
      "biệt_": 8006,
      "bưu_": 8007,
      "bước": 8008,
      "bill": 8009,
      "bek": 8010,
      "bố": 8011,
      "biden_": 8012,
      "bón": 8013,
      "c1": 8014,
      "ck": 8015,
      "cy": 8016,
      "cọ": 8017,
      "cồ": 8018,
      "cộ": 8019,
      "c_tế": 8020,
      "cán": 8021,
      "cầu_": 8022,
      "căng": 8023,
      "cứng_": 8024,
      "cực_t": 8025,
      "cto": 8026,
      "cki": 8027,
      "cec": 8028,
      "cầm": 8029,
      "cồn": 8030,
      "c_thương": 8031,
      "ck_": 8032,
      "cố": 8033,
      "ckre": 8034,
      "cinda_": 8035,
      "ccar": 8036,
      "cede": 8037,
      "dd": 8038,
      "dh": 8039,
      "dl": 8040,
      "dm": 8041,
      "dv": 8042,
      "dã": 8043,
      "dó": 8044,
      "dỡ": 8045,
      "dụ": 8046,
      "dao": 8047,
      "dược": 8048,
      "diều": 8049,
      "d_l": 8050,
      "d_n": 8051,
      "dung": 8052,
      "dar": 8053,
      "dẹp": 8054,
      "dấy": 8055,
      "diệu": 8056,
      "dòng_": 8057,
      "dốc": 8058,
      "d_chủ_tịch": 8059,
      "dọc": 8060,
      "dlu": 8061,
      "dạng": 8062,
      "diện_": 8063,
      "dary": 8064,
      "dse": 8065,
      "dịu": 8066,
      "dệt": 8067,
      "diện": 8068,
      "di_động": 8069,
      "d_sh": 8070,
      "dải_": 8071,
      "dệt_": 8072,
      "ddin": 8073,
      "dym": 8074,
      "dhur": 8075,
      "dy_chủ_tịch": 8076,
      "d_marx": 8077,
      "ed": 8078,
      "ei_": 8079,
      "et_": 8080,
      "eu_": 8081,
      "em_": 8082,
      "e_l": 8083,
      "e_c": 8084,
      "edi": 8085,
      "exi": 8086,
      "een": 8087,
      "e_h": 8088,
      "ett": 8089,
      "epa": 8090,
      "econ": 8091,
      "ead": 8092,
      "enei": 8093,
      "edri": 8094,
      "eral": 8095,
      "ebrahi": 8096,
      "ệ": 8097,
      "éo": 8098,
      "em_b": 8099,
      "ejomar": 8100,
      "ẹp": 8101,
      "eiro": 8102,
      "f0": 8103,
      "ft": 8104,
      "fas": 8105,
      "far": 8106,
      "fel": 8107,
      "fta": 8108,
      "fpo": 8109,
      "fri": 8110,
      "flu": 8111,
      "fdp": 8112,
      "faz": 8113,
      "fcc": 8114,
      "fit": 8115,
      "fur": 8116,
      "fill": 8117,
      "fed": 8118,
      "gs": 8119,
      "gé": 8120,
      "gđ": 8121,
      "ggi": 8122,
      "gai": 8123,
      "gán": 8124,
      "gsa": 8125,
      "gon": 8126,
      "gai_": 8127,
      "gor": 8128,
      "gma": 8129,
      "gro": 8130,
      "gánh": 8131,
      "gấm_": 8132,
      "gợi_": 8133,
      "gay_": 8134,
      "gần": 8135,
      "gấp_": 8136,
      "gno_": 8137,
      "graham": 8138,
      "geral": 8139,
      "hl": 8140,
      "hé": 8141,
      "hề": 8142,
      "hầu": 8143,
      "h00": 8144,
      "hầm": 8145,
      "hai_": 8146,
      "hrai": 8147,
      "hưu": 8148,
      "hơi": 8149,
      "htin_": 8150,
      "hút": 8151,
      "hran": 8152,
      "h_al": 8153,
      "hey": 8154,
      "hani": 8155,
      "hari": 8156,
      "hùng_uỷ_viên": 8157,
      "hi_su": 8158,
      "h5n1": 8159,
      "hiro": 8160,
      "hiệp": 8161,
      "hdd": 8162,
      "iy": 8163,
      "iá": 8164,
      "iữ": 8165,
      "it_": 8166,
      "ico": 8167,
      "iso": 8168,
      "in_kh": 8169,
      "i_thẩm": 8170,
      "ion": 8171,
      "io_d": 8172,
      "ipap": 8173,
      "iep": 8174,
      "in_m": 8175,
      "ie_d": 8176,
      "iwa": 8177,
      "ichel": 8178,
      "ikto": 8179,
      "iflu": 8180,
      "igno_": 8181,
      "jb": 8182,
      "jr": 8183,
      "ji_": 8184,
      "ja_": 8185,
      "jay": 8186,
      "jin": 8187,
      "jan_": 8188,
      "jab": 8189,
      "juli": 8190,
      "jeria": 8191,
      "ji_chủ_tịch": 8192,
      "jens": 8193,
      "jani_chủ_tịch": 8194,
      "jejomar": 8195,
      "kì": 8196,
      "kĩ": 8197,
      "kẻ": 8198,
      "kan": 8199,
      "kin": 8200,
      "k_h": 8201,
      "kiều_": 8202,
      "ktt": 8203,
      "ktp": 8204,
      "kand": 8205,
      "kri": 8206,
      "ke_": 8207,
      "ktn": 8208,
      "kiện": 8209,
      "key": 8210,
      "kistan": 8211,
      "klos": 8212,
      "kì_": 8213,
      "kyaw": 8214,
      "kevi": 8215,
      "kéo": 8216,
      "ld": 8217,
      "lp": 8218,
      "lú": 8219,
      "lă": 8220,
      "lơ": 8221,
      "lậ": 8222,
      "lt_": 8223,
      "lươ": 8224,
      "lược": 8225,
      "lung_": 8226,
      "l_m": 8227,
      "lây": 8228,
      "lường": 8229,
      "lay": 8230,
      "lar": 8231,
      "lên_": 8232,
      "lâm": 8233,
      "lta": 8234,
      "lừa": 8235,
      "lẩn": 8236,
      "liệu": 8237,
      "lái": 8238,
      "lon": 8239,
      "loạn": 8240,
      "lật": 8241,
      "luk": 8242,
      "lỗi": 8243,
      "lắp": 8244,
      "lần_l": 8245,
      "le_": 8246,
      "lít": 8247,
      "luyện": 8248,
      "lõi": 8249,
      "ld_": 8250,
      "lậ": 8251,
      "llah": 8252,
      "lần": 8253,
      "lỏng": 8254,
      "levo": 8255,
      "l_marx": 8256,
      "md": 8257,
      "mm": 8258,
      "mn": 8259,
      "mr": 8260,
      "mê": 8261,
      "mũ": 8262,
      "mễ": 8263,
      "mồ": 8264,
      "mờ": 8265,
      "mi_": 8266,
      "mong": 8267,
      "mến": 8268,
      "mas": 8269,
      "mal": 8270,
      "mis": 8271,
      "mẫn": 8272,
      "mái": 8273,
      "mil": 8274,
      "mầm_": 8275,
      "mưu": 8276,
      "mọc": 8277,
      "mệnh_": 8278,
      "mbia": 8279,
      "mốc_": 8280,
      "m5s": 8281,
      "mbo_": 8282,
      "mc1": 8283,
      "nồ": 8284,
      "nợ": 8285,
      "n_th": 8286,
      "niê": 8287,
      "nới": 8288,
      "nàn": 8289,
      "non": 8290,
      "na_m": 8291,
      "nnông": 8292,
      "nbc": 8293,
      "nur": 8294,
      "nvp": 8295,
      "nlđ": 8296,
      "não": 8297,
      "njab": 8298,
      "nld": 8299,
      "ot": 8300,
      "oel": 8301,
      "oa_kỳ": 8302,
      "oor": 8303,
      "omar": 8304,
      "oli": 8305,
      "oshihide": 8306,
      "ovay": 8307,
      "o_gu": 8308,
      "otis": 8309,
      "om_b": 8310,
      "olodin": 8311,
      "odlu": 8312,
      "oit_": 8313,
      "ojb": 8314,
      "pd": 8315,
      "pr": 8316,
      "ps": 8317,
      "p_đ": 8318,
      "páo": 8319,
      "p14": 8320,
      "p13": 8321,
      "pana": 8322,
      "pdp": 8323,
      "pyo": 8324,
      "p51": 8325,
      "pye": 8326,
      "p4g": 8327,
      "pmc1": 8328,
      "qr": 8329,
      "qt": 8330,
      "ry": 8331,
      "ré": 8332,
      "rỡ": 8333,
      "rác": 8334,
      "rực_": 8335,
      "rid": 8336,
      "rre": 8337,
      "ris": 8338,
      "rọi": 8339,
      "rắn": 8340,
      "ryan": 8341,
      "rsco": 8342,
      "r_z": 8343,
      "rchen": 8344,
      "rưỡ": 8345,
      "r_quê": 8346,
      "rd_l": 8347,
      "rkin": 8348,
      "sé": 8349,
      "să": 8350,
      "sẻ": 8351,
      "sợ": 8352,
      "s_t": 8353,
      "str": 8354,
      "s_c": 8355,
      "s_m": 8356,
      "s_s": 8357,
      "sập": 8358,
      "sương_": 8359,
      "seo": 8360,
      "sel": 8361,
      "suô": 8362,
      "sai_tr": 8363,
      "stin": 8364,
      "seu": 8365,
      "sand": 8366,
      "soạn": 8367,
      "sri": 8368,
      "sắt": 8369,
      "ster": 8370,
      "stand": 8371,
      "sao_": 8372,
      "s_thuỵ_sỹ": 8373,
      "sùng_uỷ_viên": 8374,
      "sợi_": 8375,
      "stia": 8376,
      "s_times": 8377,
      "tỏ": 8378,
      "tiệ": 8379,
      "tác": 8380,
      "tước": 8381,
      "ttrong": 8382,
      "tương": 8383,
      "toạ": 8384,
      "táo": 8385,
      "tết": 8386,
      "tưởng": 8387,
      "tel": 8388,
      "tan_": 8389,
      "ten": 8390,
      "tiêu": 8391,
      "tần_": 8392,
      "tóm": 8393,
      "tvi": 8394,
      "tướng_": 8395,
      "tới": 8396,
      "tồi": 8397,
      "taine": 8398,
      "tón": 8399,
      "ux": 8400,
      "uỵ": 8401,
      "uch": 8402,
      "ukh": 8403,
      "unam": 8404,
      "uấn": 8405,
      "ula": 8406,
      "uống_": 8407,
      "uran": 8408,
      "uthi": 8409,
      "u_thọ": 8410,
      "uez": 8411,
      "upf": 8412,
      "uon_su": 8413,
      "ul_": 8414,
      "utta": 8415,
      "uriya": 8416,
      "uei_": 8417,
      "v2": 8418,
      "ve": 8419,
      "vt": 8420,
      "vá": 8421,
      "vã": 8422,
      "vé": 8423,
      "van": 8424,
      "vong": 8425,
      "vân": 8426,
      "vời": 8427,
      "váng": 8428,
      "vin": 8429,
      "via": 8430,
      "val": 8431,
      "vằng": 8432,
      "vir": 8433,
      "ves": 8434,
      "von": 8435,
      "vạn": 8436,
      "vor": 8437,
      "v_chủ_tịch": 8438,
      "vạch": 8439,
      "viện": 8440,
      "vê": 8441,
      "vbh": 8442,
      "vật": 8443,
      "wb": 8444,
      "wy": 8445,
      "wong": 8446,
      "way": 8447,
      "wal": 8448,
      "wan_": 8449,
      "wes": 8450,
      "won": 8451,
      "wor": 8452,
      "wni": 8453,
      "wer_": 8454,
      "wari": 8455,
      "whe": 8456,
      "west": 8457,
      "xy": 8458,
      "xư": 8459,
      "xả": 8460,
      "xương": 8461,
      "xáo": 8462,
      "xanh_": 8463,
      "xăng": 8464,
      "xích": 8465,
      "xúc_đ": 8466,
      "xăng_": 8467,
      "xóm": 8468,
      "x_đông_": 8469,
      "xa_x": 8470,
      "xlô": 8471,
      "yong": 8472,
      "yến": 8473,
      "yung": 8474,
      "yin": 8475,
      "yil": 8476,
      "y_g": 8477,
      "yem": 8478,
      "y_ba": 8479,
      "ytaly": 8480,
      "y_elizabeth": 8481,
      "yr_z": 8482,
      "z_c": 8483,
      "za_": 8484,
      "zko": 8485,
      "zhel": 8486,
      "zló": 8487,
      "zbek": 8488,
      "zgeral": 8489,
      "án_": 8490,
      "á_nhân": 8491,
      "ân_h": 8492,
      "ãm": 8493,
      "ãng": 8494,
      "ãn_": 8495,
      "ély": 8496,
      "édouard_philippe": 8497,
      "êu": 8498,
      "ên_h": 8499,
      "ến": 8500,
      "ê_ngọc_": 8501,
      "ìu_": 8502,
      "ìa_": 8503,
      "ính_": 8504,
      "ðông_": 8505,
      "ðây": 8506,
      "ðối": 8507,
      "ðiềm_": 8508,
      "ðịnh_": 8509,
      "òi_": 8510,
      "òng_th": 8511,
      "óm_": 8512,
      "ópez_obrador": 8513,
      "ô_l": 8514,
      "övé": 8515,
      "ùa": 8516,
      "ùng_th": 8517,
      "ùm_b": 8518,
      "ý_tưởng": 8519,
      "ặt": 8520,
      "čapu": 8521,
      "đh": 8522,
      "đĩ": 8523,
      "đơ": 8524,
      "đệ": 8525,
      "đăm": 8526,
      "đinh": 8527,
      "đai": 8528,
      "đống": 8529,
      "định": 8530,
      "độc": 8531,
      "đền": 8532,
      "đông_t": 8533,
      "đen": 8534,
      "đẹp": 8535,
      "điệu": 8536,
      "đoạt": 8537,
      "đủ": 8538,
      "đê": 8539,
      "đắc_đ": 8540,
      "đo_l": 8541,
      "đẹp": 8542,
      "đùm_b": 8543,
      "ơ_quan": 8544,
      "ưmi": 8545,
      "ưởng_": 8546,
      "̀o": 8547,
      "́u": 8548,
      "́ch": 8549,
      "̂́t": 8550,
      "̂́i": 8551,
      "̂́ng": 8552,
      "̂̉m": 8553,
      "̃u": 8554,
      "̃y": 8555,
      "̆ng": 8556,
      "̉e": 8557,
      "̣m": 8558,
      "̣ch": 8559,
      "ạm": 8560,
      "ạc_": 8561,
      "ạng_thái": 8562,
      "ạ_thu_": 8563,
      "ả_ph": 8564,
      "ất_nước": 8565,
      "ấn_kh": 8566,
      "ấm_đ": 8567,
      "ẩu_": 8568,
      "ẫm": 8569,
      "ậm": 8570,
      "ắm": 8571,
      "ặt_đ": 8572,
      "ềnh": 8573,
      "ễn_đ": 8574,
      "ịnh_uỷ_viên": 8575,
      "ị_em": 8576,
      "ốm_đ": 8577,
      "ồn_vinh": 8578,
      "ỗ_tổ": 8579,
      "ộc_đ": 8580,
      "ội_l": 8581,
      "ớc": 8582,
      "ờ_đ": 8583,
      "ời_l": 8584,
      "ờ_tây": 8585,
      "ởi": 8586,
      "ởng_th": 8587,
      "ởng_uỷ_viên": 8588,
      "ở_đất": 8589,
      "ở_hữu": 8590,
      "ủi": 8591,
      "ứu": 8592,
      "ử_xuân_": 8593,
      "ữ_liệu": 8594,
      "ựa": 8595,
      "ựng": 8596,
      "ỳnh_v": 8597,
      "ngã": 8598,
      "ngộ": 8599,
      "ngước": 8600,
      "ngươ": 8601,
      "nga_": 8602,
      "ngời_": 8603,
      "ngô_": 8604,
      "ngột": 8605,
      "ngưỡng": 8606,
      "ngạc": 8607,
      "ngược_": 8608,
      "ngels": 8609,
      "ngành_": 8610,
      "ngồi": 8611,
      "ngợi_": 8612,
      "ngưỡ": 8613,
      "ngiữ": 8614,
      "ngòi_": 8615,
      "ngạc_": 8616,
      "nhạ": 8617,
      "nhu_": 8618,
      "nhuy": 8619,
      "nhấn": 8620,
      "nhap": 8621,
      "nhọn": 8622,
      "nhăng_": 8623,
      "nhen_": 8624,
      "nhnn": 8625,
      "nhó": 8626,
      "nhận": 8627,
      "nhye": 8628,
      "nhật": 8629,
      "nhóm_": 8630,
      "nhựa": 8631,
      "_tù": 8632,
      "_tam": 8633,
      "_tiê": 8634,
      "_tuy": 8635,
      "_tộc": 8636,
      "_tách": 8637,
      "_tin": 8638,
      "_tas": 8639,
      "_tàng": 8640,
      "_tấn": 8641,
      "_tựu": 8642,
      "_tác_": 8643,
      "_tsh": 8644,
      "_tắt": 8645,
      "_tiểu": 8646,
      "_táp": 8647,
      "_tới_": 8648,
      "_tài_": 8649,
      "_tgđ": 8650,
      "chè": 8651,
      "chợ": 8652,
      "choá": 8653,
      "chông_": 8654,
      "chang": 8655,
      "cher": 8656,
      "chau": 8657,
      "ch_h": 8658,
      "chis": 8659,
      "chảy": 8660,
      "chắc_": 8661,
      "chơi": 8662,
      "chpar": 8663,
      "chắn": 8664,
      "chara": 8665,
      "chez": 8666,
      "chất": 8667,
      "chao_": 8668,
      "chấp": 8669,
      "chéo": 8670,
      "che_in": 8671,
      "ch_e": 8672,
      "chìa_": 8673,
      "chùa": 8674,
      "chạm": 8675,
      "chẩu_": 8676,
      "chậm": 8677,
      "chị_em": 8678,
      "chờ_đ": 8679,
      "chử_xuân_": 8680,
      "n_ươ": 8681,
      "n_chức": 8682,
      "n_gia": 8683,
      "n_cả": 8684,
      "n_dự": 8685,
      "n_phương": 8686,
      "n_chung": 8687,
      "n_công_ty": 8688,
      "n_mục": 8689,
      "n_cứ": 8690,
      "n_mặt": 8691,
      "n_ru": 8692,
      "n_chỉnh": 8693,
      "n_cờ": 8694,
      "n_chánh": 8695,
      "n_ngữ": 8696,
      "n_gốc": 8697,
      "n_gió": 8698,
      "n_francois_": 8699,
      "n_kur": 8700,
      "n_kính": 8701,
      "n_chau": 8702,
      "thy": 8703,
      "thú": 8704,
      "thơ": 8705,
      "thả": 8706,
      "thọ": 8707,
      "thở": 8708,
      "thức": 8709,
      "thoá": 8710,
      "thai": 8711,
      "thiện": 8712,
      "thổi": 8713,
      "thuật": 8714,
      "thoại": 8715,
      "thận": 8716,
      "thăng_": 8717,
      "thật": 8718,
      "thai_": 8719,
      "thâm_": 8720,
      "thcs": 8721,
      "thầy": 8722,
      "thừa_": 8723,
      "thép": 8724,
      "thẳng": 8725,
      "thảm_": 8726,
      "th_ch": 8727,
      "th_ba": 8728,
      "the_s": 8729,
      "thiểu_số": 8730,
      "the_h": 8731,
      "thấm_đ": 8732,
      "ng_mộ": 8733,
      "ng_áng": 8734,
      "ng_sáng": 8735,
      "ng_đạt": 8736,
      "ng_sản": 8737,
      "ng_hoà_bình": 8738,
      "ng_hoá": 8739,
      "ng_mang": 8740,
      "ng_hoàng": 8741,
      "ng_bu": 8742,
      "ng_công_nghiệp": 8743,
      "ng_lai": 8744,
      "ng_hải": 8745,
      "ng_gia_đình": 8746,
      "ng_vo": 8747,
      "ng_páo": 8748,
      "ng_seu": 8749,
      "ng_váng": 8750,
      "quới": 8751,
      "quen": 8752,
      "ques": 8753,
      "quét": 8754,
      "quãng": 8755,
      "quỳnh_v": 8756,
      "tre": 8757,
      "tri_": 8758,
      "trăm": 8759,
      "trườ": 8760,
      "trịnh": 8761,
      "trục": 8762,
      "treo": 8763,
      "trưa": 8764,
      "trào": 8765,
      "trắng": 8766,
      "triết": 8767,
      "trăn": 8768,
      "trầm": 8769,
      "trỗi": 8770,
      "tro_": 8771,
      "trăm_": 8772,
      "truss": 8773,
      "trùm": 8774,
      "tr_f": 8775,
      "triết_": 8776,
      "trait": 8777,
      "trở": 8778,
      "triz_": 8779,
      "trên_h": 8780,
      "trìu_": 8781,
      "trạng_thái": 8782,
      "phẩ": 8783,
      "phước": 8784,
      "phiến": 8785,
      "phối": 8786,
      "phi_l": 8787,
      "phượng": 8788,
      "phiên_": 8789,
      "phổ_": 8790,
      "phần_": 8791,
      "phe_": 8792,
      "phos": 8793,
      "phố": 8794,
      "phó": 8795,
      "phòng_th": 8796,
      "phưmi": 8797,
      "phấn_kh": 8798,
      "phồn_vinh": 8799,
      "phớc": 8800,
      "i_kh": 8801,
      "i_uỷ_viên": 8802,
      "i_phương": 8803,
      "i_vị": 8804,
      "i_hu": 8805,
      "i_sinh": 8806,
      "i_indonesia": 8807,
      "i_chi": 8808,
      "i_sông": 8809,
      "i_chi_": 8810,
      "i_rin": 8811,
      "i_faz": 8812,
      "i_mái": 8813,
      "i_rọi": 8814,
      "i_nhọn": 8815,
      "t_khoá": 8816,
      "t_anh": 8817,
      "t_ơn": 8818,
      "t_ho": 8819,
      "t_nghiệp": 8820,
      "t_ko": 8821,
      "t_lư": 8822,
      "t_lùi": 8823,
      "t_ryan": 8824,
      "t_wong": 8825,
      "203": 8826,
      "204": 8827,
      "205": 8828,
      "206": 8829,
      "2086": 8830,
      "2091977": 8831,
      "20h00": 8832,
      "_thơ": 8833,
      "_thụ": 8834,
      "_thịnh": 8835,
      "_thay": 8836,
      "_thế_": 8837,
      "_thức_": 8838,
      "_thuỷ_": 8839,
      "_thượng": 8840,
      "_thiên_": 8841,
      "_thái_": 8842,
      "_thẩm_phán": 8843,
      "_thoa": 8844,
      "_thản": 8845,
      "_thiểu_số": 8846,
      "_thêu": 8847,
      "vành_": 8848,
      "_trà": 8849,
      "_trở": 8850,
      "_trừ": 8851,
      "_trữ": 8852,
      "_trăm": 8853,
      "_trân": 8854,
      "_trai": 8855,
      "_triển": 8856,
      "_treo": 8857,
      "_trường_": 8858,
      "_trận": 8859,
      "_trích": 8860,
      "_triết": 8861,
      "_trạch": 8862,
      "_trộn": 8863,
      "_trôm": 8864,
      "_trưởng_": 8865,
      "_trời_l": 8866,
      "_tri_phương": 8867,
      "nh_đạ": 8868,
      "nh_quốc_": 8869,
      "nh_hành": 8870,
      "nh_giới": 8871,
      "nh_việt_": 8872,
      "giác": 8873,
      "giày": 8874,
      "giầy": 8875,
      "giồng": 8876,
      "giãn": 8877,
      "gimon": 8878,
      "gio_ma": 8879,
      "giuseppe_conte": 8880,
      "giotis": 8881,
      "giux": 8882,
      "giỗ_tổ": 8883,
      "khố": 8884,
      "khu_": 8885,
      "khuôn": 8886,
      "khích": 8887,
      "khand": 8888,
      "khăng_": 8889,
      "khối_l": 8890,
      "khóm": 8891,
      "khad": 8892,
      "khbol": 8893,
      "khhđbcqg": 8894,
      "c_công_ty": 8895,
      "c_canada": 8896,
      "c_mel": 8897,
      "c_for": 8898,
      "c_ngộ": 8899,
      "amid": 8900,
      "amy_c": 8901,
      "am_mưu_trưởng": 8902,
      "amenei": 8903,
      "củng": 8904,
      "củacủa": 8905,
      "anc": 8906,
      "ando": 8907,
      "anel": 8908,
      "anis": 8909,
      "antt": 8910,
      "anes": 8911,
      "anuel": 8912,
      "ane_": 8913,
      "anđt": 8914,
      "andin": 8915,
      "annes": 8916,
      "anjin": 8917,
      "antón": 8918,
      "anuch": 8919,
      "chít": 8920,
      "chí_k": 8921,
      "chí_khí": 8922,
      "u_uỷ_viên": 8923,
      "u_đá": 8924,
      "u_brexit": 8925,
      "u_lạ": 8926,
      "u_hạ_tầng": 8927,
      "u_đãi": 8928,
      "u_mơ": 8929,
      "u_jay": 8930,
      "ongchang": 8931,
      "ngày_mai": 8932,
      "t_nút": 8933,
      "uy_tuấn": 8934,
      "việt_năm": 8935,
      "việt_nam_đ": 8936,
      "việt_nampháp": 8937,
      "việt_namliên": 8938,
      "việt_namcampuchia": 8939,
      "việt_namtriều_tiên": 8940,
      "việt_namsingapore": 8941,
      "việt_namargentina": 8942,
      "việt_namnew_zealand": 8943,
      "việt_namuae": 8944,
      "việt_namphần_lan": 8945,
      "việt_nam_hoá": 8946,
      "việt_nambrunei": 8947,
      "việt_namchile": 8948,
      "việt_nambangladesh": 8949,
      "việt_namna_uy": 8950,
      "việt_nammông_cổ": 8951,
      "việt_nameu_": 8952,
      "ngham": 8953,
      "nghiệt": 8954,
      "nghi_l": 8955,
      "nghiêng": 8956,
      "nghiệp": 8957,
      "m_quan": 8958,
      "m_quyền": 8959,
      "m_chữa": 8960,
      "m_đóng": 8961,
      "m_nét": 8962,
      "m_raisi": 8963,
      "làn_s": 8964,
      "là_là": 8965,
      "đạm": 8966,
      "ượng_th": 8967,
      "ức_thắng_uỷ_viên": 8968,
      "hào_": 8969,
      "hà_huy": 8970,
      "các_tiểu": 8971,
      "nướcdân": 8972,
      "quả": 8973,
      "quản": 8974,
      "qua_cu": 8975,
      "hội_ttxvn": 8976,
      "tổ_tiên": 8977,
      "tổ_dân_": 8978,
      "tổn_th": 8979,
      "chủ_đạo": 8980,
      "chủ_mưu": 8981,
      "inhar": 8982,
      "phán": 8983,
      "phá_s": 8984,
      "phá_ho": 8985,
      "n_hướng": 8986,
      "n_hoa": 8987,
      "n_hải_": 8988,
      "n_hồi": 8989,
      "n_hợp": 8990,
      "n_huy_": 8991,
      "n_haji_hassanal": 8992,
      "n_huy_tuấn": 8993,
      "quyên_": 8994,
      "quyện": 8995,
      "quy_tập": 8996,
      "bộ_m": 8997,
      "bộ_tổng": 8998,
      "bộ_lĩnh": 8999,
      "bội_chi_": 9000,
      "ân_cương_": 9001,
      "ân_lê_thị": 9002,
      "quốc_kỳ": 9003,
      "quốc_dân": 9004,
      "quốc_kế": 9005,
      "quốc_chung": 9006,
      "quốc_việt": 9007,
      "_đọng": 9008,
      "_đăng": 9009,
      "_đốt": 9010,
      "_đốc": 9011,
      "_đặc": 9012,
      "_đằng_": 9013,
      "_định_": 9014,
      "_đựng": 9015,
      "aisri": 9016,
      "chính_thức_": 9017,
      "nghị_viên": 9018,
      "nghị_trường": 9019,
      "đồ_thị": 9020,
      "đồ_hoạ": 9021,
      "kỳ_uỷ_viên": 9022,
      "đại_sự": 9023,
      "đại_công": 9024,
      "đại_đoàn": 9025,
      "đại_chú": 9026,
      "đại_chúng": 9027,
      "đại_đương": 9028,
      "đại_gia_đình": 9029,
      "đại_hội_đoàn": 9030,
      "đại_cồ": 9031,
      "hội_chữ_thập_đỏ": 9032,
      "hội_chợ": 9033,
      "ung_hạ": 9034,
      "ra_l": 9035,
      "rachi": 9036,
      "rales": 9037,
      "rapach": 9038,
      "rard_l": 9039,
      "rawhe": 9040,
      "ranh_giới": 9041,
      "rakhand": 9042,
      "chức_trách": 9043,
      "có_lý": 9044,
      "từ_ch": 9045,
      "từ_khoá": 9046,
      "dânphát": 9047,
      "uỷ_nhiệm": 9048,
      "quốc_tỏ": 9049,
      "_lư": 9050,
      "_lẻ": 9051,
      "_long": 9052,
      "_lon": 9053,
      "_lập_": 9054,
      "_lit": 9055,
      "_lát": 9056,
      "_laf": 9057,
      "_liên_h": 9058,
      "_lari": 9059,
      "_lộn": 9060,
      "_leste": 9061,
      "_leg": 9062,
      "_luỵ": 9063,
      "_lópez_obrador": 9064,
      "_cường_": 9065,
      "_cận": 9066,
      "_cấn": 9067,
      "_cầm": 9068,
      "_cúng": 9069,
      "_cuộc": 9070,
      "_cepa": 9071,
      "_cứu": 9072,
      "trung_á": 9073,
      "trung_lập": 9074,
      "trung_hạn": 9075,
      "trung_liệt": 9076,
      "trung_du": 9077,
      "trung_đông_âu": 9078,
      "trung_dung": 9079,
      "193": 9080,
      "1915": 9081,
      "1928": 9082,
      "1936": 9083,
      "1904": 9084,
      "1907": 9085,
      "1938": 9086,
      "t_đá": 9087,
      "t_để": 9088,
      "t_đổ": 9089,
      "_mỷ": 9090,
      "_mật": 9091,
      "_mor": 9092,
      "_mặc": 9093,
      "_móc": 9094,
      "_mesa": 9095,
      "_myanmar": 9096,
      "_mek": 9097,
      "_metro": 9098,
      "_mão": 9099,
      "_michel": 9100,
      "ách_tắc": 9101,
      "thào_": 9102,
      "n_đá": 9103,
      "n_đô": 9104,
      "n_đốc": 9105,
      "n_đức_thắng_uỷ_viên": 9106,
      "ây_trung_quốc": 9107,
      "đốc_công_ty": 9108,
      "nh_phí": 9109,
      "banga": 9110,
      "bahu": 9111,
      "ban_đầu": 9112,
      "bali": 9113,
      "bachel": 9114,
      "báo": 9115,
      "bahrai": 9116,
      "bastia": 9117,
      "cuel": 9118,
      "cùng": 9119,
      "_sự": 9120,
      "_song": 9121,
      "_sas": 9122,
      "_sơn": 9123,
      "_sấu": 9124,
      "_sha": 9125,
      "_slp": 9126,
      "_sắm": 9127,
      "_nóng": 9128,
      "_nev": 9129,
      "_nico": 9130,
      "_noor": 9131,
      "giá": 9132,
      "giadân": 9133,
      "gia_định": 9134,
      "gian_kh": 9135,
      "ng_thực": 9136,
      "ng_thầu": 9137,
      "hoành": 9138,
      "hoàng_đ": 9139,
      "hoài_đức": 9140,
      "hoành_hành": 9141,
      "_dối": 9142,
      "_dẫn": 9143,
      "_diệu": 9144,
      "_dưỡng": 9145,
      "_dặn": 9146,
      "_david": 9147,
      "_de_c": 9148,
      "_dữ_liệu": 9149,
      "_dung_hạ": 9150,
      "khoá_v": 9151,
      "khoáng_sản": 9152,
      "nguy_h": 9153,
      "n_lẻ": 9154,
      "n_luận": 9155,
      "n_lâu": 9156,
      "n_lửa": 9157,
      "n_lộn": 9158,
      "n_lợi_": 9159,
      "n_lãm": 9160,
      "n_lê_ngọc_": 9161,
      "_vi": 9162,
      "_van": 9163,
      "_vong": 9164,
      "_vương": 9165,
      "_vần": 9166,
      "_vời": 9167,
      "_val": 9168,
      "_vsp": 9169,
      "_vũng_tàu": 9170,
      "_volodin": 9171,
      "hợi": 9172,
      "_thưởng_uỷ_viên": 9173,
      "toà_kinh_tế": 9174,
      "quảng_t": 9175,
      "công_minh": 9176,
      "công_đoàn_": 9177,
      "công_cụ": 9178,
      "công_nhân_sự": 9179,
      "công_nông": 9180,
      "công_chúng": 9181,
      "công_sở": 9182,
      "cử_nhân": 9183,
      "đồng_hồ": 9184,
      "đồng_văn": 9185,
      "đồng_sỹ": 9186,
      "đồng_nghĩa": 9187,
      "đồng_điệu": 9188,
      "thủ_công": 9189,
      "hợp_thức": 9190,
      "hợp_tác_": 9191,
      "công_tâm": 9192,
      "công_trung_quốc": 9193,
      "bí_thành": 9194,
      "bích_h": 9195,
      "bí_mật": 9196,
      "a_chủ_tịch": 9197,
      "a_bu": 9198,
      "a_bi": 9199,
      "a_xuân": 9200,
      "a_philippines": 9201,
      "a_bán": 9202,
      "a_uttar_pradesh": 9203,
      "a_fas": 9204,
      "a_čapu": 9205,
      "satu_": 9206,
      "sánh": 9207,
      "sad_sh": 9208,
      "sarsco": 9209,
      "sang_sáng": 9210,
      "cao_minh": 9211,
      "cao_nhân": 9212,
      "cao_nguyên": 9213,
      "cao_su": 9214,
      "cao_tiến_dũng_uỷ_viên": 9215,
      "bản_lý": 9216,
      "nhận_chức": 9217,
      "tổ_bầu": 9218,
      "ương_giang": 9219,
      "106": 9220,
      "1015": 9221,
      "102014": 9222,
[...]
