{
  "version": "1.0",
  "truncation": null,
  "padding": null,
  "added_tokens": [
    {
      "id": 0,
      "content": "<unk>",
      "single_word": false,
      "lstrip": false,
      "rstrip": false,
      "normalized": false,
      "special": true
    },
    {
      "id": 1,
      "content": "<eos>",
      "single_word": false,
      "lstrip": false,
      "rstrip": false,
      "normalized": false,
      "special": true
    },
    {
      "id": 2,
      "content": "<\\eos>",
      "single_word": false,
      "lstrip": false,
      "rstrip": false,
      "normalized": false,
      "special": true
    }
  ],
  "normalizer": null,
  "pre_tokenizer": {
    "type": "Whitespace"
  },
  "post_processor": null,
  "decoder": null,
  "model": {
    "type": "BPE",
    "dropout": null,
    "unk_token": null,
    "continuing_subword_prefix": null,
    "end_of_word_suffix": null,
    "fuse_unk": false,
    "byte_fallback": false,
    "ignore_merges": false,
    "vocab": {
      "<unk>": 0,
      "<eos>": 1,
      "<\\eos>": 2,
      ".": 3,
      "/": 4,
      "0": 5,
      "1": 6,
      "2": 7,
      "3": 8,
      "4": 9,
      "5": 10,
      "6": 11,
      "7": 12,
      "8": 13,
      "9": 14,
      "a": 15,
      "b": 16,
      "c": 17,
      "d": 18,
      "e": 19,
      "f": 20,
      "g": 21,
      "h": 22,
      "i": 23,
      "j": 24,
      "k": 25,
      "l": 26,
      "m": 27,
      "n": 28,
      "o": 29,
      "p": 30,
      "q": 31,
      "r": 32,
      "s": 33,
      "t": 34,
      "u": 35,
      "v": 36,
      "w": 37,
      "x": 38,
      "y": 39,
      "z": 40,
      "à": 41,
      "á": 42,
      "â": 43,
      "ã": 44,
      "è": 45,
      "é": 46,
      "ê": 47,
      "ì": 48,
      "í": 49,
      "ð": 50,
      "ò": 51,
      "ó": 52,
      "ô": 53,
      "õ": 54,
      "ö": 55,
      "ù": 56,
      "ú": 57,
      "ý": 58,
      "ă": 59,
      "č": 60,
      "đ": 61,
      "ĩ": 62,
      "ũ": 63,
      "ơ": 64,
      "ư": 65,
      "̀": 66,
      "́": 67,
      "̂": 68,
      "̃": 69,
      "̆": 70,
      "̉": 71,
      "̛": 72,
      "̣": 73,
      "ạ": 74,
      "ả": 75,
      "ấ": 76,
      "ầ": 77,
      "ẩ": 78,
      "ẫ": 79,
      "ậ": 80,
      "ắ": 81,
      "ằ": 82,
      "ẳ": 83,
      "ẵ": 84,
      "ặ": 85,
      "ẹ": 86,
      "ẻ": 87,
      "ẽ": 88,
      "ế": 89,
      "ề": 90,
      "ể": 91,
      "ễ": 92,
      "ệ": 93,
      "ỉ": 94,
      "ị": 95,
      "ọ": 96,
      "ỏ": 97,
      "ố": 98,
      "ồ": 99,
      "ổ": 100,
      "ỗ": 101,
      "ộ": 102,
      "ớ": 103,
      "ờ": 104,
      "ở": 105,
      "ỡ": 106,
      "ợ": 107,
      "ụ": 108,
      "ủ": 109,
      "ứ": 110,
      "ừ": 111,
      "ử": 112,
      "ữ": 113,
      "ự": 114,
      "ỳ": 115,
      "ỵ": 116,
      "ỷ": 117,
      "ỹ": 118,
      "​": 119,
      "–": 120,
      "’": 121,
      "…": 122,
      "﻿": 123,
      "ng": 124,
      "nh": 125,
      "th": 126,
      "ch": 127,
      "tr": 128,
      "qu": 129,
      "iệ": 130,
      "ph": 131,
      "20": 132,
      "an": 133,
      "và": 134,
      "ên": 135,
      "gi": 136,
      "ại": 137,
      "ội": 138,
      "kh": 139,
      "ướ": 140,
      "ác": 141,
      "am": 142,
      "việ": 143,
      "củ": 144,
      "của": 145,
      "ông": 146,
      "chí": 147,
      "ân": 148,
      "ày": 149,
      "hội": 150,
      "iế": 151,
      "ong": 152,
      "ước": 153,
      "iên": 154,
      "ốc": 155,
      "ngày": 156,
      "ành": 157,
      "nam": 158,
      "oà": 159,
      "quốc": 160,
      "ươ": 161,
      "việt": 162,
      "ới": 163,
      "ương": 164,
      "uy": 165,
      "ức": 166,
      "trong": 167,
      "ngh": 168,
      "iể": 169,
      "nước": 170,
      "ăm": 171,
      "là": 172,
      "202": 173,
      "ượ": 174,
      "inh": 175,
      "chính": 176,
      "quan": 177,
      "ực": 178,
      "các": 179,
      "ầu": 180,
      "đã": 181,
      "ảng": 182,
      "ời": 183,
      "ất": 184,
      "ung": 185,
      "tổ": 186,
      "chủ": 187,
      "năm": 188,
      "iề": 189,
      "ết": 190,
      "ối": 191,
      "ai": 192,
      "công": 193,
      "ần": 194,
      "tại": 195,
      "phá": 196,
      "ao": 197,
      "đảng": 198,
      "quy": 199,
      "ược": 200,
      "ịch": 201,
      "201": 202,
      "ình": 203,
      "ộng": 204,
      "bộ": 205,
      "oàn": 206,
      "iều": 207,
      "thành": 208,
      "dân": 209,
      "ồng": 210,
      "đại": 211,
      "oá": 212,
      "iến": 213,
      "chức": 214,
      "nghị": 215,
      "với": 216,
      "đồng": 217,
      "iện": 218,
      "đị": 219,
      "kỳ": 220,
      "iệm": 221,
      "thư": 222,
      "được": 223,
      "trung": 224,
      "ống": 225,
      "ỉnh": 226,
      "tác": 227,
      "ộc": 228,
      "thứ": 229,
      "nhiệm": 230,
      "từ": 231,
      "ra": 232,
      "có": 233,
      "định": 234,
      "uỷ": 235,
      "ấp": 236,
      "ban": 237,
      "ễn": 238,
      "iển": 239,
      "phát": 240,
      "về": 241,
      "hệ": 242,
      "tổng": 243,
      "ận": 244,
      "hà": 245,
      "tỉnh": 246,
      "anh": 247,
      "cá": 248,
      "giữ": 249,
      "19": 250,
      "ờng": 251,
      "triển": 252,
      "hợ": 253,
      "hợp": 254,
      "tịch": 255,
      "vụ": 256,
      "ập": 257,
      "ây": 258,
      "ản": 259,
      "ững": 260,
      "ến": 261,
      "hành": 262,
      "cu": 263,
      "sự": 264,
      "ang": 265,
      "đối": 266,
      "thủ": 267,
      "ạo": 268,
      "ột": 269,
      "tế": 270,
      "liên": 271,
      "ền": 272,
      "nhân": 273,
      "thống": 274,
      "áng": 275,
      "đầu": 276,
      "khoá": 277,
      "nguy": 278,
      "âu": 279,
      "ướng": 280,
      "dự": 281,
      "viên": 282,
      "bầu": 283,
      "lu": 284,
      "cử": 285,
      "quyết": 286,
      "một": 287,
      "ọng": 288,
      "ục": 289,
      "số": 290,
      "án": 291,
      "những": 292,
      "bí": 293,
      "nhất": 294,
      "lần": 295,
      "cấp": 296,
      "cao": 297,
      "ật": 298,
      "nội": 299,
      "au": 300,
      "trị": 301,
      "10": 302,
      "2020": 303,
      "cuộc": 304,
      "trư": 305,
      "di": 306,
      "ải": 307,
      "toàn": 308,
      "trọng": 309,
      "ii": 310,
      "iểu": 311,
      "mạ": 312,
      "2021": 313,
      "hoà": 314,
      "hai": 315,
      "ti": 316,
      "tướng": 317,
      "kết": 318,
      "động": 319,
      "cho": 320,
      "minh": 321,
      "11": 322,
      "ởng": 323,
      "đến": 324,
      "qua": 325,
      "họ": 326,
      "nhà": 327,
      "gia": 328,
      "biểu": 329,
      "ay": 330,
      "ạt": 331,
      "ười": 332,
      "đạo": 333,
      "cộng": 334,
      "oại": 335,
      "chiến": 336,
      "người": 337,
      "ăn": 338,
      "ho": 339,
      "the": 340,
      "cơ": 341,
      "vào": 342,
      "do": 343,
      "thức": 344,
      "hiện": 345,
      "kinh": 346,
      "nhiều": 347,
      "thông": 348,
      "ổi": 349,
      "lập": 350,
      "đoàn": 351,
      "áo": 352,
      "cả": 353,
      "2023": 354,
      "vực": 355,
      "việc": 356,
      "úc": 357,
      "phủ": 358,
      "theo": 359,
      "ăng": 360,
      "trên": 361,
      "ơn": 362,
      "ấn": 363,
      "sau": 364,
      "diễn": 365,
      "chỉ": 366,
      "12": 367,
      "sẽ": 368,
      "đề": 369,
      "ngoại": 370,
      "lã": 371,
      "tiế": 372,
      "thế": 373,
      "họp": 374,
      "tham": 375,
      "thực": 376,
      "2022": 377,
      "bình": 378,
      "ách": 379,
      "ảo": 380,
      "tuy": 381,
      "đó": 382,
      "giao": 383,
      "giữa": 384,
      "iểm": 385,
      "nguyễn": 386,
      "văn": 387,
      "thu": 388,
      "cách": 389,
      "as": 390,
      "xã": 391,
      "trưởng": 392,
      "quả": 393,
      "thăm": 394,
      "iệp": 395,
      "phó": 396,
      "mới": 397,
      "lãnh": 398,
      "tí": 399,
      "để": 400,
      "iết": 401,
      "mỹ": 402,
      "tiếp": 403,
      "điều": 404,
      "ứng": 405,
      "nhận": 406,
      "vi": 407,
      "nd": 408,
      "hồ": 409,
      "co": 410,
      "êu": 411,
      "khi": 412,
      "òng": 413,
      "thời": 414,
      "ĩnh": 415,
      "đây": 416,
      "ắc": 417,
      "thường": 418,
      "ia": 419,
      "không": 420,
      "ượng": 421,
      "ca": 422,
      "ạm": 423,
      "sáng": 424,
      "iếu": 425,
      "al": 426,
      "iệu": 427,
      "bị": 428,
      "bản": 429,
      "tố": 430,
      "ùng": 431,
      "lớ": 432,
      "giới": 433,
      "làm": 434,
      "ar": 435,
      "quyền": 436,
      "lớn": 437,
      "tiên": 438,
      "tư": 439,
      "hình": 440,
      "ài": 441,
      "xu": 442,
      "đổi": 443,
      "luật": 444,
      "hơn": 445,
      "sử": 446,
      "ase": 447,
      "pháp": 448,
      "2019": 449,
      "ne": 450,
      "châu": 451,
      "lĩnh": 452,
      "ái": 453,
      "iệt": 454,
      "ũng": 455,
      "ặt": 456,
      "2018": 457,
      "xi": 458,
      "ường": 459,
      "phạm": 460,
      "phố": 461,
      "này": 462,
      "ét": 463,
      "thiết": 464,
      "phương": 465,
      "tục": 466,
      "thương": 467,
      "phiếu": 468,
      "ôn": 469,
      "asean": 470,
      "báo": 471,
      "xây": 472,
      "mạnh": 473,
      "lời": 474,
      "diện": 475,
      "viện": 476,
      "khu": 477,
      "dựng": 478,
      "tin": 479,
      "ặc": 480,
      "ninh": 481,
      "chuy": 482,
      "xét": 483,
      "tiến": 484,
      "âm": 485,
      "thể": 486,
      "ẩm": 487,
      "ắng": 488,
      "nghĩ": 489,
      "chấp": 490,
      "trực": 491,
      "giải": 492,
      "kỷ": 493,
      "đất": 494,
      "tuyên": 495,
      "nghĩa": 496,
      "ấu": 497,
      "nguyên": 498,
      "lực": 499,
      "ẫn": 500,
      "vị": 501,
      "ạn": 502,
      "ợi": 503,
      "el": 504,
      "đà": 505,
      "nghiệp": 506,
      "cực": 507,
      "hoá": 508,
      "bảo": 509,
      "ba": 510,
      "nay": 511,
      "tháng": 512,
      "trình": 513,
      "phần": 514,
      "phòng": 515,
      "lịch": 516,
      "lợi": 517,
      "bố": 518,
      "sản": 519,
      "mạng": 520,
      "thắng": 521,
      "lý": 522,
      "toà": 523,
      "ánh": 524,
      "mại": 525,
      "giá": 526,
      "cáo": 527,
      "tới": 528,
      "xii": 529,
      "hiệu": 530,
      "như": 531,
      "15": 532,
      "chiều": 533,
      "gó": 534,
      "tu": 535,
      "vấn": 536,
      "truy": 537,
      "thi": 538,
      "tích": 539,
      "biệt": 540,
      "tiêu": 541,
      "hoạt": 542,
      "góp": 543,
      "tạo": 544,
      "mời": 545,
      "nga": 546,
      "xử": 547,
      "2016": 548,
      "tộc": 549,
      "thanh": 550,
      "xv": 551,
      "ưa": 552,
      "tranh": 553,
      "đạt": 554,
      "thúc": 555,
      "lược": 556,
      "đặc": 557,
      "30": 558,
      "đẩ": 559,
      "đẩy": 560,
      "kiểm": 561,
      "lại": 562,
      "ệnh": 563,
      "dịch": 564,
      "tăng": 565,
      "chất": 566,
      "chống": 567,
      "điểm": 568,
      "trường": 569,
      "truyền": 570,
      "tâm": 571,
      "phiên": 572,
      "hữ": 573,
      "hữu": 574,
      "iê": 575,
      "àng": 576,
      "in": 577,
      "nhật": 578,
      "trở": 579,
      "kiến": 580,
      "mở": 581,
      "mặt": 582,
      "re": 583,
      "sách": 584,
      "thái": 585,
      "tra": 586,
      "25": 587,
      "cùng": 588,
      "en": 589,
      "đang": 590,
      "thị": 591,
      "chung": 592,
      "197": 593,
      "cán": 594,
      "tốt": 595,
      "vương": 596,
      "bước": 597,
      "lan": 598,
      "ôi": 599,
      "thượng": 600,
      "phúc": 601,
      "luận": 602,
      "14": 603,
      "tài": 604,
      "trước": 605,
      "ắt": 606,
      "sơ": 607,
      "ụng": 608,
      "hàng": 609,
      "is": 610,
      "tập": 611,
      "giáo": 612,
      "2025": 613,
      "13": 614,
      "22": 615,
      "dương": 616,
      "lên": 617,
      "sinh": 618,
      "ta": 619,
      "ựu": 620,
      "quân": 621,
      "2017": 622,
      "cũng": 623,
      "er": 624,
      "đi": 625,
      "ầm": 626,
      "ển": 627,
      "18": 628,
      "hđ": 629,
      "on": 630,
      "ub": 631,
      "ẹp": 632,
      "khai": 633,
      "cường": 634,
      "kiện": 635,
      "át": 636,
      "thẩm": 637,
      "kho": 638,
      "2015": 639,
      "can": 640,
      "cầu": 641,
      "sâu": 642,
      "dụng": 643,
      "năng": 644,
      "rộng": 645,
      "xuân": 646,
      "bà": 647,
      "đánh": 648,
      "ảy": 649,
      "trí": 650,
      "càng": 651,
      "đưa": 652,
      "ừa": 653,
      "28": 654,
      "23": 655,
      "huy": 656,
      "kể": 657,
      "ọi": 658,
      "chế": 659,
      "trò": 660,
      "luôn": 661,
      "ubnd": 662,
      "16": 663,
      "17": 664,
      "đức": 665,
      "ẩn": 666,
      "ậu": 667,
      "quảng": 668,
      "iền": 669,
      "hoàn": 670,
      "đẹp": 671,
      "50": 672,
      "bỏ": 673,
      "im": 674,
      "ty": 675,
      "pu": 676,
      "tt": 677,
      "vững": 678,
      "quản": 679,
      "địa": 680,
      "xiii": 681,
      "phong": 682,
      "hạ": 683,
      "đa": 684,
      "đô": 685,
      "ua": 686,
      "um": 687,
      "trách": 688,
      "21": 689,
      "ap": 690,
      "em": 691,
      "đời": 692,
      "trì": 693,
      "45": 694,
      "vai": 695,
      "đỉnh": 696,
      "giành": 697,
      "cảnh": 698,
      "mối": 699,
      "nữ": 700,
      "su": 701,
      "xảy": 702,
      "độ": 703,
      "gian": 704,
      "hđnd": 705,
      "dẫn": 706,
      "ảm": 707,
      "20202025": 708,
      "học": 709,
      "..": 710,
      "hi": 711,
      "la": 712,
      "sát": 713,
      "24": 714,
      "hu": 715,
      "phú": 716,
      "27": 717,
      "bang": 718,
      "niên": 719,
      "ào": 720,
      "ạch": 721,
      "ởi": 722,
      "ừng": 723,
      "xuất": 724,
      "xiv": 725,
      "00": 726,
      "bổ": 727,
      "dấu": 728,
      "hậu": 729,
      "chương": 730,
      "thuận": 731,
      "gần": 732,
      "lễ": 733,
      "tinh": 734,
      "tình": 735,
      "âng": 736,
      "ằng": 737,
      "tri": 738,
      "ký": 739,
      "ằm": 740,
      "chu": 741,
      "to": 742,
      "vì": 743,
      "òn": 744,
      "đo": 745,
      "đấu": 746,
      "con": 747,
      "iêm": 748,
      "mục": 749,
      "nền": 750,
      "nâng": 751,
      "ủng": 752,
      "thuộc": 753,
      "cố": 754,
      "kim": 755,
      "lượng": 756,
      "tất": 757,
      "đóng": 758,
      "sắc": 759,
      "đường": 760,
      "tính": 761,
      "đàn": 762,
      "bắt": 763,
      "cựu": 764,
      "ấy": 765,
      "eu": 766,
      "tự": 767,
      "triều": 768,
      "bên": 769,
      "cần": 770,
      "vệ": 771,
      "duy": 772,
      "tối": 773,
      "úng": 774,
      "đông": 775,
      "khởi": 776,
      "hoa": 777,
      "tp": 778,
      "lào": 779,
      "chuyển": 780,
      "hộ": 781,
      "hải": 782,
      "mà": 783,
      "đứng": 784,
      "ẳng": 785,
      "phân": 786,
      "chuyến": 787,
      "cam": 788,
      "us": 789,
      "vừa": 790,
      "ích": 791,
      "trao": 792,
      "26": 793,
      "29": 794,
      "còn": 795,
      "ec": 796,
      "kế": 797,
      "mẽ": 798,
      "nhằm": 799,
      "giờ": 800,
      "khác": 801,
      "biên": 802,
      "gây": 803,
      "hiệp": 804,
      "sở": 805,
      "đình": 806,
      "ọn": 807,
      "oài": 808,
      "biến": 809,
      "ngừng": 810,
      "chia": 811,
      "trum": 812,
      "vid": 813,
      "trump": 814,
      "hạn": 815,
      "hướng": 816,
      "don": 817,
      "covid": 818,
      "song": 819,
      "ắn": 820,
      "phẩm": 821,
      "20162021": 822,
      "sức": 823,
      "ốt": 824,
      "trương": 825,
      "phục": 826,
      "bắc": 827,
      "cứ": 828,
      "si": 829,
      "đơn": 830,
      "ngoài": 831,
      "nghiêm": 832,
      "ượt": 833,
      "donal": 834,
      "bi": 835,
      "jo": 836,
      "qđ": 837,
      "sia": 838,
      "chuẩn": 839,
      "lo": 840,
      "lộ": 841,
      "un": 842,
      "quang": 843,
      "giang": 844,
      "donald": 845,
      "gồ": 846,
      "lệnh": 847,
      "mức": 848,
      "po": 849,
      "điện": 850,
      "giai": 851,
      "oát": 852,
      "gồm": 853,
      "bch": 854,
      "bằng": 855,
      "da": 856,
      "ir": 857,
      "vùng": 858,
      "trần": 859,
      "196": 860,
      "apec": 861,
      "bền": 862,
      "du": 863,
      "dướ": 864,
      "hết": 865,
      "nông": 866,
      "nổi": 867,
      "sĩ": 868,
      "ưu": 869,
      "ngân": 870,
      "nhập": 871,
      "nhũng": 872,
      "dưới": 873,
      "es": 874,
      "mo": 875,
      "miền": 876,
      "tội": 877,
      "ốn": 878,
      "khí": 879,
      "đoạn": 880,
      "danh": 881,
      "đua": 882,
      "thay": 883,
      "thảo": 884,
      "trào": 885,
      "củng": 886,
      "bệnh": 887,
      "cổ": 888,
      "dung": 889,
      "nó": 890,
      "so": 891,
      "ậy": 892,
      "phải": 893,
      "ma": 894,
      "tỷ": 895,
      "yêu": 896,
      "ìn": 897,
      "đảo": 898,
      "ấm": 899,
      "199": 900,
      "hoàng": 901,
      "hối": 902,
      "vượt": 903,
      "xem": 904,
      "ện": 905,
      "quá": 906,
      "hàn": 907,
      "cuba": 908,
      "hoạch": 909,
      "cứu": 910,
      "li": 911,
      "đảm": 912,
      "thần": 913,
      "lê": 914,
      "mọi": 915,
      "tầm": 916,
      "ám": 917,
      "ỏi": 918,
      "2026": 919,
      "bu": 920,
      "óm": 921,
      "phi": 922,
      "phí": 923,
      "and": 924,
      "tw": 925,
      "vận": 926,
      "khẳng": 927,
      "lao": 928,
      "rai": 929,
      "tán": 930,
      "va": 931,
      "ắp": 932,
      "chọn": 933,
      "nghệ": 934,
      "rất": 935,
      "áp": 936,
      "nhau": 937,
      "iếm": 938,
      "thưởng": 939,
      "hồi": 940,
      "nói": 941,
      "lệ": 942,
      "vẫn": 943,
      "ỗi": 944,
      "tuổi": 945,
      "puchia": 946,
      "campuchia": 947,
      "cầm": 948,
      "dài": 949,
      "hiến": 950,
      "mar": 951,
      "nỗ": 952,
      "sống": 953,
      "tấn": 954,
      "đội": 955,
      "nhóm": 956,
      "trợ": 957,
      "krai": 958,
      "sang": 959,
      "vọng": 960,
      "kháng": 961,
      "oán": 962,
      "phóng": 963,
      "tưởng": 964,
      "kraine": 965,
      "bất": 966,
      "ukraine": 967,
      "doanh": 968,
      "ab": 969,
      "dục": 970,
      "mang": 971,
      "tây": 972,
      "xác": 973,
      "ếu": 974,
      "iii": 975,
      "20212026": 976,
      "31": 977,
      "mỗi": 978,
      "chi": 979,
      "200": 980,
      "khỏi": 981,
      "tuyến": 982,
      "khoa": 983,
      "covid19": 984,
      "cục": 985,
      "gọi": 986,
      "ix": 987,
      "phụ": 988,
      "gh": 989,
      "hô": 990,
      "niệm": 991,
      "ri": 992,
      "vũ": 993,
      "êm": 994,
      "ơi": 995,
      "ậm": 996,
      "ồn": 997,
      "thổ": 998,
      "trải": 999,
      "phu": 1000,
      "phê": 1001,
      "ngapo": 1002,
      "1973": 1003,
      "singapo": 1004,
      "singapore": 1005,
      "thôi": 1006,
      "trẻ": 1007,
      "triệu": 1008,
      "phối": 1009,
      "mạc": 1010,
      "giám": 1011,
      "suốt": 1012,
      "cải": 1013,
      "nên": 1014,
      "rõ": 1015,
      "toán": 1016,
      "xế": 1017,
      "độc": 1018,
      "xếp": 1019,
      "bác": 1020,
      "man": 1021,
      "or": 1022,
      "pa": 1023,
      "tương": 1024,
      "ạp": 1025,
      "ọc": 1026,
      "tho": 1027,
      "198": 1028,
      "done": 1029,
      "...": 1030,
      "huệ": 1031,
      "gắn": 1032,
      "ns": 1033,
      "sơn": 1034,
      "từng": 1035,
      "ghế": 1036,
      "den": 1037,
      "par": 1038,
      "võ": 1039,
      "đăng": 1040,
      "indone": 1041,
      "ttxv": 1042,
      "biden": 1043,
      "indonesia": 1044,
      "70": 1045,
      "hư": 1046,
      "kiên": 1047,
      "long": 1048,
      "môi": 1049,
      "xuy": 1050,
      "út": 1051,
      "ổn": 1052,
      "aus": 1053,
      "tín": 1054,
      "ttxvn": 1055,
      "xuyên": 1056,
      "54": 1057,
      "lh": 1058,
      "nơi": 1059,
      "sa": 1060,
      "sung": 1061,
      "vòng": 1062,
      "thách": 1063,
      "trụ": 1064,
      "tuyển": 1065,
      "nhưng": 1066,
      "bối": 1067,
      "cương": 1068,
      "căn": 1069,
      "de": 1070,
      "gặ": 1071,
      "lai": 1072,
      "mình": 1073,
      "đương": 1074,
      "đắc": 1075,
      "chặt": 1076,
      "chưa": 1077,
      "khuy": 1078,
      "chuyên": 1079,
      "thoả": 1080,
      "gặp": 1081,
      "40": 1082,
      "dư": 1083,
      "tựu": 1084,
      "xung": 1085,
      "ãi": 1086,
      "đốc": 1087,
      "́c": 1088,
      "thất": 1089,
      "thấy": 1090,
      "trận": 1091,
      "tral": 1092,
      "phán": 1093,
      "austral": 1094,
      "australia": 1095,
      "bao": 1096,
      "liệt": 1097,
      "mốc": 1098,
      "ro": 1099,
      "tử": 1100,
      "ạnh": 1101,
      "ngành": 1102,
      "nhậm": 1103,
      "thiếu": 1104,
      "chiếm": 1105,
      "khẩn": 1106,
      "coi": 1107,
      "60": 1108,
      "biết": 1109,
      "cung": 1110,
      "cận": 1111,
      "ké": 1112,
      "me": 1113,
      "soát": 1114,
      "tiền": 1115,
      "đáng": 1116,
      "giảm": 1117,
      "khối": 1118,
      "iềm": 1119,
      "đàm": 1120,
      "lhq": 1121,
      "ghi": 1122,
      "lâu": 1123,
      "lòng": 1124,
      "vĩ": 1125,
      "đột": 1126,
      "ạng": 1127,
      "phạt": 1128,
      "khó": 1129,
      "20152020": 1130,
      "hạng": 1131,
      "joe": 1132,
      "biển": 1133,
      "bre": 1134,
      "cụ": 1135,
      "le": 1136,
      "mi": 1137,
      "tạm": 1138,
      "uel": 1139,
      "vinh": 1140,
      "yếu": 1141,
      "ngu": 1142,
      "nhìn": 1143,
      "1945": 1144,
      "xit": 1145,
      "iran": 1146,
      "cp": 1147,
      "cạnh": 1148,
      "hy": 1149,
      "mô": 1150,
      "vn": 1151,
      "úp": 1152,
      "giúp": 1153,
      "aipa": 1154,
      "2013": 1155,
      "sửa": 1156,
      "khoảng": 1157,
      "nữa": 1158,
      "abe": 1159,
      "hôm": 1160,
      "brexit": 1161,
      "99": 1162,
      "bài": 1163,
      "dc": 1164,
      "ha": 1165,
      "lẫn": 1166,
      "lưu": 1167,
      "tên": 1168,
      "xx": 1169,
      "đủ": 1170,
      "đúng": 1171,
      "ngay": 1172,
      "thân": 1173,
      "thiện": 1174,
      "2014": 1175,
      "tuần": 1176,
      "kéo": 1177,
      "ci": 1178,
      "hùng": 1179,
      "loại": 1180,
      "lấy": 1181,
      "na": 1182,
      "sỹ": 1183,
      "tái": 1184,
      "xâm": 1185,
      "ặng": 1186,
      "ịp": 1187,
      "nhanh": 1188,
      "thoát": 1189,
      "194": 1190,
      "đều": 1191,
      "lãng": 1192,
      "new": 1193,
      "nguồn": 1194,
      "dò": 1195,
      "hỗ": 1196,
      "jong": 1197,
      "tụ": 1198,
      "tan": 1199,
      "ạc": 1200,
      "giam": 1201,
      "khăn": 1202,
      "100": 1203,
      "1975": 1204,
      "jongun": 1205,
      "cs": 1206,
      "cậy": 1207,
      "hồng": 1208,
      "mal": 1209,
      "nẵ": 1210,
      "os": 1211,
      "tân": 1212,
      "vĩnh": 1213,
      "we": 1214,
      "yên": 1215,
      "àu": 1216,
      "ứt": 1217,
      "thoại": 1218,
      "quý": 1219,
      "khổ": 1220,
      "cuối": 1221,
      "tiễn": 1222,
      "nẵng": 1223,
      "36": 1224,
      "dứt": 1225,
      "hc": 1226,
      "lối": 1227,
      "rời": 1228,
      "tạp": 1229,
      "đặt": 1230,
      "ẩu": 1231,
      "ửa": 1232,
      "putin": 1233,
      "cai": 1234,
      "dũng": 1235,
      "ine": 1236,
      "ja": 1237,
      "pp": 1238,
      "ru": 1239,
      "sh": 1240,
      "tì": 1241,
      "tám": 1242,
      "ya": 1243,
      "óc": 1244,
      "nhĩ": 1245,
      "trả": 1246,
      "trang": 1247,
      "khám": 1248,
      "khẩu": 1249,
      "aysia": 1250,
      "cảm": 1251,
      "khuôn": 1252,
      "tuệ": 1253,
      "000": 1254,
      "hưởng": 1255,
      "malaysia": 1256,
      "tìm": 1257,
      "80": 1258,
      "90": 1259,
      "bảng": 1260,
      "cư": 1261,
      "nào": 1262,
      "viết": 1263,
      "vốn": 1264,
      "đáp": 1265,
      "̣c": 1266,
      "ảnh": 1267,
      "ầy": 1268,
      "ắm": 1269,
      "ựa": 1270,
      "thệ": 1271,
      "chúng": 1272,
      "chấm": 1273,
      "phản": 1274,
      "bàn": 1275,
      "44": 1276,
      "55": 1277,
      "bỉ": 1278,
      "bán": 1279,
      "cập": 1280,
      "dp": 1281,
      "ko": 1282,
      "lựa": 1283,
      "qh": 1284,
      "te": 1285,
      "ít": 1286,
      "ùi": 1287,
      "đai": 1288,
      "điệp": 1289,
      "ỡng": 1290,
      "2024": 1291,
      "xvii": 1292,
      "huyện": 1293,
      "usd": 1294,
      "az": 1295,
      "bó": 1296,
      "ex": 1297,
      "g7": 1298,
      "go": 1299,
      "ham": 1300,
      "lương": 1301,
      "mu": 1302,
      "má": 1303,
      "pap": 1304,
      "sư": 1305,
      "vô": 1306,
      "đầy": 1307,
      "thơ": 1308,
      "chẽ": 1309,
      "chứng": 1310,
      "phan": 1311,
      "khả": 1312,
      "khánh": 1313,
      "nghiệm": 1314,
      "rael": 1315,
      "đào": 1316,
      "iêng": 1317,
      "israel": 1318,
      "75": 1319,
      "bậ": 1320,
      "bế": 1321,
      "bật": 1322,
      "dành": 1323,
      "gương": 1324,
      "kong": 1325,
      "nửa": 1326,
      "riêng": 1327,
      "vii": 1328,
      "xvi": 1329,
      "ze": 1330,
      "ép": 1331,
      "̣i": 1332,
      "ắk": 1333,
      "ngo": 1334,
      "ngọc": 1335,
      "thêm": 1336,
      "quán": 1337,
      "hài": 1338,
      "nguyện": 1339,
      "hoặc": 1340,
      "xix": 1341,
      "khuyết": 1342,
      "wef": 1343,
      "bậc": 1344,
      "37": 1345,
      "68": 1346,
      "bia": 1347,
      "bạn": 1348,
      "bel": 1349,
      "dù": 1350,
      "hay": 1351,
      "kiệm": 1352,
      "may": 1353,
      "mir": 1354,
      "sco": 1355,
      "tù": 1356,
      "đắp": 1357,
      "̀ng": 1358,
      "nhiên": 1359,
      "khách": 1360,
      "dimir": 1361,
      "ary": 1362,
      "arus": 1363,
      "paris": 1364,
      "papi": 1365,
      "ara": 1366,
      "cl": 1367,
      "it": 1368,
      "kel": 1369,
      "liệu": 1370,
      "mer": 1371,
      "nắm": 1372,
      "tv": 1373,
      "tiểu": 1374,
      "túc": 1375,
      "tượng": 1376,
      "vượng": 1377,
      "vla": 1378,
      "zo": 1379,
      "ênh": 1380,
      "đế": 1381,
      "ệt": 1382,
      "thập": 1383,
      "chốt": 1384,
      "2010": 1385,
      "tiết": 1386,
      "tiếng": 1387,
      "thuật": 1388,
      "khoản": 1389,
      "ttg": 1390,
      "qđns": 1391,
      "qđttg": 1392,
      "lipp": 1393,
      "philipp": 1394,
      "phía": 1395,
      "manuel": 1396,
      "mekong": 1397,
      "vladimir": 1398,
      "43": 1399,
      "63": 1400,
      "95": 1401,
      "bo": 1402,
      "cc": 1403,
      "dầu": 1404,
      "dậy": 1405,
      "lâm": 1406,
      "pci": 1407,
      "ron": 1408,
      "sứ": 1409,
      "sóc": 1410,
      "xa": 1411,
      "xe": 1412,
      "xúc": 1413,
      "xhc": 1414,
      "điển": 1415,
      "trái": 1416,
      "phấn": 1417,
      "khắc": 1418,
      "khủng": 1419,
      "cuốn": 1420,
      "tếxã": 1421,
      "hoảng": 1422,
      "thịnh": 1423,
      "joh": 1424,
      "xhcn": 1425,
      "48": 1426,
      "ak": 1427,
      "biện": 1428,
      "cước": 1429,
      "ep": 1430,
      "io": 1431,
      "lục": 1432,
      "ter": 1433,
      "tand": 1434,
      "xanh": 1435,
      "áthái": 1436,
      "ế": 1437,
      "óng": 1438,
      "đợ": 1439,
      "đọc": 1440,
      "chữ": 1441,
      "chỉnh": 1442,
      "tre": 1443,
      "phức": 1444,
      "2030": 1445,
      "ana": 1446,
      "vàng": 1447,
      "đoạt": 1448,
      "mac": 1449,
      "buôn": 1450,
      "merkel": 1451,
      "đợt": 1452,
      "35": 1453,
      "46": 1454,
      "47": 1455,
      "bra": 1456,
      "bến": 1457,
      "btv": 1458,
      "gìn": 1459,
      "hút": 1460,
      "ka": 1461,
      "kỹ": 1462,
      "kêu": 1463,
      "kia": 1464,
      "linh": 1465,
      "no": 1466,
      "pra": 1467,
      "tô": 1468,
      "ton": 1469,
      "vun": 1470,
      "̀n": 1471,
      "ạy": 1472,
      "ngôn": 1473,
      "thầu": 1474,
      "thăng": 1475,
      "chỗ": 1476,
      "chăm": 1477,
      "1950": 1478,
      "there": 1479,
      "thuốc": 1480,
      "asem": 1481,
      "tuấn": 1482,
      "inzo": 1483,
      "loạt": 1484,
      "và": 1485,
      "ines": 1486,
      "shinzo": 1487,
      "ngoặt": 1488,
      "belarus": 1489,
      "philippines": 1490,
      "macron": 1491,
      "theresa": 1492,
      "78": 1493,
      "des": 1494,
      "gu": 1495,
      "gen": 1496,
      "hầu": 1497,
      "il": 1498,
      "ind": 1499,
      "kịp": 1500,
      "mù": 1501,
      "mệnh": 1502,
      "nếu": 1503,
      "ran": 1504,
      "rút": 1505,
      "sớ": 1506,
      "tn": 1507,
      "tiện": 1508,
      "tải": 1509,
      "tiềm": 1510,
      "ãng": 1511,
      "đỗ": 1512,
      "chdc": 1513,
      "giặc": 1514,
      "giàu": 1515,
      "aly": 1516,
      "aland": 1517,
      "argen": 1518,
      "tina": 1519,
      "nson": 1520,
      "khuyến": 1521,
      "máy": 1522,
      "zealand": 1523,
      "johnson": 1524,
      "index": 1525,
      "sớm": 1526,
      "argentina": 1527,
      "39": 1528,
      "41": 1529,
      "67": 1530,
      "89": 1531,
      "ada": 1532,
      "bor": 1533,
      "bùi": 1534,
      "hung": 1535,
      "hiểm": 1536,
      "ipu": 1537,
      "ki": 1538,
      "kis": 1539,
      "lúc": 1540,
      "lừa": 1541,
      "nq": 1542,
      "oda": 1543,
      "sp": 1544,
      "sông": 1545,
      "sắp": 1546,
      "tảng": 1547,
      "tay": 1548,
      "vang": 1549,
      "vậy": 1550,
      "đắk": 1551,
      "̣n": 1552,
      "thử": 1553,
      "thuỷ": 1554,
      "thẳng": 1555,
      "chú": 1556,
      "trú": 1557,
      "giản": 1558,
      "hào": 1559,
      "cánh": 1560,
      "195": 1561,
      "tếthương": 1562,
      "đón": 1563,
      "thuỵ": 1564,
      "1971": 1565,
      "mùa": 1566,
      "hungary": 1567,
      "42": 1568,
      "binh": 1569,
      "cdc": 1570,
      "gcc": 1571,
      "hiểu": 1572,
      "hạt": 1573,
      "hãng": 1574,
      "iv": 1575,
      "ldp": 1576,
      "my": 1577,
      "mặc": 1578,
      "ni": 1579,
      "nai": 1580,
      "se": 1581,
      "sai": 1582,
      "tấm": 1583,
      "vật": 1584,
      "xoá": 1585,
      "ấ": 1586,
      "ãn": 1587,
      "́i": 1588,
      "̉a": 1589,
      "nha": 1590,
      "nhi": 1591,
      "thọ": 1592,
      "thôn": 1593,
      "trúng": 1594,
      "ani": 1595,
      "khát": 1596,
      "2011": 1597,
      "saudi": 1598,
      "canada": 1599,
      "tròn": 1600,
      "uae": 1601,
      "emmanuel": 1602,
      "1961": 1603,
      "1968": 1604,
      "arabia": 1605,
      "italy": 1606,
      "chữa": 1607,
      "desh": 1608,
      "chdcnd": 1609,
      "77": 1610,
      "86": 1611,
      "cột": 1612,
      "del": 1613,
      "fran": 1614,
      "ga": 1615,
      "gỡ": 1616,
      "g20": 1617,
      "kích": 1618,
      "mai": 1619,
      "mắc": 1620,
      "one": 1621,
      "oana": 1622,
      "sẵ": 1623,
      "sam": 1624,
      "sen": 1625,
      "tận": 1626,
      "tắt": 1627,
      "vua": 1628,
      "áu": 1629,
      "õi": 1630,
      "đan": 1631,
      "đài": 1632,
      "đắn": 1633,
      "̣t": 1634,
      "ngãi": 1635,
      "nhu": 1636,
      "thì": 1637,
      "thao": 1638,
      "thật": 1639,
      "thừa": 1640,
      "cha": 1641,
      "chắc": 1642,
      "chxhcn": 1643,
      "tro": 1644,
      "trắng": 1645,
      "khích": 1646,
      "khắp": 1647,
      "hàm": 1648,
      "1954": 1649,
      "của": 1650,
      "trịnh": 1651,
      "ali": 1652,
      "xviii": 1653,
      "1977": 1654,
      "bào": 1655,
      "hạnh": 1656,
      "huân": 1657,
      "moon": 1658,
      "1992": 1659,
      "muốn": 1660,
      "boris": 1661,
      "sẵn": 1662,
      "69": 1663,
      "72": 1664,
      "av": 1665,
      "bc": 1666,
      "bồ": 1667,
      "dữ": 1668,
      "dội": 1669,
      "dõi": 1670,
      "fum": 1671,
      "gan": 1672,
      "iz": 1673,
      "lư": 1674,
      "luy": 1675,
      "lạc": 1676,
      "mua": 1677,
      "nối": 1678,
      "nêu": 1679,
      "nằm": 1680,
      "rè": 1681,
      "sis": 1682,
      "slo": 1683,
      "tang": 1684,
      "tắc": 1685,
      "tồn": 1686,
      "tàu": 1687,
      "vươ": 1688,
      "viii": 1689,
      "xô": 1690,
      "xứng": 1691,
      "́ng": 1692,
      "ẫu": 1693,
      "ặn": 1694,
      "ngũ": 1695,
      "ngạch": 1696,
      "thiên": 1697,
      "thấp": 1698,
      "trạng": 1699,
      "phước": 1700,
      "khá": 1701,
      "khung": 1702,
      "angel": 1703,
      "mạch": 1704,
      "nei": 1705,
      "hđba": 1706,
      "hida": 1707,
      "1960": 1708,
      "vakia": 1709,
      "hưng": 1710,
      "jae": 1711,
      "kishida": 1712,
      "fumio": 1713,
      "luyện": 1714,
      "rèn": 1715,
      "slovakia": 1716,
      "vươn": 1717,
      "angela": 1718,
      "03": 1719,
      "120": 1720,
      "49": 1721,
      "53": 1722,
      "73": 1723,
      "ad": 1724,
      "bại": 1725,
      "bạch": 1726,
      "bru": 1727,
      "ck": 1728,
      "căng": 1729,
      "cấm": 1730,
      "ge": 1731,
      "liêm": 1732,
      "lạp": 1733,
      "mau": 1734,
      "nđ": 1735,
      "nar": 1736,
      "nặng": 1737,
      "ou": 1738,
      "rằng": 1739,
      "sạn": 1740,
      "sàng": 1741,
      "sôi": 1742,
      "son": 1743,
      "tầ": 1744,
      "tật": 1745,
      "thiệu": 1746,
      "chúc": 1747,
      "anmar": 1748,
      "ước": 1749,
      "nghìn": 1750,
      "phái": 1751,
      "cửa": 1752,
      "20172022": 1753,
      "hun": 1754,
      "toả": 1755,
      "1995": 1756,
      "buộc": 1757,
      "chí": 1758,
      "1989": 1759,
      "dưỡng": 1760,
      "spd": 1761,
      "myanmar": 1762,
      "brunei": 1763,
      "tầng": 1764,
      "06": 1765,
      "110": 1766,
      "56": 1767,
      "66": 1768,
      "85": 1769,
      "92": 1770,
      "bãi": 1771,
      "bạc": 1772,
      "ce": 1773,
      "cống": 1774,
      "csu": 1775,
      "cdu": 1776,
      "dịp": 1777,
      "fi": 1778,
      "fone": 1779,
      "gử": 1780,
      "hằng": 1781,
      "hiếm": 1782,
      "ji": 1783,
      "lượt": 1784,
      "mười": 1785,
      "mậu": 1786,
      "mẫu": 1787,
      "nét": 1788,
      "pe": 1789,
      "pal": 1790,
      "sy": 1791,
      "sin": 1792,
      "tả": 1793,
      "tôn": 1794,
      "ur": 1795,
      "ve": 1796,
      "àn": 1797,
      "èo": 1798,
      "ể": 1799,
      "́n": 1800,
      "̣ng": 1801,
      "ịu": 1802,
      "ngô": 1803,
      "ngang": 1804,
      "ngọn": 1805,
      "nhấn": 1806,
      "thong": 1807,
      "chánh": 1808,
      "khống": 1809,
      "khen": 1810,
      "ama": 1811,
      "1930": 1812,
      "trưng": 1813,
      "xin": 1814,
      "khoẻ": 1815,
      "hide": 1816,
      "ladesh": 1817,
      "bangladesh": 1818,
      "bifone": 1819,
      "loun": 1820,
      "mobifone": 1821,
      "lith": 1822,
      "bul": 1823,
      "chile": 1824,
      "sisou": 1825,
      "nđcp": 1826,
      "gửi": 1827,
      "thongloun": 1828,
      "sisoulith": 1829,
      "32": 1830,
      "800": 1831,
      "bày": 1832,
      "bạo": 1833,
      "bái": 1834,
      "ber": 1835,
      "bảy": 1836,
      "bởi": 1837,
      "cà": 1838,
      "cân": 1839,
      "cas": 1840,
      "cấu": 1841,
      "der": 1842,
      "et": 1843,
      "gp": 1844,
      "gar": 1845,
      "hẹp": 1846,
      "ky": 1847,
      "kênh": 1848,
      "ly": 1849,
      "lân": 1850,
      "láng": 1851,
      "lạng": 1852,
      "mong": 1853,
      "mắt": 1854,
      "niềm": 1855,
      "pf": 1856,
      "pen": 1857,
      "sẻ": 1858,
      "san": 1859,
      "tnh": 1860,
      "tặng": 1861,
      "ut": 1862,
      "ves": 1863,
      "wi": 1864,
      "zil": 1865,
      "ðảng": 1866,
      "úa": 1867,
      "đươ": 1868,
      "ới": 1869,
      "̀i": 1870,
      "ềng": 1871,
      "ngắn": 1872,
      "thí": 1873,
      "tháo": 1874,
      "tháp": 1875,
      "chịu": 1876,
      "trừ": 1877,
      "quận": 1878,
      "phe": 1879,
      "phổ": 1880,
      "phật": 1881,
      "phường": 1882,
      "phép": 1883,
      "ano": 1884,
      "giả": 1885,
      "giềng": 1886,
      "nghe": 1887,
      "nghi": 1888,
      "nghỉ": 1889,
      "nghiên": 1890,
      "bank": 1891,
      "trịngoại": 1892,
      "asos": 1893,
      "viê": 1894,
      "eland": 1895,
      "land": 1896,
      "đại": 1897,
      "suga": 1898,
      "hihide": 1899,
      "phút": 1900,
      "ireland": 1901,
      "liêu": 1902,
      "buổi": 1903,
      "miễn": 1904,
      "1946": 1905,
      "oshihide": 1906,
      "aza": 1907,
      "brazil": 1908,
      "pray": 1909,
      "franc": 1910,
      "bồi": 1911,
      "jaein": 1912,
      "fidel": 1913,
      "castro": 1914,
      "tnhh": 1915,
      "asosai": 1916,
      "05": 1917,
      "400": 1918,
      "76": 1919,
      "bama": 1920,
      "búa": 1921,
      "cờ": 1922,
      "dược": 1923,
      "ip": 1924,
      "kè": 1925,
      "kar": 1926,
      "kiếm": 1927,
      "lậu": 1928,
      "liền": 1929,
      "les": 1930,
      "nộ": 1931,
      "nạn": 1932,
      "nước": 1933,
      "obama": 1934,
      "rị": 1935,
      "rum": 1936,
      "sao": 1937,
      "sal": 1938,
      "sạch": 1939,
      "tỏ": 1940,
      "tốc": 1941,
      "vc": 1942,
      "vo": 1943,
      "vẻ": 1944,
      "xít": 1945,
      "yoshihide": 1946,
      "ề": 1947,
      "ốc": 1948,
      "đỡ": 1949,
      "đêm": 1950,
      "̀nh": 1951,
      "̉ng": 1952,
      "nhỏ": 1953,
      "tha": 1954,
      "chục": 1955,
      "chóng": 1956,
      "trù": 1957,
      "triệt": 1958,
      "que": 1959,
      "quốc": 1960,
      "phù": 1961,
      "phận": 1962,
      "khảo": 1963,
      "nghèo": 1964,
      "2027": 1965,
      "chủng": 1966,
      "oái": 1967,
      "102": 1968,
      "20202021": 1969,
      "din": 1970,
      "hoan": 1971,
      "dodo": 1972,
      "dogan": 1973,
      "tuyệt": 1974,
      "ashi": 1975,
      "mỹtriều": 1976,
      "các": 1977,
      "xuống": 1978,
      "tuý": 1979,
      "iể": 1980,
      "1976": 1981,
      "eria": 1982,
      "erdogan": 1983,
      "canel": 1984,
      "500": 1985,
      "tte": 1986,
      "sud": 1987,
      "cốt": 1988,
      "uss": 1989,
      "joko": 1990,
      "dav": 1991,
      "maha": 1992,
      "1996": 1993,
      "abdu": 1994,
      "dech": 1995,
      "hcm": 1996,
      "tncs": 1997,
      "nqcp": 1998,
      "ất": 1999,
      "samdech": 2000,
      "lưỡng": 2001,
      "bulgar": 2002,
      "widodo": 2003,
      "prayut": 2004,
      "francis": 2005,
      "kèm": 2006,
      "nộp": 2007,
      "rumani": 2008,
      "bulgaria": 2009,
      "01": 2010,
      "04": 2011,
      "354": 2012,
      "65": 2013,
      "82": 2014,
      "8h": 2015,
      "93": 2016,
      "bè": 2017,
      "bri": 2018,
      "bqh": 2019,
      "cẩm": 2020,
      "dặn": 2021,
      "ez": 2022,
      "fer": 2023,
      "guel": 2024,
      "geria": 2025,
      "hương": 2026,
      "hel": 2027,
      "kịch": 2028,
      "ken": 2029,
      "kiêm": 2030,
      "ll": 2031,
      "lùi": 2032,
      "lắk": 2033,
      "mv": 2034,
      "mãi": 2035,
      "nú": 2036,
      "nqu": 2037,
      "nồng": 2038,
      "pas": 2039,
      "ràng": 2040,
      "rạng": 2041,
      "suy": 2042,
      "tam": 2043,
      "vp": 2044,
      "vướng": 2045,
      "ye": 2046,
      "yo": 2047,
      "yor": 2048,
      "áâu": 2049,
      "ầ": 2050,
      "ền": 2051,
      "đẳng": 2052,
      "đích": 2053,
      "đốn": 2054,
      "đoán": 2055,
      "đậm": 2056,
      "đặng": 2057,
      "đbqh": 2058,
      "̀y": 2059,
      "ọt": 2060,
      "ngại": 2061,
      "ngăn": 2062,
      "nhạy": 2063,
      "thụ": 2064,
      "thác": 2065,
      "thiểu": 2066,
      "thiệt": 2067,
      "thắt": 2068,
      "thích": 2069,
      "thể": 2070,
      "char": 2071,
      "chano": 2072,
      "trà": 2073,
      "trầm": 2074,
      "ane": 2075,
      "khôi": 2076,
      "2012": 2077,
      "1917": 2078,
      "tim": 2079,
      "tine": 2080,
      "hoãn": 2081,
      "125": 2082,
      "126": 2083,
      "20222027": 2084,
      "đói": 2085,
      "thuế": 2086,
      "cop": 2087,
      "tốn": 2088,
      "aro": 2089,
      "tường": 2090,
      "eliz": 2091,
      "inton": 2092,
      "16h": 2093,
      "đồng": 2094,
      "appf": 2095,
      "hito": 2096,
      "latinh": 2097,
      "huế": 2098,
      "los": 2099,
      "estine": 2100,
      "moham": 2101,
      "cổng": 2102,
      "1993": 2103,
      "2007": 2104,
      "manet": 2105,
      "miguel": 2106,
      "abeth": 2107,
      "azcanel": 2108,
      "máu": 2109,
      "clmv": 2110,
      "clinton": 2111,
      "btvqh": 2112,
      "671": 2113,
      "avũng": 2114,
      "palestine": 2115,
      "vesak": 2116,
      "rịavũng": 2117,
      "sudan": 2118,
      "brics": 2119,
      "kenya": 2120,
      "núi": 2121,
      "nqubtvqh": 2122,
      "york": 2123,
      "chanocha": 2124,
      "elizabeth": 2125,
      "08": 2126,
      "33": 2127,
      "34": 2128,
      "52": 2129,
      "79": 2130,
      "at": 2131,
      "bá": 2132,
      "bé": 2133,
      "bay": 2134,
      "bwe": 2135,
      "cn": 2136,
      "cze": 2137,
      "dắt": 2138,
      "dri": 2139,
      "dạng": 2140,
      "ê": 2141,
      "end": 2142,
      "he": 2143,
      "hại": 2144,
      "hăng": 2145,
      "hiê": 2146,
      "hỏi": 2147,
      "kaza": 2148,
      "lz": 2149,
      "lá": 2150,
      "lề": 2151,
      "liều": 2152,
      "lận": 2153,
      "las": 2154,
      "loài": 2155,
      "liềm": 2156,
      "mác": 2157,
      "mtt": 2158,
      "mưu": 2159,
      "oce": 2160,
      "per": 2161,
      "rẽ": 2162,
      "sé": 2163,
      "stan": 2164,
      "sóng": 2165,
      "tú": 2166,
      "tức": 2167,
      "tụng": 2168,
      "tland": 2169,
      "ủ": 2170,
      "war": 2171,
      "xh": 2172,
      "xướng": 2173,
      "xxii": 2174,
      "za": 2175,
      "zam": 2176,
      "zim": 2177,
      "òi": 2178,
      "ói": 2179,
      "đem": 2180,
      "đòn": 2181,
      "́t": 2182,
      "ỳnh": 2183,
      "ngờ": 2184,
      "ngài": 2185,
      "ngừa": 2186,
      "nhớ": 2187,
      "thang": 2188,
      "chiế": 2189,
      "chấn": 2190,
      "trời": 2191,
      "trừng": 2192,
      "quần": 2193,
      "2000": 2194,
      "anbank": 2195,
      "khiến": 2196,
      "khép": 2197,
      "khstan": 2198,
      "namhoa": 2199,
      "2028": 2200,
      "aic": 2201,
      "rack": 2202,
      "khoán": 2203,
      "tiêm": 2204,
      "20232028": 2205,
      "20222026": 2206,
      "viễn": 2207,
      "nda": 2208,
      "xico": 2209,
      "vịnh": 2210,
      "babwe": 2211,
      "barack": 2212,
      "phòngan": 2213,
      "tuân": 2214,
      "ngày": 2215,
      "ina": 2216,
      "res": 2217,
      "1972": 2218,
      "132": 2219,
      "huyết": 2220,
      "170": 2221,
      "hill": 2222,
      "là": 2223,
      "bique": 2224,
      "1965": 2225,
      "mor": 2226,
      "modi": 2227,
      "mozam": 2228,
      "nóng": 2229,
      "1998": 2230,
      "mark": 2231,
      "marine": 2232,
      "2003": 2233,
      "2005": 2234,
      "2008": 2235,
      "1980": 2236,
      "1986": 2237,
      "1988": 2238,
      "mexico": 2239,
      "uela": 2240,
      "nato": 2241,
      "scotland": 2242,
      "bol": 2243,
      "terres": 2244,
      "ến": 2245,
      "guterres": 2246,
      "20112016": 2247,
      "bcđ": 2248,
      "narend": 2249,
      "chính": 2250,
      "được": 2251,
      "trùm": 2252,
      "davos": 2253,
      "czech": 2254,
      "kazakhstan": 2255,
      "mttq": 2256,
      "oceanbank": 2257,
      "zimbabwe": 2258,
      "chiếc": 2259,
      "mozambique": 2260,
      "narendra": 2261,
      "07": 2262,
      "219": 2263,
      "38": 2264,
      "58": 2265,
      "62": 2266,
      "64": 2267,
      "74": 2268,
      "700": 2269,
      "94": 2270,
      "ah": 2271,
      "bđ": 2272,
      "bề": 2273,
      "bức": 2274,
      "ben": 2275,
      "bút": 2276,
      "báu": 2277,
      "cch": 2278,
      "cpo": 2279,
      "dày": 2280,
      "dạy": 2281,
      "fre": 2282,
      "gm": 2283,
      "gấp": 2284,
      "gang": 2285,
      "gắng": 2286,
      "gọn": 2287,
      "gdp": 2288,
      "hấp": 2289,
      "hiển": 2290,
      "har": 2291,
      "hái": 2292,
      "him": 2293,
      "je": 2294,
      "jan": 2295,
      "jer": 2296,
      "jcpo": 2297,
      "ke": 2298,
      "kl": 2299,
      "ku": 2300,
      "kí": 2301,
      "kiệt": 2302,
      "kon": 2303,
      "lđ": 2304,
      "len": 2305,
      "lla": 2306,
      "lửa": 2307,
      "mông": 2308,
      "mật": 2309,
      "môn": 2310,
      "nô": 2311,
      "nang": 2312,
      "ol": 2313,
      "pt": 2314,
      "pan": 2315,
      "pvn": 2316,
      "ris": 2317,
      "rệt": 2318,
      "sk": 2319,
      "say": 2320,
      "súng": 2321,
      "sri": 2322,
      "sáu": 2323,
      "tg": 2324,
      "tỉ": 2325,
      "tách": 2326,
      "tĩnh": 2327,
      "túng": 2328,
      "tế": 2329,
      "tàn": 2330,
      "une": 2331,
      "uhito": 2332,
      "vay": 2333,
      "ven": 2334,
      "vóc": 2335,
      "vọt": 2336,
      "wa": 2337,
      "washi": 2338,
      "xgp": 2339,
      "yip": 2340,
      "zuela": 2341,
      "ão": 2342,
      "ễ": 2343,
      "ệ": 2344,
      "ố": 2345,
      "đe": 2346,
      "đt": 2347,
      "đống": 2348,
      "đòi": 2349,
      "ũi": 2350,
      "́p": 2351,
      "̉nh": 2352,
      "̣p": 2353,
      "ẹn": 2354,
      "ứa": 2355,
      "ngữ": 2356,
      "ngợi": 2357,
      "ngôi": 2358,
      "ngton": 2359,
      "nhì": 2360,
      "nhẹ": 2361,
      "nhắc": 2362,
      "nhảy": 2363,
      "thù": 2364,
      "thẻ": 2365,
      "thoái": 2366,
      "thpt": 2367,
      "chinh": 2368,
      "châm": 2369,
      "chạy": 2370,
      "chói": 2371,
      "tru": 2372,
      "trăng": 2373,
      "trôi": 2374,
      "trọn": 2375,
      "truss": 2376,
      "pha": 2377,
      "pho": 2378,
      "2050": 2379,
      "2045": 2380,
      "anis": 2381,
      "giác": 2382,
      "gián": 2383,
      "namlào": 2384,
      "nghề": 2385,
      "nghênh": 2386,
      "ral": 2387,
      "1911": 2388,
      "1955": 2389,
      "angri": 2390,
      "dựa": 2391,
      "luân": 2392,
      "cửu": 2393,
      "diazcanel": 2394,
      "hoài": 2395,
      "tỉnh": 2396,
      "112": 2397,
      "aye": 2398,
      "then": 2399,
      "viêm": 2400,
      "khiêm": 2401,
      "cap": 2402,
      "alem": 2403,
      "ard": 2404,
      "neva": 2405,
      "nezuela": 2406,
      "bốn": 2407,
      "150": 2408,
      "gói": 2409,
      "tum": 2410,
      "1820": 2411,
      "ttar": 2412,
      "ttxgp": 2413,
      "uma": 2414,
      "huỳnh": 2415,
      "bangko": 2416,
      "top": 2417,
      "tpp": 2418,
      "usalem": 2419,
      "sipas": 2420,
      "qđnd": 2421,
      "1967": 2422,
      "mad": 2423,
      "1999": 2424,
      "martin": 2425,
      "2002": 2426,
      "hội": 2427,
      "riza": 2428,
      "cptpp": 2429,
      "hàng": 2430,
      "1949": 2431,
      "jakar": 2432,
      "rutte": 2433,
      "shangri": 2434,
      "hamas": 2435,
      "scott": 2436,
      "arab": 2437,
      "brahim": 2438,
      "tayyip": 2439,
      "avg": 2440,
      "geneva": 2441,
      "naruhito": 2442,
      "syriza": 2443,
      "sinki": 2444,
      "venezuela": 2445,
      "helsinki": 2446,
      "charles": 2447,
      "bén": 2448,
      "hiện": 2449,
      "séc": 2450,
      "ủy": 2451,
      "hillary": 2452,
      "bđkh": 2453,
      "cchc": 2454,
      "jerusalem": 2455,
      "jcpoa": 2456,
      "unesco": 2457,
      "washington": 2458,
      "ễn": 2459,
      "bangkok": 2460,
      "jakarta": 2461,
      "shangrila": 2462,
      "02": 2463,
      "220": 2464,
      "348": 2465,
      "51": 2466,
      "57": 2467,
      "650": 2468,
      "88": 2469,
      "91": 2470,
      "98": 2471,
      "900": 2472,
      "ac": 2473,
      "af": 2474,
      "br": 2475,
      "bai": 2476,
      "băng": 2477,
      "bách": 2478,
      "bal": 2479,
      "bin": 2480,
      "cú": 2481,
      "cây": 2482,
      "cắt": 2483,
      "cãi": 2484,
      "cep": 2485,
      "c03": 2486,
      "dòng": 2487,
      "darus": 2488,
      "duma": 2489,
      "ff": 2490,
      "gì": 2491,
      "gốc": 2492,
      "gra": 2493,
      "gũi": 2494,
      "hal": 2495,
      "h30": 2496,
      "id": 2497,
      "ik": 2498,
      "ibrahim": 2499,
      "jr": 2500,
      "ks": 2501,
      "kề": 2502,
      "kạn": 2503,
      "kor": 2504,
      "lữ": 2505,
      "lin": 2506,
      "lọi": 2507,
      "lắp": 2508,
      "lạnh": 2509,
      "mất": 2510,
      "mel": 2511,
      "mừng": 2512,
      "mec": 2513,
      "mun": 2514,
      "móng": 2515,
      "nn": 2516,
      "nòng": 2517,
      "nôi": 2518,
      "nand": 2519,
      "nor": 2520,
      "op": 2521,
      "oanh": 2522,
      "pn": 2523,
      "qer": 2524,
      "qali": 2525,
      "rượ": 2526,
      "ria": 2527,
      "rin": 2528,
      "schu": 2529,
      "tc": 2530,
      "tệ": 2531,
      "tạc": 2532,
      "ugan": 2533,
      "uttar": 2534,
      "vu": 2535,
      "vác": 2536,
      "vắng": 2537,
      "với": 2538,
      "về": 2539,
      "vks": 2540,
      "who": 2541,
      "xứ": 2542,
      "xxi": 2543,
      "zan": 2544,
      "ần": 2545,
      "ận": 2546,
      "ðại": 2547,
      "ón": 2548,
      "đu": 2549,
      "đinh": 2550,
      "địch": 2551,
      "đập": 2552,
      "đôi": 2553,
      "đhđ": 2554,
      "đạp": 2555,
      "đề": 2556,
      "đến": 2557,
      "ức": 2558,
      "ưỡng": 2559,
      "́nh": 2560,
      "̣̂": 2561,
      "ềm": 2562,
      "ngời": 2563,
      "ngưỡng": 2564,
      "nhiệt": 2565,
      "nhịp": 2566,
      "thô": 2567,
      "thai": 2568,
      "thắn": 2569,
      "thắm": 2570,
      "thép": 2571,
      "thềm": 2572,
      "chao": 2573,
      "chel": 2574,
      "chào": 2575,
      "chênh": 2576,
      "chức": 2577,
      "trống": 2578,
      "trục": 2579,
      "trúc": 2580,
      "tránh": 2581,
      "quê": 2582,
      "quát": 2583,
      "phùng": 2584,
      "anwar": 2585,
      "gió": 2586,
      "giấy": 2587,
      "khiển": 2588,
      "khâu": 2589,
      "ame": 2590,
      "chín": 2591,
      "namcuba": 2592,
      "ralong": 2593,
      "1912": 2594,
      "1931": 2595,
      "luồng": 2596,
      "luxem": 2597,
      "trịan": 2598,
      "108": 2599,
      "diễn": 2600,
      "20212025": 2601,
      "20212030": 2602,
      "1113": 2603,
      "doạ": 2604,
      "129": 2605,
      "thuột": 2606,
      "thuẫn": 2607,
      "cos": 2608,
      "cois": 2609,
      "algeria": 2610,
      "lớp": 2611,
      "arma": 2612,
      "nes": 2613,
      "20182023": 2614,
      "ninhquốc": 2615,
      "els": 2616,
      "ella": 2617,
      "hoáxã": 2618,
      "baf": 2619,
      "baqer": 2620,
      "giáp": 2621,
      "thir": 2622,
      "300": 2623,
      "iến": 2624,
      "recep": 2625,
      "thịt": 2626,
      "1974": 2627,
      "1978": 2628,
      "lanka": 2629,
      "22h": 2630,
      "erbai": 2631,
      "1890": 2632,
      "oni": 2633,
      "tỷ": 2634,
      "puan": 2635,
      "đảng": 2636,
      "sul": 2637,
      "suất": 2638,
      "huấn": 2639,
      "chủ": 2640,
      "duyên": 2641,
      "use": 2642,
      "sil": 2643,
      "1962": 2644,
      "1964": 2645,
      "esper": 2646,
      "sos": 2647,
      "madu": 2648,
      "mahar": 2649,
      "1990": 2650,
      "liz": 2651,
      "bur": 2652,
      "vaji": 2653,
      "lệch": 2654,
      "marx": 2655,
      "marcos": 2656,
      "2006": 2657,
      "ghanis": 2658,
      "sáng": 2659,
      "dei": 2660,
      "dez": 2661,
      "roman": 2662,
      "rodri": 2663,
      "cpp": 2664,
      "aipa44": 2665,
      "hà": 2666,
      "1941": 2667,
      "csđt": 2668,
      "364": 2669,
      "yaw": 2670,
      "cử": 2671,
      "techo": 2672,
      "azerbai": 2673,
      "góp": 2674,
      "vốn": 2675,
      "clv": 2676,
      "bour": 2677,
      "ters": 2678,
      "pradesh": 2679,
      "vào": 2680,
      "1952": 2681,
      "1959": 2682,
      "francois": 2683,
      "derik": 2684,
      "nghị": 2685,
      "việt": 2686,
      "salam": 2687,
      "salman": 2688,
      "vcci": 2689,
      "mahathir": 2690,
      "abdulla": 2691,
      "francisco": 2692,
      "ầu": 2693,
      "cop28": 2694,
      "mohammad": 2695,
      "ể": 2696,
      "morris": 2697,
      "frederik": 2698,
      "acmec": 2699,
      "afghanis": 2700,
      "darussalam": 2701,
      "korn": 2702,
      "nandez": 2703,
      "qalibaf": 2704,
      "rượu": 2705,
      "schulz": 2706,
      "uganda": 2707,
      "vksnd": 2708,
      "ralongkorn": 2709,
      "luxembour": 2710,
      "maharani": 2711,
      "vajiralongkorn": 2712,
      "azerbaijan": 2713,
      "morrison": 2714,
      "acmecs": 2715,
      "afghanistan": 2716,
      "luxembourg": 2717,
      "225": 2718,
      "445": 2719,
      "470": 2720,
      "61": 2721,
      "600": 2722,
      "71": 2723,
      "87": 2724,
      "96": 2725,
      "912": 2726,
      "ag": 2727,
      "aj": 2728,
      "be": 2729,
      "bh": 2730,
      "bùng": 2731,
      "bon": 2732,
      "bus": 2733,
      "biể": 2734,
      "bão": 2735,
      "cd": 2736,
      "cù": 2737,
      "cũ": 2738,
      "cang": 2739,
      "câu": 2740,
      "cởi": 2741,
      "ctn": 2742,
      "clos": 2743,
      "dg": 2744,
      "dễ": 2745,
      "dị": 2746,
      "dời": 2747,
      "diệu": 2748,
      "dùng": 2749,
      "diệt": 2750,
      "dường": 2751,
      "dàng": 2752,
      "dừng": 2753,
      "dâng": 2754,
      "dốt": 2755,
      "dám": 2756,
      "fan": 2757,
      "fdi": 2758,
      "for": 2759,
      "gay": 2760,
      "gánh": 2761,
      "gòn": 2762,
      "gaza": 2763,
      "glas": 2764,
      "hẳ": 2765,
      "huỷ": 2766,
      "hiếu": 2767,
      "her": 2768,
      "ie": 2769,
      "ju": 2770,
      "jon": 2771,
      "jus": 2772,
      "kre": 2773,
      "kiềm": 2774,
      "kur": 2775,
      "ló": 2776,
      "lẫ": 2777,
      "lau": 2778,
      "lăng": 2779,
      "lạm": 2780,
      "lar": 2781,
      "lái": 2782,
      "lon": 2783,
      "lừng": 2784,
      "lma": 2785,
      "lỗi": 2786,
      "mãn": 2787,
      "mlin": 2788,
      "n1": 2789,
      "nấ": 2790,
      "nan": 2791,
      "nis": 2792,
      "oc": 2793,
      "oay": 2794,
      "odo": 2795,
      "pvc": 2796,
      "pvp": 2797,
      "qg": 2798,
      "ry": 2799,
      "rực": 2800,
      "rãi": 2801,
      "rón": 2802,
      "sch": 2803,
      "siết": 2804,
      "sài": 2805,
      "sánh": 2806,
      "ser": 2807,
      "sto": 2808,
      "ste": 2809,
      "sdg": 2810,
      "tề": 2811,
      "tờ": 2812,
      "tai": 2813,
      "tvi": 2814,
      "tôi": 2815,
      "tóm": 2816,
      "tva": 2817,
      "tali": 2818,
      "tầ": 2819,
      "uru": 2820,
      "uane": 2821,
      "uard": 2822,
      "uters": 2823,
      "ví": 2824,
      "vỡ": 2825,
      "vết": 2826,
      "vấp": 2827,
      "vẹn": 2828,
      "wer": 2829,
      "wab": 2830,
      "xương": 2831,
      "xay": 2832,
      "xoay": 2833,
      "ý": 2834,
      "yame": 2835,
      "ziz": 2836,
      "áy": 2837,
      "ật": 2838,
      "éo": 2839,
      "ôm": 2840,
      "ộc": 2841,
      "đá": 2842,
      "đă": 2843,
      "đỏ": 2844,
      "đồ": 2845,
      "ữ": 2846,
      "́m": 2847,
      "́o": 2848,
      "̉i": 2849,
      "̉n": 2850,
      "̣m": 2851,
      "̣nh": 2852,
      "ồi": 2853,
      "ớp": 2854,
      "ngai": 2855,
      "ngoái": 2856,
      "nhờ": 2857,
      "nhất": 2858,
      "thồ": 2859,
      "thươ": 2860,
      "thải": 2861,
      "thiệp": 2862,
      "thon": 2863,
      "thấm": 2864,
      "che": 2865,
      "chân": 2866,
      "chiếu": 2867,
      "chen": 2868,
      "chặng": 2869,
      "cháu": 2870,
      "chặn": 2871,
      "chứa": 2872,
      "cháy": 2873,
      "chớp": 2874,
      "trữ": 2875,
      "trăm": 2876,
      "trật": 2877,
      "trấn": 2878,
      "triết": 2879,
      "phai": 2880,
      "phra": 2881,
      "phụng": 2882,
      "phno": 2883,
      "pharma": 2884,
      "anu": 2885,
      "anca": 2886,
      "anton": 2887,
      "anthon": 2888,
      "giữ": 2889,
      "khúc": 2890,
      "khái": 2891,
      "khơi": 2892,
      "amm": 2893,
      "namtrung": 2894,
      "đãi": 2895,
      "ait": 2896,
      "quyền": 2897,
      "oáng": 2898,
      "banes": 2899,
      "cái": 2900,
      "cuộc": 2901,
      "lui": 2902,
      "104": 2903,
      "dilma": 2904,
      "tican": 2905,
      "111": 2906,
      "113": 2907,
      "dor": 2908,
      "douard": 2909,
      "20232025": 2910,
      "saud": 2911,
      "127": 2912,
      "128": 2913,
      "lãi": 2914,
      "thuý": 2915,
      "thủ": 2916,
      "visa": 2917,
      "cob": 2918,
      "car": 2919,
      "ala": 2920,
      "alex": 2921,
      "albanes": 2922,
      "20192024": 2923,
      "netan": 2924,
      "nexay": 2925,
      "khuất": 2926,
      "bả": 2927,
      "mạiđầu": 2928,
      "tunis": 2929,
      "truyền": 2930,
      "reuters": 2931,
      "149": 2932,
      "1417": 2933,
      "133": 2934,
      "229": 2935,
      "2225": 2936,
      "lênin": 2937,
      "định": 2938,
      "180": 2939,
      "184": 2940,
      "ubtv": 2941,
      "171": 2942,
      "hạch": 2943,
      "đã": 2944,
      "....": 2945,
      "laf": 2946,
      "lazo": 2947,
      "laziz": 2948,
      "270": 2949,
      "trị": 2950,
      "tosa": 2951,
      "đoa": 2952,
      "usse": 2953,
      "siêu": 2954,
      "siham": 2955,
      "siphan": 2956,
      "bias": 2957,
      "biể": 2958,
      "jom": 2959,
      "jomar": 2960,
      "qđtw": 2961,
      "lou": 2962,
      "unclos": 2963,
      "duter": 2964,
      "est": 2965,
      "este": 2966,
      "moha": 2967,
      "mosk": 2968,
      "moral": 2969,
      "som": 2970,
      "sonexay": 2971,
      "litva": 2972,
      "ander": 2973,
      "vatican": 2974,
      "maroc": 2975,
      "2009": 2976,
      "rinda": 2977,
      "padei": 2978,
      "1982": 2979,
      "nsnn": 2980,
      "lhpn": 2981,
      "deau": 2982,
      "rousse": 2983,
      "kém": 2984,
      "mette": 2985,
      "leo": 2986,
      "ley": 2987,
      "michel": 2988,
      "19451954": 2989,
      "aipa43": 2990,
      "999": 2991,
      "hành": 2992,
      "nara": 2993,
      "1943": 2994,
      "1948": 2995,
      "tanzan": 2996,
      "inea": 2997,
      "ruz": 2998,
      "yahu": 2999,
      "expo": 3000,
      "gow": 3001,
      "751": 3002,
      "ngoa": 3003,
      "20102015": 3004,
      "philippe": 3005,
      "487": 3006,
      "ết": 3007,
      "tổng": 3008,
      "guay": 3009,
      "guinea": 3010,
      "19711975": 3011,
      "nico": 3012,
      "nigeria": 3013,
      "sẽ": 3014,
      "ấp": 3015,
      "nhiuane": 3016,
      "delhi": 3017,
      "sentosa": 3018,
      "nhuần": 3019,
      "19541975": 3020,
      "19601976": 3021,
      "ady": 3022,
      "sonaro": 3023,
      "penh": 3024,
      "syria": 3025,
      "kỳ": 3026,
      "đường": 3027,
      "ipsos": 3028,
      "volo": 3029,
      "iểm": 3030,
      "ussels": 3031,
      "abdulaziz": 3032,
      "yoon": 3033,
      "huếđà": 3034,
      "mohamad": 3035,
      "cntt": 3036,
      "máclênin": 3037,
      "20052010": 3038,
      "bolsonaro": 3039,
      "gms": 3040,
      "jean": 3041,
      "klaus": 3042,
      "kính": 3043,
      "nội": 3044,
      "panmun": 3045,
      "tgđ": 3046,
      "trudeau": 3047,
      "ayeyaw": 3048,
      "capella": 3049,
      "brussels": 3050,
      "balmoral": 3051,
      "cúm": 3052,
      "norodo": 3053,
      "thống": 3054,
      "sultan": 3055,
      "esperanca": 3056,
      "maduro": 3057,
      "burg": 3058,
      "rodrigo": 3059,
      "abdullah": 3060,
      "frederiksen": 3061,
      "glasgow": 3062,
      "hẳn": 3063,
      "hernandez": 3064,
      "justin": 3065,
      "kremlin": 3066,
      "lẫy": 3067,
      "laurinda": 3068,
      "nấc": 3069,
      "schwab": 3070,
      "tầm": 3071,
      "uruguay": 3072,
      "phnom": 3073,
      "antonio": 3074,
      "anthony": 3075,
      "alexander": 3076,
      "albanese": 3077,
      "netanyahu": 3078,
      "tunisia": 3079,
      "ubtvqh": 3080,
      "sihamoni": 3081,
      "biểu": 3082,
      "duterte": 3083,
      "esteban": 3084,
      "moskva": 3085,
      "rousseff": 3086,
      "tanzania": 3087,
      "panmunjom": 3088,
      "ayeyawady": 3089,
      "norodom": 3090,
      "130": 3091,
      "214": 3092,
      "213": 3093,
      "2129": 3094,
      "312": 3095,
      "317": 3096,
      "350": 3097,
      "326": 3098,
      "370": 3099,
      "360": 3100,
      "420": 3101,
      "410": 3102,
      "450": 3103,
      "499": 3104,
      "468": 3105,
      "578": 3106,
      "593": 3107,
      "5n1": 3108,
      "81": 3109,
      "83": 3110,
      "810": 3111,
      "860": 3112,
      "880": 3113,
      "875": 3114,
      "868": 3115,
      "8445": 3116,
      "97": 3117,
      "9h": 3118,
      "919": 3119,
      "911": 3120,
      "947": 3121,
      "985": 3122,
      "á": 3123,
      "aqu": 3124,
      "aec": 3125,
      "ako": 3126,
      "bb": 3127,
      "bj": 3128,
      "bm": 3129,
      "bn": 3130,
      "bnd": 3131,
      "bắn": 3132,
      "bám": 3133,
      "bali": 3134,
      "bashi": 3135,
      "bầu": 3136,
      "cq": 3137,
      "ct": 3138,
      "cô": 3139,
      "cừ": 3140,
      "cong": 3141,
      "cốc": 3142,
      "cành": 3143,
      "cảng": 3144,
      "ctt": 3145,
      "cto": 3146,
      "cro": 3147,
      "cruz": 3148,
      "cấp": 3149,
      "dy": 3150,
      "dí": 3151,
      "dụ": 3152,
      "diên": 3153,
      "dây": 3154,
      "dấn": 3155,
      "dâm": 3156,
      "dub": 3157,
      "dda": 3158,
      "dro": 3159,
      "dép": 3160,
      "dệt": 3161,
      "ea": 3162,
      "ey": 3163,
      "etin": 3164,
      "ethi": 3165,
      "edouard": 3166,
      "fl": 3167,
      "fit": 3168,
      "fil": 3169,
      "fgang": 3170,
      "fven": 3171,
      "gr": 3172,
      "gai": 3173,
      "gạo": 3174,
      "glu": 3175,
      "gách": 3176,
      "gặt": 3177,
      "hr": 3178,
      "hâ": 3179,
      "hủ": 3180,
      "hổi": 3181,
      "has": 3182,
      "hứng": 3183,
      "hvi": 3184,
      "hôn": 3185,
      "hin": 3186,
      "hát": 3187,
      "hòn": 3188,
      "hane": 3189,
      "hệ": 3190,
      "hẹn": 3191,
      "hứa": 3192,
      "hcap": 3193,
      "ic": 3194,
      "ita": 3195,
      "ihito": 3196,
      "jam": 3197,
      "jai": 3198,
      "jin": 3199,
      "jun": 3200,
      "kt": 3201,
      "kì": 3202,
      "kas": 3203,
      "kal": 3204,
      "kem": 3205,
      "kto": 3206,
      "kit": 3207,
      "kki": 3208,
      "kaye": 3209,
      "knes": 3210,
      "lb": 3211,
      "ld": 3212,
      "lí": 3213,
      "lô": 3214,
      "lẻ": 3215,
      "lật": 3216,
      "ldo": 3217,
      "lường": 3218,
      "llan": 3219,
      "lis": 3220,
      "lni": 3221,
      "lọt": 3222,
      "laro": 3223,
      "mc": 3224,
      "mp": 3225,
      "mã": 3226,
      "mú": 3227,
      "mơ": 3228,
      "mỏ": 3229,
      "mực": 3230,
      "mâu": 3231,
      "mvi": 3232,
      "mẫn": 3233,
      "min": 3234,
      "men": 3235,
      "mis": 3236,
      "mon": 3237,
      "mpu": 3238,
      "mỏi": 3239,
      "mùi": 3240,
      "mệt": 3241,
      "mới": 3242,
      "mnang": 3243,
      "muse": 3244,
      "mjomar": 3245,
      "nu": 3246,
      "nổ": 3247,
      "nương": 3248,
      "non": 3249,
      "nốt": 3250,
      "oa": 3251,
      "odi": 3252,
      "oas": 3253,
      "oman": 3254,
      "osa": 3255,
      "omi": 3256,
      "obra": 3257,
      "oil": 3258,
      "oly": 3259,
      "olaf": 3260,
      "p5": 3261,
      "pgi": 3262,
      "pau": 3263,
      "pca": 3264,
      "pctn": 3265,
      "qat": 3266,
      "rà": 3267,
      "rơ": 3268,
      "rủ": 3269,
      "ram": 3270,
      "rồng": 3271,
      "rập": 3272,
      "ráo": 3273,
      "riết": 3274,
      "rim": 3275,
      "rừng": 3276,
      "rus": 3277,
      "rơi": 3278,
      "rama": 3279,
      "st": 3280,
      "sổ": 3281,
      "sụ": 3282,
      "sti": 3283,
      "scho": 3284,
      "sre": 3285,
      "sắt": 3286,
      "scon": 3287,
      "sab": 3288,
      "sabe": 3289,
      "sha": 3290,
      "sít": 3291,
      "sàn": 3292,
      "số": 3293,
      "tb": 3294,
      "tạ": 3295,
      "tị": 3296,
      "tươ": 3297,
      "tiệp": 3298,
      "tùng": 3299,
      "ten": 3300,
      "tta": 3301,
      "toát": 3302,
      "tka": 3303,
      "taly": 3304,
      "tgp": 3305,
      "ttha": 3306,
      "test": 3307,
      "up": 3308,
      "uz": 3309,
      "uế": 3310,
      "uhu": 3311,
      "ulou": 3312,
      "vd": 3313,
      "vư": 3314,
      "van": 3315,
      "vân": 3316,
      "vong": 3317,
      "vời": 3318,
      "vắc": 3319,
      "vũng": 3320,
      "vya": 3321,
      "vấ": 3322,
      "vchen": 3323,
      "vvd": 3324,
      "wcs": 3325,
      "wol": 3326,
      "wait": 3327,
      "xỉ": 3328,
      "xấp": 3329,
      "xăng": 3330,
      "xas": 3331,
      "yas": 3332,
      "zman": 3333,
      "zak": 3334,
      "ập": 3335,
      "đổ": 3336,
      "đản": 3337,
      "đáo": 3338,
      "đcs": 3339,
      "đặn": 3340,
      "đất": 3341,
      "đầu": 3342,
      "điểm": 3343,
      "ở": 3344,
      "̀u": 3345,
      "́a": 3346,
      "̃ng": 3347,
      "̉m": 3348,
      "̛̣": 3349,
      "̛́c": 3350,
      "̛̣c": 3351,
      "̣o": 3352,
      "̣u": 3353,
      "ễm": 3354,
      "ễu": 3355,
      "ỏng": 3356,
      "ộn": 3357,
      "ờn": 3358,
      "ngõ": 3359,
      "ngao": 3360,
      "ngược": 3361,
      "ngạc": 3362,
      "ngẫu": 3363,
      "ngàn": 3364,
      "nhạt": 3365,
      "nhiê": 3366,
      "nhãn": 3367,
      "nhôm": 3368,
      "thự": 3369,
      "than": 3370,
      "thuy": 3371,
      "thâu": 3372,
      "thánh": 3373,
      "thắp": 3374,
      "thậm": 3375,
      "thế": 3376,
      "thoáng": 3377,
      "chăn": 3378,
      "chùng": 3379,
      "ches": 3380,
      "chèo": 3381,
      "chiến": 3382,
      "chlb": 3383,
      "trươ": 3384,
      "triể": 3385,
      "quỹ": 3386,
      "quanh": 3387,
      "quật": 3388,
      "quvết": 3389,
      "pheu": 3390,
      "phone": 3391,
      "207": 3392,
      "ant": 3393,
      "antan": 3394,
      "gio": 3395,
      "giết": 3396,
      "giống": 3397,
      "giáng": 3398,
      "giỏi": 3399,
      "gins": 3400,
      "giới": 3401,
      "giuse": 3402,
      "gisti": 3403,
      "kha": 3404,
      "khang": 3405,
      "khéo": 3406,
      "namnhật": 3407,
      "namthái": 3408,
      "namhàn": 3409,
      "nghệ": 3410,
      "làng": 3411,
      "chínhngân": 3412,
      "aid": 3413,
      "aipo": 3414,
      "quyết": 3415,
      "thứ": 3416,
      "razak": 3417,
      "19h": 3418,
      "1920": 3419,
      "1925": 3420,
      "1922": 3421,
      "1918": 3422,
      "1929": 3423,
      "1940": 3424,
      "1901": 3425,
      "19h30": 3426,
      "luận": 3427,
      "lumpu": 3428,
      "luscon": 3429,
      "aude": 3430,
      "101": 3431,
      "103": 3432,
      "105": 3433,
      "107": 3434,
      "1012": 3435,
      "diễu": 3436,
      "tisco": 3437,
      "timor": 3438,
      "114": 3439,
      "115": 3440,
      "118": 3441,
      "11h": 3442,
      "1185": 3443,
      "quay": 3444,
      "nhàng": 3445,
      "aya": 3446,
      "hoạ": 3447,
      "hoành": 3448,
      "hộ": 3449,
      "hollan": 3450,
      "121": 3451,
      "124": 3452,
      "1217": 3453,
      "tiếc": 3454,
      "20222023": 3455,
      "vio": 3456,
      "vich": 3457,
      "vind": 3458,
      "vier": 3459,
      "visin": 3460,
      "victo": 3461,
      "vietin": 3462,
      "vikto": 3463,
      "vilni": 3464,
      "viup": 3465,
      "có": 3466,
      "cả": 3467,
      "alth": 3468,
      "alsis": 3469,
      "ari": 3470,
      "art": 3471,
      "arte": 3472,
      "tự": 3473,
      "nen": 3474,
      "neo": 3475,
      "nepal": 3476,
      "20182021": 3477,
      "asean3": 3478,
      "khubnd": 3479,
      "chuyể": 3480,
      "bác": 3481,
      "những": 3482,
      "154": 3483,
      "158": 3484,
      "1519": 3485,
      "góc": 3486,
      "tuỳ": 3487,
      "tusk": 3488,
      "thiênh": 3489,
      "20162020": 3490,
      "305": 3491,
      "rero": 3492,
      "250": 3493,
      "252": 3494,
      "ens": 3495,
      "1979": 3496,
      "140": 3497,
      "144": 3498,
      "1469": 3499,
      "ismai": 3500,
      "131": 3501,
      "134": 3502,
      "135": 3503,
      "136": 3504,
      "1315": 3505,
      "222": 3506,
      "tại": 3507,
      "185": 3508,
      "189": 3509,
      "hđbc": 3510,
      "288": 3511,
      "234": 3512,
      "2326": 3513,
      "huyền": 3514,
      "163": 3515,
      "168": 3516,
      "175": 3517,
      "177": 3518,
      "17h": 3519,
      "ima": 3520,
      "imah": 3521,
      "imantan": 3522,
      "pua": 3523,
      "ttb": 3524,
      "đài": 3525,
      "đánh": 3526,
      "độc": 3527,
      "động": 3528,
      "emmer": 3529,
      "454": 3530,
      "456": 3531,
      "458": 3532,
      "suk": 3533,
      "suu": 3534,
      "hình": 3535,
      "lav": 3536,
      "latvi": 3537,
      "244": 3538,
      "hus": 3539,
      "chuộng": 3540,
      "tou": 3541,
      "toky": 3542,
      "tokaye": 3543,
      "đó": 3544,
      "conte": 3545,
      "duyệt": 3546,
      "hộp": 3547,
      "usaid": 3548,
      "265": 3549,
      "297": 3550,
      "bí": 3551,
      "lofven": 3552,
      "lovchen": 3553,
      "logisti": 3554,
      "lộn": 3555,
      "unnh": 3556,
      "poe": 3557,
      "pole": 3558,
      "poulou": 3559,
      "david": 3560,
      "1963": 3561,
      "1969": 3562,
      "19678": 3563,
      "duarte": 3564,
      "moldo": 3565,
      "đuakhen": 3566,
      "soi": 3567,
      "sobo": 3568,
      "1997": 3569,
      "19922": 3570,
      "licd": 3571,
      "buồn": 3572,
      "raisi": 3573,
      "campuchialào": 3574,
      "marin": 3575,
      "marrero": 3576,
      "dụcthể": 3577,
      "dụcđào": 3578,
      "2001": 3579,
      "hồ": 3580,
      "hồi": 3581,
      "riya": 3582,
      "phủ": 3583,
      "phục": 3584,
      "19732022": 3585,
      "197322": 3586,
      "mani": 3587,
      "orban": 3588,
      "orge": 3589,
      "pache": 3590,
      "papua": 3591,
      "thotou": 3592,
      "1981": 3593,
      "1983": 3594,
      "1985": 3595,
      "1987": 3596,
      "park": 3597,
      "547": 3598,
      "sakel": 3599,
      "sản": 3600,
      "lainen": 3601,
      "rou": 3602,
      "roxas": 3603,
      "rovich": 3604,
      "metro": 3605,
      "micha": 3606,
      "hyid": 3607,
      "một": 3608,
      "20132023": 3609,
      "20132018": 3610,
      "991": 3611,
      "995": 3612,
      "9943": 3613,
      "haji": 3614,
      "hadda": 3615,
      "cio": 3616,
      "city": 3617,
      "nath": 3618,
      "naji": 3619,
      "1947": 3620,
      "363": 3621,
      "365": 3622,
      "java": 3623,
      "ppe": 3624,
      "ppp": 3625,
      "yacob": 3626,
      "yaako": 3627,
      "yathotou": 3628,
      "kovind": 3629,
      "golovchen": 3630,
      "muham": 3631,
      "muhyid": 3632,
      "sự": 3633,
      "israelhamas": 3634,
      "752": 3635,
      "372": 3636,
      "688": 3637,
      "bellen": 3638,
      "claude": 3639,
      "mekonglan": 3640,
      "958": 3641,
      "9514": 3642,
      "boli": 3643,
      "john": 3644,
      "akp": 3645,
      "akka": 3646,
      "akihito": 3647,
      "terina": 3648,
      "treo": 3649,
      "472": 3650,
      "4768": 3651,
      "kagu": 3652,
      "kabul": 3653,
      "katerina": 3654,
      "kiah": 3655,
      "noi": 3656,
      "nobel": 3657,
      "nói": 3658,
      "tổ": 3659,
      "19502020": 3660,
      "guzman": 3661,
      "tntp": 3662,
      "398": 3663,
      "borneo": 3664,
      "ipu132": 3665,
      "kilicd": 3666,
      "kistan": 3667,
      "1951": 3668,
      "1953": 3669,
      "19712023": 3670,
      "nikki": 3671,
      "set": 3672,
      "nhìn": 3673,
      "nhiễm": 3674,
      "gahr": 3675,
      "samrin": 3676,
      "samaj": 3677,
      "sena": 3678,
      "19542019": 3679,
      "19772022": 3680,
      "lưng": 3681,
      "cker": 3682,
      "george": 3683,
      "pez": 3684,
      "pedro": 3685,
      "symjomar": 3686,
      "vehvi": 3687,
      "bermú": 3688,
      "berluscon": 3689,
      "kyi": 3690,
      "sanal": 3691,
      "viêng": 3692,
      "việc": 3693,
      "leste": 3694,
      "thành": 3695,
      "thavisin": 3696,
      "dinand": 3697,
      "davao": 3698,
      "19962021": 3699,
      "19962016": 3700,
      "8h30": 3701,
      "fernan": 3702,
      "ferdinand": 3703,
      "tami": 3704,
      "vpcq": 3705,
      "yeong": 3706,
      "yeol": 3707,
      "yower": 3708,
      "times": 3709,
      "cop26": 3710,
      "aroglu": 3711,
      "appf29": 3712,
      "kenyatta": 3713,
      "5214": 3714,
      "atf": 3715,
      "cnxh": 3716,
      "heng": 3717,
      "health": 3718,
      "lás": 3719,
      "peru": 3720,
      "19862021": 3721,
      "bolkiah": 3722,
      "benjam": 3723,
      "gmt": 3724,
      "kuala": 3725,
      "kuwait": 3726,
      "kín": 3727,
      "lđlđ": 3728,
      "lenin": 3729,
      "pany": 3730,
      "saysom": 3731,
      "veni": 3732,
      "phòng": 3733,
      "phomvi": 3734,
      "20022007": 3735,
      "graham": 3736,
      "grace": 3737,
      "haley": 3738,
      "halimah": 3739,
      "opia": 3740,
      "vui": 3741,
      "vụ": 3742,
      "đuổi": 3743,
      "silva": 3744,
      "silvio": 3745,
      "marxlenin": 3746,
      "romania": 3747,
      "8716": 3748,
      "agwa": 3749,
      "bhxh": 3750,
      "bush": 3751,
      "biểu": 3752,
      "iebc": 3753,
      "juan": 3754,
      "jonas": 3755,
      "kurd": 3756,
      "lópez": 3757,
      "london": 3758,
      "serbia": 3759,
      "store": 3760,
      "stefan": 3761,
      "taliban": 3762,
      "yamekong": 3763,
      "đặc": 3764,
      "thường": 3765,
      "phrayamekong": 3766,
      "bảo": 3767,
      "siphandone": 3768,
      "ngoại": 3769,
      "nicolas": 3770,
      "volodin": 3771,
      "jeanclaude": 3772,
      "ayeyawadychao": 3773,
      "aquin": 3774,
      "bjp": 3775,
      "bms": 3776,
      "bashir": 3777,
      "congo": 3778,
      "ctttg": 3779,
      "díazcanel": 3780,
      "dubai": 3781,
      "ethiopia": 3782,
      "flc": 3783,
      "grdp": 3784,
      "hậu": 3785,
      "hassanal": 3786,
      "hcapita": 3787,
      "jair": 3788,
      "juncker": 3789,
      "ktxh": 3790,
      "kassymjomar": 3791,
      "kalimantan": 3792,
      "kemal": 3793,
      "knesset": 3794,
      "lính": 3795,
      "lisbon": 3796,
      "laropoulou": 3797,
      "mpic": 3798,
      "mnangagwa": 3799,
      "museveni": 3800,
      "nuôi": 3801,
      "odinga": 3802,
      "osaka": 3803,
      "obrador": 3804,
      "olympic": 3805,
      "paul": 3806,
      "pctntc": 3807,
      "qatar": 3808,
      "start": 3809,
      "scholz": 3810,
      "srettha": 3811,
      "sabri": 3812,
      "sabeco": 3813,
      "shah": 3814,
      "tgpt": 3815,
      "uhuru": 3816,
      "vườn": 3817,
      "vyaches": 3818,
      "vấn": 3819,
      "wcsp5": 3820,
      "wolfgang": 3821,
      "yassin": 3822,
      "nhiệm": 3823,
      "thuyền": 3824,
      "triển": 3825,
      "giuseppe": 3826,
      "lumpur": 3827,
      "hội": 3828,
      "hollande": 3829,
      "vietinbank": 3830,
      "vilnius": 3831,
      "alsisi": 3832,
      "chuyển": 3833,
      "thiênhuế": 3834,
      "ismail": 3835,
      "hđbcqg": 3836,
      "emmerson": 3837,
      "latvia": 3838,
      "tokyo": 3839,
      "tokayev": 3840,
      "moldova": 3841,
      "sobotka": 3842,
      "pacheco": 3843,
      "sakellaropoulou": 3844,
      "metropole": 3845,
      "michael": 3846,
      "haddad": 3847,
      "najib": 3848,
      "yaakob": 3849,
      "golovchenko": 3850,
      "muhyiddin": 3851,
      "kaguta": 3852,
      "kilicdaroglu": 3853,
      "vehvilainen": 3854,
      "bermúdez": 3855,
      "berlusconi": 3856,
      "fernando": 3857,
      "vpcqcsđt": 3858,
      "yoweri": 3859,
      "benjamin": 3860,
      "saysomphone": 3861,
      "phomvihane": 3862,
      "kassymjomart": 3863,
      "vyacheslav": 3864,
      "09": 3865,
      "011": 3866,
      "013": 3867,
      "022": 3868,
      "021": 3869,
      "037": 3870,
      "068": 3871,
      "035": 3872,
      "078": 3873,
      "089": 3874,
      "092": 3875,
      "076": 3876,
      "091": 3877,
      "1h": 3878,
      "119": 3879,
      "12017": 3880,
      "1200": 3881,
      "11946": 3882,
      "12008": 3883,
      "211": 3884,
      "230": 3885,
      "218": 3886,
      "216": 3887,
      "3c": 3888,
      "3h": 3889,
      "319": 3890,
      "345": 3891,
      "324": 3892,
      "327": 3893,
      "31975": 3894,
      "355": 3895,
      "337": 3896,
      "339": 3897,
      "382": 3898,
      "4g": 3899,
      "411": 3900,
      "425": 3901,
      "414": 3902,
      "417": 3903,
      "424": 3904,
      "41975": 3905,
      "436": 3906,
      "437": 3907,
      "41971": 3908,
      "41976": 3909,
      "5a": 3910,
      "5g": 3911,
      "5s": 3912,
      "519": 3913,
      "510": 3914,
      "511": 3915,
      "52019": 3916,
      "52016": 3917,
      "525": 3918,
      "513": 3919,
      "521": 3920,
      "545": 3921,
      "599": 3922,
      "537": 3923,
      "568": 3924,
      "595": 3925,
      "567": 3926,
      "589": 3927,
      "52011": 3928,
      "577": 3929,
      "586": 3930,
      "51960": 3931,
      "592": 3932,
      "576": 3933,
      "582": 3934,
      "594": 3935,
      "5363": 3936,
      "6h": 3937,
      "6đ": 3938,
      "620": 3939,
      "630": 3940,
      "625": 3941,
      "613": 3942,
      "623": 3943,
      "617": 3944,
      "631": 3945,
      "670": 3946,
      "640": 3947,
      "699": 3948,
      "655": 3949,
      "648": 3950,
      "61971": 3951,
      "656": 3952,
      "61964": 3953,
      "720": 3954,
      "72016": 3955,
      "730": 3956,
      "725": 3957,
      "750": 3958,
      "721": 3959,
      "729": 3960,
      "740": 3961,
      "799": 3962,
      "744": 3963,
      "795": 3964,
      "811": 3965,
      "82019": 3966,
      "830": 3967,
      "813": 3968,
      "818": 3969,
      "82015": 3970,
      "816": 3971,
      "821": 3972,
      "854": 3973,
      "899": 3974,
      "855": 3975,
      "848": 3976,
      "839": 3977,
      "842": 3978,
      "8372": 3979,
      "8958": 3980,
      "910": 3981,
      "925": 3982,
      "914": 3983,
      "918": 3984,
      "917": 3985,
      "945": 3986,
      "929": 3987,
      "944": 3988,
      "968": 3989,
      "941": 3990,
      "967": 3991,
      "91977": 3992,
      "972": 3993,
      "949": 3994,
      "971": 3995,
      "9104": 3996,
      "9398": 3997,
      "agi": 3998,
      "aung": 3999,
      "avi": 4000,
      "ata": 4001,
      "apu": 4002,
      "ađa": 4003,
      "atri": 4004,
      "ađơn": 4005,
      "ago": 4006,
      "àn": 4007,
      "án": 4008,
      "athan": 4009,
      "b5": 4010,
      "bf": 4011,
      "by": 4012,
      "bê": 4013,
      "bô": 4014,
      "bờ": 4015,
      "bội": 4016,
      "blu": 4017,
      "bas": 4018,
      "bar": 4019,
      "bàng": 4020,
      "bụng": 4021,
      "bis": 4022,
      "bem": 4023,
      "bhu": 4024,
      "bấy": 4025,
      "bec": 4026,
      "bưu": 4027,
      "bes": 4028,
      "bọc": 4029,
      "bcs": 4030,
      "bos": 4031,
      "bứt": 4032,
      "bsp": 4033,
      "bước": 4034,
      "bố": 4035,
      "biến": 4036,
      "bunnh": 4037,
      "byeong": 4038,
      "cy": 4039,
      "cọ": 4040,
      "cồ": 4041,
      "cộ": 4042,
      "cản": 4043,
      "cấn": 4044,
      "cứng": 4045,
      "cúng": 4046,
      "cec": 4047,
      "cồn": 4048,
      "cci": 4049,
      "cki": 4050,
      "cố": 4051,
      "crim": 4052,
      "dd": 4053,
      "dh": 4054,
      "dl": 4055,
      "dm": 4056,
      "dã": 4057,
      "dỡ": 4058,
      "diệ": 4059,
      "dốc": 4060,
      "dối": 4061,
      "dai": 4062,
      "dao": 4063,
      "diều": 4064,
      "dlu": 4065,
      "dải": 4066,
      "dho": 4067,
      "dar": 4068,
      "dẹp": 4069,
      "dhu": 4070,
      "dấy": 4071,
      "dẳng": 4072,
      "dọc": 4073,
      "dấ": 4074,
      "dve": 4075,
      "dịu": 4076,
      "dvc": 4077,
      "ddin": 4078,
      "dói": 4079,
      "dồi": 4080,
      "ed": 4081,
      "eg": 4082,
      "ei": 4083,
      "eng": 4084,
      "eas": 4085,
      "evi": 4086,
      "exi": 4087,
      "econ": 4088,
      "eec": 4089,
      "evo": 4090,
      "edri": 4091,
      "eke": 4092,
      "eol": 4093,
      "ebrahim": 4094,
      "ệ": 4095,
      "evisa": 4096,
      "f0": 4097,
      "flu": 4098,
      "fas": 4099,
      "fia": 4100,
      "far": 4101,
      "fel": 4102,
      "fta": 4103,
      "fpo": 4104,
      "fri": 4105,
      "fdp": 4106,
      "faz": 4107,
      "fcc": 4108,
      "fur": 4109,
      "fat": 4110,
      "ftali": 4111,
      "fed": 4112,
      "gs": 4113,
      "gé": 4114,
      "guy": 4115,
      "gán": 4116,
      "gợi": 4117,
      "gắt": 4118,
      "gon": 4119,
      "geu": 4120,
      "gma": 4121,
      "gấm": 4122,
      "gor": 4123,
      "gsa": 4124,
      "gro": 4125,
      "gno": 4126,
      "gần": 4127,
      "ggins": 4128,
      "hl": 4129,
      "hã": 4130,
      "hé": 4131,
      "hề": 4132,
      "hoại": 4133,
      "htin": 4134,
      "hôi": 4135,
      "his": 4136,
      "hầm": 4137,
      "hiền": 4138,
      "h00": 4139,
      "hưu": 4140,
      "hrai": 4141,
      "hơi": 4142,
      "hmu": 4143,
      "hran": 4144,
      "hani": 4145,
      "hết": 4146,
      "h5n1": 4147,
      "hỏng": 4148,
      "hdd": 4149,
      "ij": 4150,
      "iữ": 4151,
      "ion": 4152,
      "iđa": 4153,
      "ipap": 4154,
      "iep": 4155,
      "iana": 4156,
      "iwa": 4157,
      "igno": 4158,
      "jb": 4159,
      "jay": 4160,
      "jab": 4161,
      "jeria": 4162,
      "jane": 4163,
      "jens": 4164,
      "kê": 4165,
      "kö": 4166,
      "kđ": 4167,
      "kĩ": 4168,
      "kẻ": 4169,
      "kan": 4170,
      "kiều": 4171,
      "kiê": 4172,
      "ktt": 4173,
      "ktp": 4174,
      "kir": 4175,
      "kand": 4176,
      "kế": 4177,
      "ktn": 4178,
      "kể": 4179,
      "klos": 4180,
      "kina": 4181,
      "kiến": 4182,
      "kyaw": 4183,
      "kiểm": 4184,
      "lp": 4185,
      "lơ": 4186,
      "lở": 4187,
      "lươ": 4188,
      "lung": 4189,
      "lây": 4190,
      "lay": 4191,
      "lăn": 4192,
      "lia": 4193,
      "lát": 4194,
      "lẩn": 4195,
      "lít": 4196,
      "lton": 4197,
      "lõi": 4198,
      "lúa": 4199,
      "lần": 4200,
      "lten": 4201,
      "lập": 4202,
      "lỏng": 4203,
      "lima": 4204,
      "md": 4205,
      "mm": 4206,
      "mn": 4207,
      "mr": 4208,
      "mê": 4209,
      "mì": 4210,
      "mễ": 4211,
      "mồ": 4212,
      "mộ": 4213,
      "mờ": 4214,
      "mỷ": 4215,
      "mến": 4216,
      "mạo": 4217,
      "mas": 4218,
      "mái": 4219,
      "mường": 4220,
      "mầm": 4221,
      "mes": 4222,
      "mọc": 4223,
      "móc": 4224,
      "mbia": 4225,
      "mbo": 4226,
      "mão": 4227,
      "mũi": 4228,
      "m5s": 4229,
      "nă": 4230,
      "nề": 4231,
      "nợ": 4232,
      "nới": 4233,
      "niê": 4234,
      "nnông": 4235,
      "nix": 4236,
      "nạp": 4237,
      "nút": 4238,
      "nbc": 4239,
      "nur": 4240,
      "nàn": 4241,
      "nvp": 4242,
      "nền": 4243,
      "nlđ": 4244,
      "não": 4245,
      "nld": 4246,
      "njab": 4247,
      "om": 4248,
      "ot": 4249,
      "oan": 4250,
      "oli": 4251,
      "omar": 4252,
      "oit": 4253,
      "ovay": 4254,
      "óm": 4255,
      "odlu": 4256,
      "ojb": 4257,
      "pd": 4258,
      "ps": 4259,
      "páo": 4260,
      "p14": 4261,
      "p13": 4262,
      "pso": 4263,
      "pdp": 4264,
      "pana": 4265,
      "pyo": 4266,
      "p51": 4267,
      "pmc": 4268,
      "prus": 4269,
      "pyeong": 4270,
      "p4g": 4271,
      "qr": 4272,
      "qt": 4273,
      "rd": 4274,
      "ré": 4275,
      "rư": 4276,
      "rỡ": 4277,
      "rác": 4278,
      "rel": 4279,
      "rọi": 4280,
      "rla": 4281,
      "rắn": 4282,
      "rley": 4283,
      "rby": 4284,
      "să": 4285,
      "sợ": 4286,
      "str": 4287,
      "sốc": 4288,
      "sương": 4289,
      "sập": 4290,
      "sas": 4291,
      "sùng": 4292,
      "sar": 4293,
      "sấu": 4294,
      "sợi": 4295,
      "sel": 4296,
      "stra": 4297,
      "sim": 4298,
      "shi": 4299,
      "seu": 4300,
      "sand": 4301,
      "sắm": 4302,
      "sex": 4303,
      "ster": 4304,
      "stand": 4305,
      "sky": 4306,
      "slp": 4307,
      "tê": 4308,
      "tước": 4309,
      "ttrong": 4310,
      "tết": 4311,
      "tần": 4312,
      "tống": 4313,
      "táo": 4314,
      "tel": 4315,
      "tàng": 4316,
      "tsi": 4317,
      "táp": 4318,
      "tsh": 4319,
      "tới": 4320,
      "tashi": 4321,
      "tất": 4322,
      "tần": 4323,
      "tfor": 4324,
      "tồi": 4325,
      "tập": 4326,
      "ux": 4327,
      "uth": 4328,
      "ukh": 4329,
      "unam": 4330,
      "uống": 4331,
      "uthi": 4332,
      "uran": 4333,
      "upf": 4334,
      "uez": 4335,
      "uriya": 4336,
      "uei": 4337,
      "v2": 4338,
      "vt": 4339,
      "vá": 4340,
      "vé": 4341,
      "vê": 4342,
      "vần": 4343,
      "váng": 4344,
      "val": 4345,
      "vạn": 4346,
      "von": 4347,
      "vạch": 4348,
      "vằng": 4349,
      "vor": 4350,
      "vãng": 4351,
      "vsp": 4352,
      "vpe": 4353,
      "vệ": 4354,
      "vbh": 4355,
      "vật": 4356,
      "vala": 4357,
      "wb": 4358,
      "wy": 4359,
      "wan": 4360,
      "wong": 4361,
      "way": 4362,
      "wal": 4363,
      "win": 4364,
      "won": 4365,
      "wes": 4366,
      "wor": 4367,
      "wit": 4368,
      "wni": 4369,
      "whe": 4370,
      "west": 4371,
      "xy": 4372,
      "xư": 4373,
      "xả": 4374,
      "xáo": 4375,
      "xưa": 4376,
      "xích": 4377,
      "xóm": 4378,
      "xlô": 4379,
      "yan": 4380,
      "yong": 4381,
      "yung": 4382,
      "yến": 4383,
      "yem": 4384,
      "yil": 4385,
      "ytaly": 4386,
      "ydar": 4387,
      "zu": 4388,
      "zel": 4389,
      "zub": 4390,
      "zem": 4391,
      "zko": 4392,
      "zge": 4393,
      "zhel": 4394,
      "zuma": 4395,
      "zló": 4396,
      "zuz": 4397,
      "áz": 4398,
      "ély": 4399,
      "édouard": 4400,
      "ện": 4401,
      "ìa": 4402,
      "ðị": 4403,
      "ðông": 4404,
      "ðối": 4405,
      "ðây": 4406,
      "ðiềm": 4407,
      "ót": 4408,
      "ổ": 4409,
      "ùa": 4410,
      "ùm": 4411,
      "ặt": 4412,
      "čapu": 4413,
      "đh": 4414,
      "đẫ": 4415,
      "đệ": 4416,
      "đự": 4417,
      "đền": 4418,
      "đọng": 4419,
      "đau": 4420,
      "đĩnh": 4421,
      "đạm": 4422,
      "điệu": 4423,
      "đôn": 4424,
      "đợi": 4425,
      "điê": 4426,
      "đen": 4427,
      "đằng": 4428,
      "đốt": 4429,
      "đám": 4430,
      "đạc": 4431,
      "đủ": 4432,
      "để": 4433,
      "đùm": 4434,
      "ưmi": 4435,
      "̀o": 4436,
      "́ch": 4437,
      "̂̀": 4438,
      "̂́i": 4439,
      "̂́ng": 4440,
      "̂́t": 4441,
      "̂̉m": 4442,
      "̃u": 4443,
      "̃y": 4444,
      "̆ng": 4445,
      "̉e": 4446,
      "̣ch": 4447,
      "ẳm": 4448,
      "ốm": 4449,
      "ớc": 4450,
      "ờc": 4451,
      "ỡi": 4452,
      "ủi": 4453,
      "ngã": 4454,
      "ngộ": 4455,
      "ngước": 4456,
      "ngươ": 4457,
      "ngột": 4458,
      "ngau": 4459,
      "ngòi": 4460,
      "ngồi": 4461,
      "ngiữ": 4462,
      "ngủi": 4463,
      "nhạ": 4464,
      "nhị": 4465,
      "nhuy": 4466,
      "nhen": 4467,
      "nhap": 4468,
      "nhọn": 4469,
      "nhựa": 4470,
      "nhye": 4471,
      "nhnn": 4472,
      "nhận": 4473,
      "nhật": 4474,
      "nhóm": 4475,
      "thy": 4476,
      "thú": 4477,
      "thả": 4478,
      "thờ": 4479,
      "thở": 4480,
      "thận": 4481,
      "thản": 4482,
      "thổi": 4483,
      "thêu": 4484,
      "thâm": 4485,
      "thảm": 4486,
      "thào": 4487,
      "thcs": 4488,
      "thầy": 4489,
      "thẳm": 4490,
      "chè": 4491,
      "chị": 4492,
      "chờ": 4493,
      "chợ": 4494,
      "chứ": 4495,
      "chử": 4496,
      "chông": 4497,
      "chối": 4498,
      "chai": 4499,
      "chang": 4500,
      "chau": 4501,
      "chạm": 4502,
      "chiê": 4503,
      "chis": 4504,
      "cher": 4505,
      "chảy": 4506,
      "chap": 4507,
      "chắn": 4508,
      "chơi": 4509,
      "chậm": 4510,
      "chpar": 4511,
      "chẩu": 4512,
      "chara": 4513,
      "chak": 4514,
      "chất": 4515,
      "chez": 4516,
      "chéo": 4517,
      "choáng": 4518,
      "chấp": 4519,
      "chìa": 4520,
      "chót": 4521,
      "chùa": 4522,
      "trân": 4523,
      "trai": 4524,
      "trau": 4525,
      "trăn": 4526,
      "trạch": 4527,
      "trỗi": 4528,
      "trôm": 4529,
      "trở": 4530,
      "trộn": 4531,
      "quới": 4532,
      "quét": 4533,
      "quen": 4534,
      "ques": 4535,
      "quãng": 4536,
      "quỳnh": 4537,
      "phẩ": 4538,
      "phiến": 4539,
      "phượng": 4540,
      "phồn": 4541,
      "phos": 4542,
      "phố": 4543,
      "phưmi": 4544,
      "phớc": 4545,
      "203": 4546,
      "204": 4547,
      "205": 4548,
      "206": 4549,
      "2086": 4550,
      "2091977": 4551,
      "20h00": 4552,
      "anc": 4553,
      "anđt": 4554,
      "annes": 4555,
      "anjin": 4556,
      "vành": 4557,
      "già": 4558,
      "giỗ": 4559,
      "giày": 4560,
      "giảng": 4561,
      "giồng": 4562,
      "giàng": 4563,
      "giầy": 4564,
      "giãn": 4565,
      "gimon": 4566,
      "giux": 4567,
      "khố": 4568,
      "khăng": 4569,
      "khôn": 4570,
      "khảm": 4571,
      "khóm": 4572,
      "khand": 4573,
      "khad": 4574,
      "khbol": 4575,
      "khame": 4576,
      "khhđbcqg": 4577,
      "khổ": 4578,
      "amy": 4579,
      "củacủa": 4580,
      "chít": 4581,
      "namnam": 4582,
      "namliên": 4583,
      "nampháp": 4584,
      "namphần": 4585,
      "nameu": 4586,
      "namtriều": 4587,
      "namcampuchia": 4588,
      "namsingapore": 4589,
      "namna": 4590,
      "namnew": 4591,
      "namargentina": 4592,
      "namuae": 4593,
      "nambrunei": 4594,
      "nambangladesh": 4595,
      "namchile": 4596,
      "nammông": 4597,
      "ươm": 4598,
      "ngham": 4599,
      "nghiệt": 4600,
      "nghiê": 4601,
      "nghiêng": 4602,
      "nướcdân": 4603,
      "làn": 4604,
      "inhard": 4605,
      "tổn": 4606,
      "quyên": 4607,
      "quyện": 4608,
      "dânphát": 4609,
      "thực": 4610,
      "rac": 4611,
      "ranh": 4612,
      "rachi": 4613,
      "rapa": 4614,
      "rales": 4615,
      "rard": 4616,
      "rawhe": 4617,
      "rakhand": 4618,
      "tỉnhtrưởng": 4619,
      "anhoa": 4620,
      "193": 4621,
      "1915": 4622,
      "1928": 4623,
      "1936": 4624,
      "1904": 4625,
      "1907": 4626,
      "1938": 4627,
      "hợi": 4628,
      "cuel": 4629,
      "cùng": 4630,
      "angor": 4631,
      "angcc": 4632,
      "nhântrí": 4633,
      "ángquảng": 4634,
      "khoát": 4635,
      "khoáng": 4636,
      "nguyễn": 4637,
      "luc": 4638,
      "luỵ": 4639,
      "luỹ": 4640,
      "lula": 4641,
      "luki": 4642,
      "luiz": 4643,
      "luật": 4644,
      "lực": 4645,
      "bích": 4646,
      "nộiđiện": 4647,
      "trịxã": 4648,
      "106": 4649,
      "1015": 4650,
      "102014": 4651,
      "1080": 4652,
      "1055": 4653,
      "trưa": 4654,
      "trực": 4655,
      "trườc": 4656,
      "diquốc": 4657,
      "dico": 4658,
      "dine": 4659,
      "dija": 4660,
      "dick": 4661,
      "dives": 4662,
      "dirim": 4663,
      "diáz": 4664,
      "diện": 4665,
      "tis": 4666,
      "tian": 4667,
      "tiế": 4668,
      "tiana": 4669,
      "tín": 4670,
      "tiê": 4671,
      "tiến": 4672,
      "tiago": 4673,
      "tích": 4674,
      "độngthương": 4675,
      "độngsinh": 4676,
      "chol": 4677,
      "chon": 4678,
      "chọn": 4679,
      "cholas": 4680,
      "1112": 4681,
      "112015": 4682,
      "quả": 4683,
      "quản": 4684,
      "nhàn": 4685,
      "nhào": 4686,
      "giá": 4687,
      "giadân": 4688,
      "giaxin": 4689,
      "hoang": 4690,
      "hoằng": 4691,
      "hofer": 4692,
      "hóa": 4693,
      "houthi": 4694,
      "cơn": 4695,
      "dolu": 4696,
      "doãn": 4697,
      "downi": 4698,
      "doxy": 4699,
      "thứcvăn": 4700,
      "20232024": 4701,
      "20232027": 4702,
      "122": 4703,
      "123": 4704,
      "1238": 4705,
      "đềhđnd": 4706,
      "lãm": 4707,
      "20222025": 4708,
      "2022gs": 4709,
      "bìnhan": 4710,
      "tuyến": 4711,
      "giaokinh": 4712,
      "thua": 4713,
      "thuê": 4714,
      "thuận": 4715,
      "thực": 4716,
      "asw": 4717,
      "asia": 4718,
      "asuriya": 4719,
      "via": 4720,
      "vin": 4721,
      "vir": 4722,
      "vina": 4723,
      "viet": 4724,
      "virus": 4725,
      "ndse": 4726,
      "cone": 4727,
      "coel": 4728,
      "colo": 4729,
      "coron": 4730,
      "còn": 4731,
      "corby": 4732,
      "khí": 4733,
      "iaea": 4734,
      "cá": 4735,
      "caexpo": 4736,
      "cabis": 4737,
      "alc": 4738,
      "alp": 4739,
      "alam": 4740,
      "alber": 4741,
      "aldez": 4742,
      "alsultan": 4743,
      "aloa": 4744,
      "albashir": 4745,
      "alexi": 4746,
      "tốp": 4747,
      "ardes": 4748,
      "ariz": 4749,
      "arder": 4750,
      "armin": 4751,
      "armen": 4752,
      "arkand": 4753,
      "argimon": 4754,
      "asep": 4755,
      "aseanhoa": 4756,
      "aseangcc": 4757,
      "20192020": 4758,
      "nec": 4759,
      "ner": 4760,
      "nett": 4761,
      "nesia": 4762,
      "neves": 4763,
      "nét": 4764,
      "nery": 4765,
      "negro": 4766,
      "asean1": 4767,
      "aseantrung": 4768,
      "aseannga": 4769,
      "aseannhật": 4770,
      "aseaneu": 4771,
      "khuon": 4772,
      "khurel": 4773,
      "tintruyền": 4774,
      "chuyện": 4775,
      "elmau": 4776,
      "eltami": 4777,
      "bahu": 4778,
      "bader": 4779,
      "bachel": 4780,
      "báo": 4781,
      "bahrai": 4782,
      "thắngtham": 4783,
      "nhưỡng": 4784,
      "151": 4785,
      "152": 4786,
      "155": 4787,
      "1518": 4788,
      "1516": 4789,
      "1521": 4790,
      "1570": 4791,
      "1575": 4792,
      "tuỵ": 4793,
      "tuẩn": 4794,
      "tulin": 4795,
      "tuần": 4796,
      "tuddin": 4797,
      "thipadei": 4798,
      "xv2020": 4799,
      "303": 4800,
      "306": 4801,
      "307": 4802,
      "inc": 4803,
      "inf": 4804,
      "int": 4805,
      "inion": 4806,
      "rea": 4807,
      "rez": 4808,
      "reau": 4809,
      "rett": 4810,
      "reap": 4811,
      "reme": 4812,
      "remy": 4813,
      "reza": 4814,
      "reiwa": 4815,
      "reinhard": 4816,
      "redoxy": 4817,
      "trái": 4818,
      "trào": 4819,
      "251": 4820,
      "253": 4821,
      "256": 4822,
      "2500": 4823,
      "2526": 4824,
      "enco": 4825,
      "enko": 4826,
      "enomi": 4827,
      "enkhbol": 4828,
      "enchon": 4829,
      "1970": 4830,
      "19727": 4831,
      "19766": 4832,
      "142": 4833,
      "146": 4834,
      "14h30": 4835,
      "iso": 4836,
      "isan": 4837,
      "ishin": 4838,
      "iseke": 4839,
      "isiana": 4840,
      "137": 4841,
      "138": 4842,
      "223": 4843,
      "227": 4844,
      "2216": 4845,
      "2224": 4846,
      "2263": 4847,
      "2266": 4848,
      "2264": 4849,
      "dươngthái": 4850,
      "tah": 4851,
      "tài": 4852,
      "tạo": 4853,
      "tarakhand": 4854,
      "tatiana": 4855,
      "20172021": 4856,
      "20172018": 4857,
      "ern": 4858,
      "erra": 4859,
      "eron": 4860,
      "erte": 4861,
      "điê": 4862,
      "181": 4863,
      "182": 4864,
      "183": 4865,
      "187": 4866,
      "18h": 4867,
      "1818": 4868,
      "1816": 4869,
      "1895": 4870,
      "1848": 4871,
      "1867": 4872,
      "1877": 4873,
      "1892": 4874,
      "hđxx": 4875,
      "hđqt": 4876,
      "ona": 4877,
      "ubktt": 4878,
      "khail": 4879,
      "khoan": 4880,
      "khỏi": 4881,
      "khóa": 4882,
      "khỏe": 4883,
      "20152025": 4884,
      "candin": 4885,
      "canađa": 4886,
      "xuânđất": 4887,
      "trích": 4888,
      "287": 4889,
      "2830": 4890,
      "238": 4891,
      "239": 4892,
      "huyệt": 4893,
      "160": 4894,
      "161": 4895,
      "162": 4896,
      "166": 4897,
      "1620": 4898,
      "1672016": 4899,
      "172": 4900,
      "176": 4901,
      "1782": 4902,
      "17h30": 4903,
      "17102014": 4904,
      "đứctài": 4905,
      "504": 4906,
      "506": 4907,
      "508": 4908,
      "509": 4909,
      "punjab": 4910,
      "ttel": 4911,
      "ttvp": 4912,
      "ttnhnn": 4913,
      "đàn": 4914,
      "đạt": 4915,
      "đáng": 4916,
      "đáo": 4917,
      "đảm": 4918,
      "đạo": 4919,
      "độ": 4920,
      "đổi": 4921,
      "umno": 4922,
      "21và": 4923,
      "apc": 4924,
      "emyung": 4925,
      "trìu": 4926,
      "451": 4927,
      "453": 4928,
      "455": 4929,
      "457": 4930,
      "sue": 4931,
      "sukh": 4932,
      "suôn": 4933,
      "sula": 4934,
      "suna": 4935,
      "suji": 4936,
      "suky": 4937,
      "sukar": 4938,
      "suất": 4939,
      "sugay": 4940,
      "sự": 4941,
      "sức": 4942,
      "suwon": 4943,
      "độxhcn": 4944,
      "họccông": 4945,
      "họckỹ": 4946,
      "hir": 4947,
      "hiro": 4948,
      "higgins": 4949,
      "laban": 4950,
      "lạm": 4951,
      "lachít": 4952,
      "241": 4953,
      "242": 4954,
      "246": 4955,
      "247": 4956,
      "249": 4957,
      "2426": 4958,
      "2482019": 4959,
      "hurley": 4960,
      "271": 4961,
      "273": 4962,
      "277": 4963,
      "banga": 4964,
      "trì": 4965,
      "trình": 4966,
      "chú": 4967,
      "chuỗi": 4968,
      "chuanjin": 4969,
      "tos": 4970,
      "toạ": 4971,
      "tolla": 4972,
      "toàn": 4973,
      "tová": 4974,
      "contai": 4975,
      "tựa": 4976,
      "hoạt": 4977,
      "hoạch": 4978,
      "màn": 4979,
      "màu": 4980,
      "cameron": 4981,
      "260": 4982,
      "2628": 4983,
      "26112015": 4984,
      "293": 4985,
      "294": 4986,
      "298": 4987,
      "2931": 4988,
      "291945": 4989,
      "siem": 4990,
      "singhe": 4991,
      "sierra": 4992,
      "bio": 4993,
      "binay": 4994,
      "bill": 4995,
      "birla": 4996,
      "jose": 4997,
      "joaquin": 4998,
      "qđcs": 4999,
      "qđbcđ": 5000,
      "qđctn": 5001,
      "qđvpcqcsđt": 5002,
      "loạn": 5003,
      "lowy": 5004,
      "lối": 5005,
      "unfcc": 5006,
      "quangcựu": 5007,
      "pol": 5008,
      "pot": 5009,
      "poor": 5010,
      "power": 5011,
      "daha": 5012,
      "dạng": 5013,
      "dài": 5014,
      "dafur": 5015,
      "dãy": 5016,
      "iri": 5017,
      "iro": 5018,
      "1966": 5019,
      "dup": 5020,
      "duẩn": 5021,
      "dụng": 5022,
      "dự": 5023,
      "duerte": 5024,
      "essex": 5025,
      "mori": 5026,
      "moro": 5027,
      "mochis": 5028,
      "morales": 5029,
      "moreau": 5030,
      "khía": 5031,
      "khít": 5032,
      "tràothanh": 5033,
      "soạn": 5034,
      "soli": 5035,
      "sofit": 5036,
      "sovpe": 5037,
      "sống": 5038,
      "maham": 5039,
      "maada": 5040,
      "matha": 5041,
      "madri": 5042,
      "mattar": 5043,
      "matvi": 5044,
      "mahmu": 5045,
      "madine": 5046,
      "1994": 5047,
      "liu": 5048,
      "liban": 5049,
      "lius": 5050,
      "liku": 5051,
      "lines": 5052,
      "lindse": 5053,
      "lễ": 5054,
      "buhar": 5055,
      "bucki": 5056,
      "burapa": 5057,
      "phiêu": 5058,
      "andré": 5059,
      "andrea": 5060,
      "raila": 5061,
      "vacci": 5062,
      "mary": 5063,
      "mario": 5064,
      "marina": 5065,
      "abdel": 5066,
      "abdl": 5067,
      "abenomi": 5068,
      "chiêu": 5069,
      "chirac": 5070,
      "rio": 5071,
      "rian": 5072,
      "ribank": 5073,
      "richar": 5074,
      "riaya": 5075,
      "ricio": 5076,
      "19732023": 5077,
      "197321": 5078,
      "manipu": 5079,
      "manez": 5080,
      "pakistan": 5081,
      "thoa": 5082,
      "thoải": 5083,
      "thỏa": 5084,
      "nsw": 5085,
      "pari": 5086,
      "parmel": 5087,
      "ttxvmn": 5088,
      "705": 5089,
      "708": 5090,
      "709": 5091,
      "7036": 5092,
      "hữu": 5093,
      "540": 5094,
      "542": 5095,
      "546": 5096,
      "549": 5097,
      "lhtn": 5098,
      "sad": 5099,
      "satu": 5100,
      "sánh": 5101,
      "dev": 5102,
      "402": 5103,
      "404": 5104,
      "408": 5105,
      "4041": 5106,
      "dự": 5107,
      "dựng": 5108,
      "roa": 5109,
      "roòng": 5110,
      "rome": 5111,
      "robre": 5112,
      "romu": 5113,
      "rosen": 5114,
      "602": 5115,
      "603": 5116,
      "609": 5117,
      "kép": 5118,
      "medve": 5119,
      "medico": 5120,
      "cụm": 5121,
      "lee": 5122,
      "leone": 5123,
      "lead": 5124,
      "lege": 5125,
      "levo": 5126,
      "milan": 5127,
      "miye": 5128,
      "milos": 5129,
      "mike": 5130,
      "micro": 5131,
      "milton": 5132,
      "mikhail": 5133,
      "nguỵ": 5134,
      "nguội": 5135,
      "nguôi": 5136,
      "194515": 5137,
      "aipa37": 5138,
      "aipa42": 5139,
      "20132020": 5140,
      "993": 5141,
      "9913": 5142,
      "9999": 5143,
      "9995": 5144,
      "9978": 5145,
      "9986": 5146,
      "9971": 5147,
      "dcnd": 5148,
      "hạn": 5149,
      "xxtrong": 5150,
      "cinda": 5151,
      "cienco": 5152,
      "nado": 5153,
      "này": 5154,
      "naagi": 5155,
      "naftali": 5156,
      "năng": 5157,
      "1944": 5158,
      "hỗn": 5159,
      "malwal": 5160,
      "maldives": 5161,
      "oseltami": 5162,
      "nẵngquảng": 5163,
      "368": 5164,
      "369": 5165,
      "3651": 5166,
      "jad": 5167,
      "jacob": 5168,
      "javier": 5169,
      "jaques": 5170,
      "jaemyung": 5171,
      "jacinda": 5172,
      "ruth": 5173,
      "rurawhe": 5174,
      "sharma": 5175,
      "shima": 5176,
      "sharmin": 5177,
      "yazko": 5178,
      "808": 5179,
      "906": 5180,
      "9010": 5181,
      "9056": 5182,
      "9057": 5183,
      "cực": 5184,
      "444": 5185,
      "448": 5186,
      "553": 5187,
      "dpk": 5188,
      "kol": 5189,
      "kohl": 5190,
      "tehran": 5191,
      "tenegro": 5192,
      "20242026": 5193,
      "azmi": 5194,
      "azanis": 5195,
      "bón": 5196,
      "goa": 5197,
      "gop": 5198,
      "golan": 5199,
      "gọi": 5200,
      "gove": 5201,
      "gombo": 5202,
      "goodlu": 5203,
      "hamon": 5204,
      "hamid": 5205,
      "hamburg": 5206,
      "mut": 5207,
      "muda": 5208,
      "mudez": 5209,
      "muộn": 5210,
      "phanie": 5211,
      "israelpalestine": 5212,
      "ngoạn": 5213,
      "ngoặt": 5214,
      "376": 5215,
      "379": 5216,
      "681": 5217,
      "682": 5218,
      "685": 5219,
      "scov2": 5220,
      "20102023": 5221,
      "mekonghàn": 5222,
      "432": 5223,
      "639": 5224,
      "6355": 5225,
      "953": 5226,
      "95iii": 5227,
      "9565": 5228,
      "9588": 5229,
      "bộ": 5230,
      "bounnh": 5231,
      "bogor": 5232,
      "bovor": 5233,
      "cccd": 5234,
      "xavier": 5235,
      "xét": 5236,
      "johannes": 5237,
      "481": 5238,
      "484": 5239,
      "485": 5240,
      "akuei": 5241,
      "akishin": 5242,
      "terga": 5243,
      "tercar": 5244,
      "anadolu": 5245,
      "macri": 5246,
      "353": 5247,
      "356": 5248,
      "461": 5249,
      "464": 5250,
      "466": 5251,
      "467": 5252,
      "469": 5253,
      "477": 5254,
      "4787": 5255,
      "brady": 5256,
      "kafan": 5257,
      "noor": 5258,
      "pras": 5259,
      "prawit": 5260,
      "prachara": 5261,
      "prasad": 5262,
      "tộc": 5263,
      "tốt": 5264,
      "19502023": 5265,
      "19501961": 5266,
      "783": 5267,
      "789": 5268,
      "desz": 5269,
      "illia": 5270,
      "ranil": 5271,
      "tnđcs": 5272,
      "392": 5273,
      "396": 5274,
      "39168": 5275,
      "677": 5276,
      "892": 5277,
      "898": 5278,
      "8945": 5279,
      "8936": 5280,
      "kiy": 5281,
      "kiko": 5282,
      "kiệ": 5283,
      "kisiđa": 5284,
      "nqhđbcqg": 5285,
      "spinc": 5286,
      "1956": 5287,
      "1957": 5288,
      "1958": 5289,
      "19712021": 5290,
      "myr": 5291,
      "myint": 5292,
      "nigma": 5293,
      "nicholas": 5294,
      "nikol": 5295,
      "sein": 5296,
      "seou": 5297,
      "sebas": 5298,
      "saigon": 5299,
      "nhà": 5300,
      "nhĩ": 5301,
      "20112020": 5302,
      "20112015": 5303,
      "19611965": 5304,
      "19611974": 5305,
      "19682023": 5306,
      "779": 5307,
      "861": 5308,
      "862": 5309,
      "8637": 5310,
      "8656": 5311,
      "samarkand": 5312,
      "nhuệ": 5313,
      "chánh": 5314,
      "chất": 5315,
      "trọng": 5316,
      "aliye": 5317,
      "19772023": 5318,
      "19772019": 5319,
      "19772018": 5320,
      "19922023": 5321,
      "19922022": 5322,
      "696": 5323,
      "bcbcs": 5324,
      "lực": 5325,
      "19601964": 5326,
      "032": 5327,
      "033": 5328,
      "494": 5329,
      "496": 5330,
      "538": 5331,
      "732": 5332,
      "7340": 5333,
      "admm": 5334,
      "adrian": 5335,
      "ckreme": 5336,
      "mauricio": 5337,
      "19892014": 5338,
      "myanmarviệt": 5339,
      "565": 5340,
      "661": 5341,
      "662": 5342,
      "665": 5343,
      "857": 5344,
      "9217": 5345,
      "cepa": 5346,
      "cedei": 5347,
      "fidesz": 5348,
      "petr": 5349,
      "perez": 5350,
      "palang": 5351,
      "sinaloa": 5352,
      "ursula": 5353,
      "về": 5354,
      "19303": 5355,
      "19302020": 5356,
      "19302021": 5357,
      "19302022": 5358,
      "19301945": 5359,
      "hidehis": 5360,
      "berg": 5361,
      "bert": 5362,
      "bersatu": 5363,
      "bermudez": 5364,
      "gpi": 5365,
      "gps": 5366,
      "garmis": 5367,
      "lý": 5368,
      "pfp": 5369,
      "sanna": 5370,
      "sanchez": 5371,
      "santiago": 5372,
      "santos": 5373,
      "uttarakhand": 5374,
      "wickreme": 5375,
      "viện": 5376,
      "19461960": 5377,
      "prayuth": 5378,
      "frances": 5379,
      "051": 5380,
      "0510": 5381,
      "7641": 5382,
      "karl": 5383,
      "karu": 5384,
      "rịa": 5385,
      "vọng": 5386,
      "vorachi": 5387,
      "volachít": 5388,
      "queen": 5389,
      "quebec": 5390,
      "197625": 5391,
      "sudary": 5392,
      "19961": 5393,
      "19962014": 5394,
      "abdul": 5395,
      "9337": 5396,
      "fernandez": 5397,
      "fernado": 5398,
      "helmut": 5399,
      "passos": 5400,
      "pashin": 5401,
      "yonhap": 5402,
      "thụt": 5403,
      "charlevo": 5404,
      "anesia": 5405,
      "20122020": 5406,
      "20122016": 5407,
      "20122017": 5408,
      "20122015": 5409,
      "20121960": 5410,
      "cop25": 5411,
      "16h00": 5412,
      "20072017": 5413,
      "797": 5414,
      "bayrou": 5415,
      "bayern": 5416,
      "cnn": 5417,
      "heydar": 5418,
      "hiệp": 5419,
      "lềnh": 5420,
      "sée": 5421,
      "warnery": 5422,
      "warisan": 5423,
      "inacio": 5424,
      "làm": 5425,
      "19651967": 5426,
      "20032008": 5427,
      "20082013": 5428,
      "19881993": 5429,
      "davosklos": 5430,
      "587": 5431,
      "ahmad": 5432,
      "ah5n1": 5433,
      "ahmadine": 5434,
      "benigno": 5435,
      "benoit": 5436,
      "bennett": 5437,
      "frexit": 5438,
      "jejomar": 5439,
      "jeremy": 5440,
      "key": 5441,
      "kéo": 5442,
      "kevin": 5443,
      "leni": 5444,
      "rishi": 5445,
      "venuez": 5446,
      "wadiquốc": 5447,
      "waterga": 5448,
      "đẹp": 5449,
      "truđô": 5450,
      "trúng": 5451,
      "phate": 5452,
      "phát": 5453,
      "pháp": 5454,
      "phải": 5455,
      "phẩm": 5456,
      "phó": 5457,
      "rald": 5458,
      "ralmani": 5459,
      "19552022": 5460,
      "1509": 5461,
      "19672019": 5462,
      "19992000": 5463,
      "19492019": 5464,
      "2204": 5465,
      "8854": 5466,
      "9818": 5467,
      "9843": 5468,
      "9879": 5469,
      "9009": 5470,
      "90012008": 5471,
      "brvt": 5472,
      "balkan": 5473,
      "binali": 5474,
      "ffin": 5475,
      "melia": 5476,
      "melenchon": 5477,
      "melanesia": 5478,
      "norbert": 5479,
      "opinion": 5480,
      "rinne": 5481,
      "tcvn": 5482,
      "zanupf": 5483,
      "ónio": 5484,
      "đúng": 5485,
      "đức": 5486,
      "đều": 5487,
      "thổ": 5488,
      "quêvê": 5489,
      "19312021": 5490,
      "19312017": 5491,
      "19741978": 5492,
      "22h45": 5493,
      "22h00": 5494,
      "sult": 5495,
      "19622022": 5496,
      "19641971": 5497,
      "199028": 5498,
      "burkina": 5499,
      "rodrido": 5500,
      "hào": 5501,
      "19411951": 5502,
      "4707": 5503,
      "agribank": 5504,
      "ajay": 5505,
      "bekistan": 5506,
      "beatri": 5507,
      "bettel": 5508,
      "bona": 5509,
      "busan": 5510,
      "biển": 5511,
      "forum": 5512,
      "forbes": 5513,
      "julius": 5514,
      "jonathan": 5515,
      "kurz": 5516,
      "larij": 5517,
      "larcher": 5518,
      "ryan": 5519,
      "sergio": 5520,
      "stolten": 5521,
      "stephanie": 5522,
      "yameen": 5523,
      "đắc": 5524,
      "thượng": 5525,
      "phraya": 5526,
      "anucha": 5527,
      "giữa": 5528,
      "amm54": 5529,
      "aits": 5530,
      "dorji": 5531,
      "carlos": 5532,
      "carthy": 5533,
      "bảy": 5534,
      "lafazanis": 5535,
      "đoàn": 5536,
      "đoạn": 5537,
      "đoạt": 5538,
      "siphandon": 5539,
      "louisiana": 5540,
      "lhpnvn": 5541,
      "leyen": 5542,
      "michelle": 5543,
      "ngoài": 5544,
      "nicolás": 5545,
      "volody": 5546,
      "jeanluc": 5547,
      "1308": 5548,
      "2138": 5549,
      "2139": 5550,
      "8607": 5551,
      "8802": 5552,
      "8756": 5553,
      "8759": 5554,
      "9766": 5555,
      "9190": 5556,
      "9474": 5557,
      "aecio": 5558,
      "cộng": 5559,
      "croo": 5560,
      "fitzge": 5561,
      "filoni": 5562,
      "fillon": 5563,
      "lối": 5564,
      "mccarthy": 5565,
      "minster": 5566,
      "mishus": 5567,
      "montenegro": 5568,
      "omic": 5569,
      "rời": 5570,
      "rủi": 5571,
      "sụp": 5572,
      "sụt": 5573,
      "tbubtvqh": 5574,
      "tướng": 5575,
      "tượng": 5576,
      "tenkir": 5577,
      "uzbekistan": 5578,
      "đcsvn": 5579,
      "trường": 5580,
      "trưởng": 5581,
      "antti": 5582,
      "antónio": 5583,
      "giotis": 5584,
      "ginsburg": 5585,
      "khát": 5586,
      "khadija": 5587,
      "192521": 5588,
      "19292019": 5589,
      "19h3022h00": 5590,
      "timorleste": 5591,
      "11h45": 5592,
      "ayatolla": 5593,
      "victoria": 5594,
      "victorovich": 5595,
      "viktor": 5596,
      "viktorovich": 5597,
      "arib": 5598,
      "ariffin": 5599,
      "enskiy": 5600,
      "1859": 5601,
      "2881945": 5602,
      "ttbca": 5603,
      "ttbtc": 5604,
      "hussein": 5605,
      "logistic": 5606,
      "logistics": 5607,
      "19972002": 5608,
      "199224": 5609,
      "campuchialàoviệt": 5610,
      "20012005": 5611,
      "20012002": 5612,
      "riyadh": 5613,
      "manila": 5614,
      "19811987": 5615,
      "19831988": 5616,
      "rouhani": 5617,
      "194727": 5618,
      "muhamad": 5619,
      "muhammadu": 5620,
      "boliva": 5621,
      "bolivia": 5622,
      "19531954": 5623,
      "samajwadiquốc": 5624,
      "tamiflu": 5625,
      "lászló": 5626,
      "lđlđvn": 5627,
      "bhxhvn": 5628,
      "aquino": 5629,
      "3h25": 5630,
      "7302": 5631,
      "7295": 5632,
      "8548": 5633,
      "aviv": 5634,
      "bfa": 5635,
      "bộ": 5636,
      "blue": 5637,
      "barrett": 5638,
      "bemes": 5639,
      "bhutan": 5640,
      "bunnhăng": 5641,
      "cyprus": 5642,
      "cộm": 5643,
      "cecillia": 5644,
      "crimea": 5645,
      "dmz": 5646,
      "diệngiữ": 5647,
      "dhose": 5648,
      "dhury": 5649,
      "dấu": 5650,
      "dvcqg": 5651,
      "egdi": 5652,
      "engels": 5653,
      "evipa": 5654,
      "economic": 5655,
      "edrich": 5656,
      "faso": 5657,
      "fiala": 5658,
      "faros": 5659,
      "felix": 5660,
      "ftaap": 5661,
      "friedrich": 5662,
      "fazli": 5663,
      "fattah": 5664,
      "gérard": 5665,
      "geunhye": 5666,
      "hãy": 5667,
      "hddnd": 5668,
      "jayasuriya": 5669,
      "janeiro": 5670,
      "kövé": 5671,
      "kđăm": 5672,
      "kiện": 5673,
      "ktnn": 5674,
      "lược": 5675,
      "látxlô": 5676,
      "mrc": 5677,
      "mastercar": 5678,
      "mesa": 5679,
      "nắm": 5680,
      "nixon": 5681,
      "nurlan": 5682,
      "nvpqh": 5683,
      "otsuji": 5684,
      "ovaya": 5685,
      "psoe": 5686,
      "pdplaban": 5687,
      "panagiotis": 5688,
      "pmc1": 5689,
      "pyeongchang": 5690,
      "rưỡi": 5691,
      "sắc": 5692,
      "straits": 5693,
      "sassoli": 5694,
      "sarscov2": 5695,
      "selangor": 5696,
      "stratfor": 5697,
      "simina": 5698,
      "shirin": 5699,
      "seug": 5700,
      "sandton": 5701,
      "standard": 5702,
      "slpv": 5703,
      "tsipras": 5704,
      "tshiseke": 5705,
      "ukhnaagi": 5706,
      "unamid": 5707,
      "urani": 5708,
      "valovaya": 5709,
      "vbhnvpqh": 5710,
      "valadimir": 5711,
      "wongsuwon": 5712,
      "wesley": 5713,
      "world": 5714,
      "westminster": 5715,
      "xử": 5716,
      "yongho": 5717,
      "yemen": 5718,
      "yildirim": 5719,
      "zelenskiy": 5720,
      "zubiri": 5721,
      "zeman": 5722,
      "zhelyazko": 5723,
      "zuzana": 5724,
      "élysée": 5725,
      "ðịnh": 5726,
      "čaputová": 5727,
      "đẫm": 5728,
      "đựng": 5729,
      "điều": 5730,
      "người": 5731,
      "ngaukraine": 5732,
      "nhuyễn": 5733,
      "chaisri": 5734,
      "chaudhury": 5735,
      "chiếm": 5736,
      "chapo": 5737,
      "chpartenkir": 5738,
      "chakri": 5739,
      "phosphate": 5740,
      "phưmiô": 5741,
      "giuxtin": 5742,
      "khadga": 5743,
      "khamenei": 5744,
      "nghiệp": 5745,
      "19152020": 5746,
      "cuellar": 5747,
      "nhântríđứctài": 5748,
      "lukid": 5749,
      "tiếng": 5750,
      "tiêu": 5751,
      "giaxinđa": 5752,
      "downing": 5753,
      "2022gsw": 5754,
      "vietsovpe": 5755,
      "coney": 5756,
      "coelho": 5757,
      "colombia": 5758,
      "corona": 5759,
      "corbyn": 5760,
      "alberto": 5761,
      "alexis": 5762,
      "ardeshir": 5763,
      "arizona": 5764,
      "ardern": 5765,
      "armenia": 5766,
      "khurelsukh": 5767,
      "bahujan": 5768,
      "bachelet": 5769,
      "bahrain": 5770,
      "enkhbold": 5771,
      "điều": 5772,
      "ubkttw": 5773,
      "candinas": 5774,
      "ttvpcp": 5775,
      "sunak": 5776,
      "sukyeol": 5777,
      "sukarno": 5778,
      "sugayoshihide": 5779,
      "hiroshima": 5780,
      "container": 5781,
      "joseph": 5782,
      "qđcsktp": 5783,
      "qđbcđcchc": 5784,
      "unfccc": 5785,
      "poors": 5786,
      "moros": 5787,
      "sofitel": 5788,
      "mahamat": 5789,
      "madrid": 5790,
      "mattarella": 5791,
      "matvienko": 5792,
      "mahmud": 5793,
      "likud": 5794,
      "lindsey": 5795,
      "buhari": 5796,
      "buckingham": 5797,
      "burapachaisri": 5798,
      "andrés": 5799,
      "vaccine": 5800,
      "abdlreza": 5801,
      "abenomics": 5802,
      "richard": 5803,
      "riayatuddin": 5804,
      "manipur": 5805,
      "manezh": 5806,
      "parmelin": 5807,
      "robredo": 5808,
      "romualdez": 5809,
      "medvedev": 5810,
      "medicosult": 5811,
      "leadsom": 5812,
      "legend": 5813,
      "miyegombo": 5814,
      "micronesia": 5815,
      "oseltamivir": 5816,
      "goodluck": 5817,
      "bounnhang": 5818,
      "johannesburg": 5819,
      "akishino": 5820,
      "478763": 5821,
      "kafando": 5822,
      "pracharath": 5823,
      "kiện": 5824,
      "nigmatulin": 5825,
      "seoul": 5826,
      "sebastian": 5827,
      "aliyev": 5828,
      "bcbcsđ": 5829,
      "cedeira": 5830,
      "hidehisa": 5831,
      "garmischpartenkir": 5832,
      "wickremesinghe": 5833,
      "vorachith": 5834,
      "pashinyan": 5835,
      "charlevoix": 5836,
      "davosklosters": 5837,
      "ahmadinejad": 5838,
      "venuezuela": 5839,
      "watergate": 5840,
      "opinionway": 5841,
      "quêvêrơ": 5842,
      "beatriz": 5843,
      "larijani": 5844,
      "stoltenberg": 5845,
      "volodymyr": 5846,
      "fitzgerald": 5847,
      "mishustin": 5848,
      "ayatollah": 5849,
      "diệngiữa": 5850,
      "kövér": 5851,
      "mastercard": 5852,
      "tshisekedi": 5853,
      "ukhnaagiin": 5854,
      "zhelyazkov": 5855,
      "vietsovpetro": 5856,
      "garmischpartenkirchen": 5857
    },
    "merges": [
      "n g",
      "n h",
      "t h",
      "c h",
      "t r",
      "q u",
      "i ệ",
      "p h",
      "2 0",
      "a n",
      "v à",
      "ê n",
      "g i",
      "ạ i",
      "ộ i",
      "k h",
      "ư ớ",
      "á c",
      "a m",
      "v iệ",
      "c ủ",
      "củ a",
      "ô ng",
      "ch í",
      "â n",
      "à y",
      "h ội",
      "i ế",
      "o ng",
      "ướ c",
      "i ên",
      "ố c",
      "ng ày",
      "à nh",
      "n am",
      "o à",
      "qu ốc",
      "ư ơ",
      "việ t",
      "ớ i",
      "ươ ng",
      "u y",
      "ứ c",
      "tr ong",
      "ng h",
      "i ể",
      "n ước",
      "ă m",
      "l à",
      "20 2",
      "ư ợ",
      "i nh",
      "chí nh",
      "qu an",
      "ự c",
      "c ác",
      "ầ u",
      "đ ã",
      "ả ng",
      "ờ i",
      "ấ t",
      "u ng",
      "t ổ",
      "ch ủ",
      "n ăm",
      "i ề",
      "ế t",
      "ố i",
      "a i",
      "c ông",
      "ầ n",
      "t ại",
      "ph á",
      "a o",
      "đ ảng",
      "qu y",
      "ượ c",
      "ị ch",
      "20 1",
      "ì nh",
      "ộ ng",
      "b ộ",
      "oà n",
      "iề u",
      "th ành",
      "d ân",
      "ồ ng",
      "đ ại",
      "o á",
      "iế n",
      "ch ức",
      "ngh ị",
      "v ới",
      "đ ồng",
      "iệ n",
      "đ ị",
      "k ỳ",
      "iệ m",
      "th ư",
      "đ ược",
      "tr ung",
      "ố ng",
      "ỉ nh",
      "t ác",
      "ộ c",
      "th ứ",
      "nh iệm",
      "t ừ",
      "r a",
      "c ó",
      "đị nh",
      "u ỷ",
      "ấ p",
      "b an",
      "ễ n",
      "iể n",
      "phá t",
      "v ề",
      "h ệ",
      "tổ ng",
      "ậ n",
      "h à",
      "t ỉnh",
      "a nh",
      "c á",
      "gi ữ",
      "1 9",
      "ờ ng",
      "tr iển",
      "h ợ",
      "hợ p",
      "t ịch",
      "v ụ",
      "ậ p",
      "â y",
      "ả n",
      "ữ ng",
      "ế n",
      "h ành",
      "c u",
      "s ự",
      "a ng",
      "đ ối",
      "th ủ",
      "ạ o",
      "ộ t",
      "t ế",
      "l iên",
      "ề n",
      "nh ân",
      "th ống",
      "á ng",
      "đ ầu",
      "kh oá",
      "ng uy",
      "â u",
      "ướ ng",
      "d ự",
      "v iên",
      "b ầu",
      "l u",
      "c ử",
      "quy ết",
      "m ột",
      "ọ ng",
      "ụ c",
      "s ố",
      "á n",
      "nh ững",
      "b í",
      "nh ất",
      "l ần",
      "c ấp",
      "c ao",
      "ậ t",
      "n ội",
      "a u",
      "tr ị",
      "1 0",
      "20 20",
      "cu ộc",
      "tr ư",
      "d i",
      "ả i",
      "t oàn",
      "tr ọng",
      "i i",
      "iể u",
      "m ạ",
      "202 1",
      "h oà",
      "h ai",
      "t i",
      "t ướng",
      "k ết",
      "đ ộng",
      "ch o",
      "m inh",
      "1 1",
      "ở ng",
      "đ ến",
      "qu a",
      "h ọ",
      "nh à",
      "gi a",
      "b iểu",
      "a y",
      "ạ t",
      "ư ời",
      "đ ạo",
      "c ộng",
      "o ại",
      "ch iến",
      "ng ười",
      "ă n",
      "h o",
      "th e",
      "c ơ",
      "và o",
      "d o",
      "th ức",
      "h iện",
      "k inh",
      "nh iều",
      "th ông",
      "ổ i",
      "l ập",
      "đ oàn",
      "á o",
      "c ả",
      "202 3",
      "v ực",
      "việ c",
      "ú c",
      "ph ủ",
      "the o",
      "ă ng",
      "tr ên",
      "ơ n",
      "ấ n",
      "s au",
      "di ễn",
      "ch ỉ",
      "1 2",
      "s ẽ",
      "đ ề",
      "ng oại",
      "l ã",
      "t iế",
      "th ế",
      "họ p",
      "th am",
      "th ực",
      "202 2",
      "b ình",
      "á ch",
      "ả o",
      "t uy",
      "đ ó",
      "gi ao",
      "giữ a",
      "iể m",
      "nguy ễn",
      "v ăn",
      "th u",
      "cá ch",
      "a s",
      "x ã",
      "trư ởng",
      "qu ả",
      "th ăm",
      "iệ p",
      "ph ó",
      "m ới",
      "lã nh",
      "t í",
      "đ ể",
      "iế t",
      "m ỹ",
      "tiế p",
      "đ iều",
      "ứ ng",
      "nh ận",
      "v i",
      "n d",
      "h ồ",
      "c o",
      "ê u",
      "kh i",
      "ò ng",
      "th ời",
      "ĩ nh",
      "đ ây",
      "ắ c",
      "thư ờng",
      "i a",
      "kh ông",
      "ượ ng",
      "c a",
      "ạ m",
      "s áng",
      "iế u",
      "a l",
      "iệ u",
      "b ị",
      "b ản",
      "t ố",
      "ù ng",
      "l ớ",
      "gi ới",
      "là m",
      "a r",
      "quy ền",
      "lớ n",
      "t iên",
      "t ư",
      "h ình",
      "à i",
      "x u",
      "đ ổi",
      "lu ật",
      "h ơn",
      "s ử",
      "as e",
      "phá p",
      "201 9",
      "n e",
      "ch âu",
      "l ĩnh",
      "á i",
      "iệ t",
      "ũ ng",
      "ặ t",
      "201 8",
      "x i",
      "ư ờng",
      "ph ạm",
      "ph ố",
      "n ày",
      "é t",
      "th iết",
      "ph ương",
      "t ục",
      "th ương",
      "ph iếu",
      "ô n",
      "ase an",
      "b áo",
      "x ây",
      "mạ nh",
      "l ời",
      "d iện",
      "việ n",
      "kh u",
      "dự ng",
      "ti n",
      "ặ c",
      "n inh",
      "ch uy",
      "x ét",
      "t iến",
      "â m",
      "th ể",
      "ẩ m",
      "ắ ng",
      "ngh ĩ",
      "ch ấp",
      "tr ực",
      "gi ải",
      "k ỷ",
      "đ ất",
      "tuy ên",
      "nghĩ a",
      "ấ u",
      "nguy ên",
      "l ực",
      "ẫ n",
      "v ị",
      "ạ n",
      "ợ i",
      "e l",
      "đ à",
      "ngh iệp",
      "c ực",
      "h oá",
      "b ảo",
      "b a",
      "n ay",
      "th áng",
      "tr ình",
      "ph ần",
      "ph òng",
      "l ịch",
      "l ợi",
      "b ố",
      "s ản",
      "mạ ng",
      "th ắng",
      "l ý",
      "t oà",
      "á nh",
      "m ại",
      "gi á",
      "cá o",
      "t ới",
      "x ii",
      "h iệu",
      "nh ư",
      "1 5",
      "ch iều",
      "g ó",
      "t u",
      "v ấn",
      "tr uy",
      "th i",
      "tí ch",
      "b iệt",
      "ti êu",
      "ho ạt",
      "gó p",
      "t ạo",
      "m ời",
      "ng a",
      "x ử",
      "201 6",
      "t ộc",
      "th anh",
      "x v",
      "ư a",
      "tr anh",
      "đ ạt",
      "th úc",
      "l ược",
      "đ ặc",
      "3 0",
      "đ ẩ",
      "đẩ y",
      "k iểm",
      "l ại",
      "ệ nh",
      "d ịch",
      "t ăng",
      "ch ất",
      "ch ống",
      "đ iểm",
      "trư ờng",
      "truy ền",
      "t âm",
      "ph iên",
      "h ữ",
      "hữ u",
      "i ê",
      "à ng",
      "i n",
      "nh ật",
      "tr ở",
      "k iến",
      "m ở",
      "m ặt",
      "r e",
      "s ách",
      "th ái",
      "tr a",
      "2 5",
      "c ùng",
      "e n",
      "đ ang",
      "th ị",
      "ch ung",
      "19 7",
      "cá n",
      "tố t",
      "v ương",
      "b ước",
      "l an",
      "ô i",
      "th ượng",
      "ph úc",
      "lu ận",
      "1 4",
      "t ài",
      "tr ước",
      "ắ t",
      "s ơ",
      "ụ ng",
      "hà ng",
      "i s",
      "t ập",
      "gi áo",
      "202 5",
      "1 3",
      "2 2",
      "d ương",
      "l ên",
      "s inh",
      "t a",
      "ự u",
      "qu ân",
      "201 7",
      "c ũng",
      "e r",
      "đ i",
      "ầ m",
      "ể n",
      "1 8",
      "h đ",
      "o n",
      "u b",
      "ẹ p",
      "kh ai",
      "c ường",
      "k iện",
      "á t",
      "th ẩm",
      "kh o",
      "201 5",
      "c an",
      "c ầu",
      "s âu",
      "d ụng",
      "n ăng",
      "r ộng",
      "xu ân",
      "b à",
      "đ ánh",
      "ả y",
      "tr í",
      "c àng",
      "đ ưa",
      "ừ a",
      "2 8",
      "2 3",
      "h uy",
      "k ể",
      "ọ i",
      "ch ế",
      "tr ò",
      "lu ôn",
      "ub nd",
      "1 6",
      "1 7",
      "đ ức",
      "ẩ n",
      "ậ u",
      "qu ảng",
      "iề n",
      "h oàn",
      "đ ẹp",
      "5 0",
      "b ỏ",
      "i m",
      "t y",
      "p u",
      "t t",
      "v ững",
      "qu ản",
      "đị a",
      "xii i",
      "ph ong",
      "h ạ",
      "đ a",
      "đ ô",
      "u a",
      "u m",
      "tr ách",
      "2 1",
      "a p",
      "e m",
      "đ ời",
      "tr ì",
      "4 5",
      "v ai",
      "đ ỉnh",
      "gi ành",
      "cả nh",
      "m ối",
      "n ữ",
      "s u",
      "x ảy",
      "đ ộ",
      "gi an",
      "hđ nd",
      "d ẫn",
      "ả m",
      "2020 2025",
      "họ c",
      ". .",
      "h i",
      "l a",
      "s át",
      "2 4",
      "h u",
      "ph ú",
      "2 7",
      "b ang",
      "n iên",
      "à o",
      "ạ ch",
      "ở i",
      "ừ ng",
      "xu ất",
      "xi v",
      "0 0",
      "b ổ",
      "d ấu",
      "h ậu",
      "ch ương",
      "thu ận",
      "g ần",
      "l ễ",
      "t inh",
      "t ình",
      "â ng",
      "ằ ng",
      "tr i",
      "k ý",
      "ằ m",
      "ch u",
      "t o",
      "v ì",
      "ò n",
      "đ o",
      "đ ấu",
      "co n",
      "iê m",
      "m ục",
      "n ền",
      "n âng",
      "ủ ng",
      "thu ộc",
      "c ố",
      "k im",
      "l ượng",
      "t ất",
      "đó ng",
      "s ắc",
      "đ ường",
      "tí nh",
      "đà n",
      "b ắt",
      "c ựu",
      "ấ y",
      "e u",
      "t ự",
      "tr iều",
      "b ên",
      "c ần",
      "v ệ",
      "d uy",
      "t ối",
      "ú ng",
      "đ ông",
      "kh ởi",
      "ho a",
      "t p",
      "là o",
      "chuy ển",
      "h ộ",
      "h ải",
      "m à",
      "đ ứng",
      "ẳ ng",
      "ph ân",
      "chuy ến",
      "c am",
      "u s",
      "v ừa",
      "í ch",
      "tr ao",
      "2 6",
      "2 9",
      "c òn",
      "e c",
      "k ế",
      "m ẽ",
      "nh ằm",
      "gi ờ",
      "kh ác",
      "b iên",
      "g ây",
      "h iệp",
      "s ở",
      "đ ình",
      "ọ n",
      "oà i",
      "b iến",
      "ng ừng",
      "ch ia",
      "tr um",
      "vi d",
      "trum p",
      "h ạn",
      "h ướng",
      "do n",
      "co vid",
      "s ong",
      "ắ n",
      "ph ẩm",
      "2016 2021",
      "s ức",
      "ố t",
      "tr ương",
      "ph ục",
      "b ắc",
      "c ứ",
      "s i",
      "đ ơn",
      "ng oài",
      "ngh iêm",
      "ượ t",
      "don al",
      "b i",
      "j o",
      "q đ",
      "s ia",
      "chu ẩn",
      "l o",
      "l ộ",
      "u n",
      "qu ang",
      "gi ang",
      "donal d",
      "g ồ",
      "l ệnh",
      "m ức",
      "p o",
      "đ iện",
      "gi ai",
      "oá t",
      "gồ m",
      "b ch",
      "b ằng",
      "d a",
      "i r",
      "v ùng",
      "tr ần",
      "19 6",
      "ap ec",
      "b ền",
      "d u",
      "d ướ",
      "h ết",
      "n ông",
      "n ổi",
      "s ĩ",
      "ư u",
      "ng ân",
      "nh ập",
      "nh ũng",
      "dướ i",
      "e s",
      "m o",
      "m iền",
      "t ội",
      "ố n",
      "kh í",
      "đo ạn",
      "d anh",
      "đ ua",
      "th ay",
      "th ảo",
      "tr ào",
      "củ ng",
      "b ệnh",
      "c ổ",
      "d ung",
      "n ó",
      "s o",
      "ậ y",
      "ph ải",
      "m a",
      "t ỷ",
      "y êu",
      "ì n",
      "đ ảo",
      "ấ m",
      "19 9",
      "hoà ng",
      "h ối",
      "v ượt",
      "x em",
      "ệ n",
      "qu á",
      "hà n",
      "cu ba",
      "ho ạch",
      "cứ u",
      "l i",
      "đ ảm",
      "th ần",
      "l ê",
      "m ọi",
      "t ầm",
      "á m",
      "ỏ i",
      "202 6",
      "b u",
      "ó m",
      "ph i",
      "ph í",
      "an d",
      "t w",
      "v ận",
      "kh ẳng",
      "l ao",
      "r ai",
      "t án",
      "v a",
      "ắ p",
      "ch ọn",
      "ngh ệ",
      "r ất",
      "á p",
      "nh au",
      "iế m",
      "thư ởng",
      "hồ i",
      "nó i",
      "l ệ",
      "v ẫn",
      "ỗ i",
      "tu ổi",
      "pu chia",
      "cam puchia",
      "c ầm",
      "d ài",
      "h iến",
      "m ar",
      "n ỗ",
      "s ống",
      "t ấn",
      "đ ội",
      "nh óm",
      "tr ợ",
      "k rai",
      "s ang",
      "v ọng",
      "kh áng",
      "oá n",
      "phó ng",
      "tư ởng",
      "krai ne",
      "b ất",
      "u kraine",
      "do anh",
      "a b",
      "d ục",
      "m ang",
      "t ây",
      "x ác",
      "ế u",
      "ii i",
      "2021 2026",
      "3 1",
      "m ỗi",
      "ch i",
      "20 0",
      "kh ỏi",
      "tuy ến",
      "kho a",
      "covid 19",
      "c ục",
      "g ọi",
      "i x",
      "ph ụ",
      "g h",
      "h ô",
      "n iệm",
      "r i",
      "v ũ",
      "ê m",
      "ơ i",
      "ậ m",
      "ồ n",
      "th ổ",
      "tr ải",
      "ph u",
      "ph ê",
      "nga po",
      "197 3",
      "si ngapo",
      "singapo re",
      "th ôi",
      "tr ẻ",
      "tr iệu",
      "ph ối",
      "mạ c",
      "giá m",
      "su ốt",
      "c ải",
      "n ên",
      "r õ",
      "t oán",
      "x ế",
      "đ ộc",
      "xế p",
      "b ác",
      "m an",
      "o r",
      "p a",
      "t ương",
      "ạ p",
      "ọ c",
      "th o",
      "19 8",
      "do ne",
      ".. .",
      "hu ệ",
      "g ắn",
      "n s",
      "s ơn",
      "từ ng",
      "gh ế",
      "d en",
      "p ar",
      "v õ",
      "đ ăng",
      "in done",
      "tt xv",
      "bi den",
      "indone sia",
      "7 0",
      "h ư",
      "k iên",
      "l ong",
      "m ôi",
      "x uy",
      "ú t",
      "ổ n",
      "au s",
      "tí n",
      "ttxv n",
      "xuy ên",
      "5 4",
      "l h",
      "n ơi",
      "s a",
      "s ung",
      "v òng",
      "th ách",
      "tr ụ",
      "tuy ển",
      "như ng",
      "b ối",
      "c ương",
      "c ăn",
      "d e",
      "g ặ",
      "l ai",
      "m ình",
      "đ ương",
      "đ ắc",
      "ch ặt",
      "ch ưa",
      "kh uy",
      "chuy ên",
      "tho ả",
      "gặ p",
      "4 0",
      "d ư",
      "t ựu",
      "x ung",
      "ã i",
      "đ ốc",
      "́ c",
      "th ất",
      "th ấy",
      "tr ận",
      "tr al",
      "phá n",
      "aus tral",
      "austral ia",
      "b ao",
      "l iệt",
      "m ốc",
      "r o",
      "t ử",
      "ạ nh",
      "ng ành",
      "nh ậm",
      "th iếu",
      "ch iếm",
      "kh ẩn",
      "co i",
      "6 0",
      "b iết",
      "c ung",
      "c ận",
      "k é",
      "m e",
      "s oát",
      "t iền",
      "đ áng",
      "gi ảm",
      "kh ối",
      "iề m",
      "đà m",
      "lh q",
      "g hi",
      "l âu",
      "l òng",
      "v ĩ",
      "đ ột",
      "ạ ng",
      "ph ạt",
      "kh ó",
      "2015 2020",
      "hạ ng",
      "jo e",
      "b iển",
      "b re",
      "c ụ",
      "l e",
      "m i",
      "t ạm",
      "u el",
      "v inh",
      "y ếu",
      "ng u",
      "nh ìn",
      "19 45",
      "xi t",
      "ir an",
      "c p",
      "c ạnh",
      "h y",
      "m ô",
      "v n",
      "ú p",
      "gi úp",
      "ai pa",
      "201 3",
      "sử a",
      "kho ảng",
      "nữ a",
      "ab e",
      "hô m",
      "bre xit",
      "9 9",
      "b ài",
      "d c",
      "h a",
      "l ẫn",
      "l ưu",
      "t ên",
      "x x",
      "đ ủ",
      "đ úng",
      "ng ay",
      "th ân",
      "th iện",
      "201 4",
      "tu ần",
      "ké o",
      "c i",
      "h ùng",
      "l oại",
      "l ấy",
      "n a",
      "s ỹ",
      "t ái",
      "x âm",
      "ặ ng",
      "ị p",
      "nh anh",
      "th oát",
      "19 4",
      "đề u",
      "lã ng",
      "ne w",
      "ngu ồn",
      "d ò",
      "h ỗ",
      "j ong",
      "t ụ",
      "t an",
      "ạ c",
      "gi am",
      "kh ăn",
      "10 0",
      "197 5",
      "jong un",
      "c s",
      "c ậy",
      "h ồng",
      "m al",
      "n ẵ",
      "o s",
      "t ân",
      "v ĩnh",
      "w e",
      "y ên",
      "à u",
      "ứ t",
      "th oại",
      "qu ý",
      "kh ổ",
      "cu ối",
      "ti ễn",
      "nẵ ng",
      "3 6",
      "d ứt",
      "h c",
      "l ối",
      "r ời",
      "t ạp",
      "đ ặt",
      "ẩ u",
      "ử a",
      "pu tin",
      "c ai",
      "d ũng",
      "i ne",
      "j a",
      "p p",
      "r u",
      "s h",
      "t ì",
      "t ám",
      "y a",
      "ó c",
      "nh ĩ",
      "tr ả",
      "tr ang",
      "kh ám",
      "kh ẩu",
      "ay sia",
      "cả m",
      "khu ôn",
      "tu ệ",
      "00 0",
      "hư ởng",
      "mal aysia",
      "tì m",
      "8 0",
      "9 0",
      "b ảng",
      "c ư",
      "n ào",
      "v iết",
      "v ốn",
      "đ áp",
      "̣ c",
      "ả nh",
      "ầ y",
      "ắ m",
      "ự a",
      "th ệ",
      "ch úng",
      "ch ấm",
      "ph ản",
      "bà n",
      "4 4",
      "5 5",
      "b ỉ",
      "b án",
      "c ập",
      "d p",
      "k o",
      "l ựa",
      "q h",
      "t e",
      "í t",
      "ù i",
      "đ ai",
      "đ iệp",
      "ỡ ng",
      "202 4",
      "xv ii",
      "huy ện",
      "us d",
      "a z",
      "b ó",
      "e x",
      "g 7",
      "g o",
      "h am",
      "l ương",
      "m u",
      "m á",
      "p ap",
      "s ư",
      "v ô",
      "đ ầy",
      "th ơ",
      "ch ẽ",
      "ch ứng",
      "ph an",
      "kh ả",
      "kh ánh",
      "ngh iệm",
      "ra el",
      "đà o",
      "iê ng",
      "is rael",
      "7 5",
      "b ậ",
      "b ế",
      "b ật",
      "d ành",
      "g ương",
      "k ong",
      "n ửa",
      "r iêng",
      "v ii",
      "x vi",
      "z e",
      "é p",
      "̣ i",
      "ắ k",
      "ng o",
      "ng ọc",
      "th êm",
      "qu án",
      "hà i",
      "nguy ện",
      "ho ặc",
      "xi x",
      "khuy ết",
      "we f",
      "bậ c",
      "3 7",
      "6 8",
      "b ia",
      "b ạn",
      "b el",
      "d ù",
      "h ay",
      "k iệm",
      "m ay",
      "m ir",
      "s co",
      "t ù",
      "đ ắp",
      "̀ ng",
      "nh iên",
      "kh ách",
      "di mir",
      "ar y",
      "ar us",
      "par is",
      "pap i",
      "a ra",
      "c l",
      "i t",
      "k el",
      "l iệu",
      "m er",
      "n ắm",
      "t v",
      "t iểu",
      "t úc",
      "t ượng",
      "v ượng",
      "v la",
      "z o",
      "ê nh",
      "đ ế",
      "ệ t",
      "th ập",
      "ch ốt",
      "201 0",
      "tiế t",
      "tiế ng",
      "thu ật",
      "kho ản",
      "tt g",
      "qđ ns",
      "qđ ttg",
      "li pp",
      "phi lipp",
      "phí a",
      "man uel",
      "me kong",
      "vla dimir",
      "4 3",
      "6 3",
      "9 5",
      "b o",
      "c c",
      "d ầu",
      "d ậy",
      "l âm",
      "p ci",
      "r on",
      "s ứ",
      "s óc",
      "x a",
      "x e",
      "x úc",
      "x hc",
      "đ iển",
      "tr ái",
      "ph ấn",
      "kh ắc",
      "kh ủng",
      "cu ốn",
      "tế xã",
      "ho ảng",
      "thị nh",
      "jo h",
      "xhc n",
      "4 8",
      "a k",
      "b iện",
      "c ước",
      "e p",
      "i o",
      "l ục",
      "t er",
      "t and",
      "x anh",
      "á thái",
      "ê ́",
      "ó ng",
      "đ ợ",
      "đ ọc",
      "ch ữ",
      "ch ỉnh",
      "tr e",
      "ph ức",
      "20 30",
      "an a",
      "và ng",
      "đo ạt",
      "ma c",
      "bu ôn",
      "mer kel",
      "đợ t",
      "3 5",
      "4 6",
      "4 7",
      "b ra",
      "b ến",
      "b tv",
      "g ìn",
      "h út",
      "k a",
      "k ỹ",
      "k êu",
      "k ia",
      "l inh",
      "n o",
      "p ra",
      "t ô",
      "t on",
      "v un",
      "̀ n",
      "ạ y",
      "ng ôn",
      "th ầu",
      "th ăng",
      "ch ỗ",
      "ch ăm",
      "19 50",
      "the re",
      "thu ốc",
      "ase m",
      "tu ấn",
      "in zo",
      "lo ạt",
      "va ̀",
      "ine s",
      "sh inzo",
      "ngo ặt",
      "bel arus",
      "philipp ines",
      "mac ron",
      "there sa",
      "7 8",
      "d es",
      "g u",
      "g en",
      "h ầu",
      "i l",
      "i nd",
      "k ịp",
      "m ù",
      "m ệnh",
      "n ếu",
      "r an",
      "r út",
      "s ớ",
      "t n",
      "t iện",
      "t ải",
      "t iềm",
      "ã ng",
      "đ ỗ",
      "ch dc",
      "gi ặc",
      "gi àu",
      "al y",
      "al and",
      "ar gen",
      "tin a",
      "ns on",
      "khuy ến",
      "má y",
      "ze aland",
      "joh nson",
      "ind ex",
      "sớ m",
      "argen tina",
      "3 9",
      "4 1",
      "6 7",
      "8 9",
      "a da",
      "b or",
      "b ùi",
      "h ung",
      "h iểm",
      "i pu",
      "k i",
      "k is",
      "l úc",
      "l ừa",
      "n q",
      "o da",
      "s p",
      "s ông",
      "s ắp",
      "t ảng",
      "t ay",
      "v ang",
      "v ậy",
      "đ ắk",
      "̣ n",
      "th ử",
      "th uỷ",
      "th ẳng",
      "ch ú",
      "tr ú",
      "gi ản",
      "hà o",
      "cá nh",
      "19 5",
      "tế thương",
      "đó n",
      "thu ỵ",
      "197 1",
      "mù a",
      "hung ary",
      "4 2",
      "b inh",
      "c dc",
      "g cc",
      "h iểu",
      "h ạt",
      "h ãng",
      "i v",
      "l dp",
      "m y",
      "m ặc",
      "n i",
      "n ai",
      "s e",
      "s ai",
      "t ấm",
      "v ật",
      "x oá",
      "â ́",
      "ã n",
      "́ i",
      "̉ a",
      "nh a",
      "nh i",
      "th ọ",
      "th ôn",
      "tr úng",
      "an i",
      "kh át",
      "201 1",
      "sau di",
      "can ada",
      "trò n",
      "ua e",
      "em manuel",
      "196 1",
      "196 8",
      "ara bia",
      "it aly",
      "chữ a",
      "des h",
      "chdc nd",
      "7 7",
      "8 6",
      "c ột",
      "d el",
      "f ran",
      "g a",
      "g ỡ",
      "g 20",
      "k ích",
      "m ai",
      "m ắc",
      "o ne",
      "o ana",
      "s ẵ",
      "s am",
      "s en",
      "t ận",
      "t ắt",
      "v ua",
      "á u",
      "õ i",
      "đ an",
      "đ ài",
      "đ ắn",
      "̣ t",
      "ng ãi",
      "nh u",
      "th ì",
      "th ao",
      "th ật",
      "th ừa",
      "ch a",
      "ch ắc",
      "ch xhcn",
      "tr o",
      "tr ắng",
      "kh ích",
      "kh ắp",
      "hà m",
      "19 54",
      "cu ̉a",
      "trị nh",
      "al i",
      "xv iii",
      "197 7",
      "bà o",
      "hạ nh",
      "hu ân",
      "mo on",
      "199 2",
      "mu ốn",
      "bor is",
      "sẵ n",
      "6 9",
      "7 2",
      "a v",
      "b c",
      "b ồ",
      "d ữ",
      "d ội",
      "d õi",
      "f um",
      "g an",
      "i z",
      "l ư",
      "l uy",
      "l ạc",
      "m ua",
      "n ối",
      "n êu",
      "n ằm",
      "r è",
      "s is",
      "s lo",
      "t ang",
      "t ắc",
      "t ồn",
      "t àu",
      "v ươ",
      "v iii",
      "x ô",
      "x ứng",
      "́ ng",
      "ẫ u",
      "ặ n",
      "ng ũ",
      "ng ạch",
      "th iên",
      "th ấp",
      "tr ạng",
      "ph ước",
      "kh á",
      "kh ung",
      "ang el",
      "mạ ch",
      "ne i",
      "hđ ba",
      "hi da",
      "196 0",
      "va kia",
      "hư ng",
      "ja e",
      "kis hida",
      "fum io",
      "luy ện",
      "rè n",
      "slo vakia",
      "vươ n",
      "angel a",
      "0 3",
      "1 20",
      "4 9",
      "5 3",
      "7 3",
      "a d",
      "b ại",
      "b ạch",
      "b ru",
      "c k",
      "c ăng",
      "c ấm",
      "g e",
      "l iêm",
      "l ạp",
      "m au",
      "n đ",
      "n ar",
      "n ặng",
      "o u",
      "r ằng",
      "s ạn",
      "s àng",
      "s ôi",
      "s on",
      "t ầ",
      "t ật",
      "th iệu",
      "ch úc",
      "an mar",
      "ươ ́c",
      "ngh ìn",
      "phá i",
      "cử a",
      "2017 2022",
      "hu n",
      "to ả",
      "199 5",
      "bu ộc",
      "chi ́",
      "198 9",
      "dư ỡng",
      "sp d",
      "my anmar",
      "bru nei",
      "tầ ng",
      "0 6",
      "1 10",
      "5 6",
      "6 6",
      "8 5",
      "9 2",
      "b ãi",
      "b ạc",
      "c e",
      "c ống",
      "c su",
      "c du",
      "d ịp",
      "f i",
      "f one",
      "g ử",
      "h ằng",
      "h iếm",
      "j i",
      "l ượt",
      "m ười",
      "m ậu",
      "m ẫu",
      "n ét",
      "p e",
      "p al",
      "s y",
      "s in",
      "t ả",
      "t ôn",
      "u r",
      "v e",
      "à n",
      "è o",
      "ê ̉",
      "́ n",
      "̣ ng",
      "ị u",
      "ng ô",
      "ng ang",
      "ng ọn",
      "nh ấn",
      "th ong",
      "ch ánh",
      "kh ống",
      "kh en",
      "am a",
      "19 30",
      "trư ng",
      "xi n",
      "kho ẻ",
      "hi de",
      "la desh",
      "bang ladesh",
      "bi fone",
      "lo un",
      "mo bifone",
      "li th",
      "bu l",
      "chi le",
      "sis ou",
      "nđ cp",
      "gử i",
      "thong loun",
      "sisou lith",
      "3 2",
      "8 00",
      "b ày",
      "b ạo",
      "b ái",
      "b er",
      "b ảy",
      "b ởi",
      "c à",
      "c ân",
      "c as",
      "c ấu",
      "d er",
      "e t",
      "g p",
      "g ar",
      "h ẹp",
      "k y",
      "k ênh",
      "l y",
      "l ân",
      "l áng",
      "l ạng",
      "m ong",
      "m ắt",
      "n iềm",
      "p f",
      "p en",
      "s ẻ",
      "s an",
      "t nh",
      "t ặng",
      "u t",
      "v es",
      "w i",
      "z il",
      "ð ảng",
      "ú a",
      "đ ươ",
      "ơ ́i",
      "̀ i",
      "ề ng",
      "ng ắn",
      "th í",
      "th áo",
      "th áp",
      "ch ịu",
      "tr ừ",
      "qu ận",
      "ph e",
      "ph ổ",
      "ph ật",
      "ph ường",
      "ph ép",
      "an o",
      "gi ả",
      "gi ềng",
      "ngh e",
      "ngh i",
      "ngh ỉ",
      "ngh iên",
      "ban k",
      "trị ngoại",
      "as os",
      "vi ê",
      "el and",
      "lan d",
      "đa ̣i",
      "su ga",
      "hi hide",
      "phú t",
      "ir eland",
      "li êu",
      "bu ổi",
      "mi ễn",
      "194 6",
      "os hihide",
      "az a",
      "bra zil",
      "pra y",
      "fran c",
      "bồ i",
      "jae in",
      "fi del",
      "cas tro",
      "tnh h",
      "asos ai",
      "0 5",
      "4 00",
      "7 6",
      "b ama",
      "b úa",
      "c ờ",
      "d ược",
      "i p",
      "k è",
      "k ar",
      "k iếm",
      "l ậu",
      "l iền",
      "l es",
      "n ộ",
      "n ạn",
      "n ước",
      "o bama",
      "r ị",
      "r um",
      "s ao",
      "s al",
      "s ạch",
      "t ỏ",
      "t ốc",
      "v c",
      "v o",
      "v ẻ",
      "x ít",
      "y oshihide",
      "ê ̀",
      "ô ́c",
      "đ ỡ",
      "đ êm",
      "̀ nh",
      "̉ ng",
      "nh ỏ",
      "th a",
      "ch ục",
      "ch óng",
      "tr ù",
      "tr iệt",
      "qu e",
      "qu ốc",
      "ph ù",
      "ph ận",
      "kh ảo",
      "ngh èo",
      "202 7",
      "chủ ng",
      "oá i",
      "10 2",
      "2020 2021",
      "di n",
      "ho an",
      "do do",
      "do gan",
      "tuy ệt",
      "as hi",
      "mỹ triều",
      "ca ́c",
      "xu ống",
      "tu ý",
      "iê ̉",
      "197 6",
      "er ia",
      "er dogan",
      "can el",
      "50 0",
      "tt e",
      "su d",
      "cố t",
      "us s",
      "jo ko",
      "da v",
      "ma ha",
      "199 6",
      "ab du",
      "de ch",
      "hc m",
      "tn cs",
      "nq cp",
      "ấ t",
      "sam dech",
      "lư ỡng",
      "bul gar",
      "wi dodo",
      "pray ut",
      "franc is",
      "kè m",
      "nộ p",
      "rum ani",
      "bulgar ia",
      "0 1",
      "0 4",
      "3 54",
      "6 5",
      "8 2",
      "8 h",
      "9 3",
      "b è",
      "b ri",
      "b qh",
      "c ẩm",
      "d ặn",
      "e z",
      "f er",
      "g uel",
      "g eria",
      "h ương",
      "h el",
      "k ịch",
      "k en",
      "k iêm",
      "l l",
      "l ùi",
      "l ắk",
      "m v",
      "m ãi",
      "n ú",
      "n qu",
      "n ồng",
      "p as",
      "r àng",
      "r ạng",
      "s uy",
      "t am",
      "v p",
      "v ướng",
      "y e",
      "y o",
      "y or",
      "á âu",
      "â ̀",
      "ê ̀n",
      "đ ẳng",
      "đ ích",
      "đ ốn",
      "đ oán",
      "đ ậm",
      "đ ặng",
      "đ bqh",
      "̀ y",
      "ọ t",
      "ng ại",
      "ng ăn",
      "nh ạy",
      "th ụ",
      "th ác",
      "th iểu",
      "th iệt",
      "th ắt",
      "th ích",
      "th ể",
      "ch ar",
      "ch ano",
      "tr à",
      "tr ầm",
      "an e",
      "kh ôi",
      "201 2",
      "19 17",
      "ti m",
      "ti ne",
      "ho ãn",
      "12 5",
      "12 6",
      "2022 2027",
      "đó i",
      "thu ế",
      "co p",
      "tố n",
      "ar o",
      "tư ờng",
      "el iz",
      "in ton",
      "16 h",
      "đô ̀ng",
      "ap pf",
      "hi to",
      "la tinh",
      "hu ế",
      "lo s",
      "es tine",
      "mo ham",
      "cổ ng",
      "199 3",
      "200 7",
      "man et",
      "mi guel",
      "abe th",
      "az canel",
      "má u",
      "cl mv",
      "cl inton",
      "btv qh",
      "67 1",
      "av ũng",
      "pal estine",
      "ves ak",
      "rị avũng",
      "sud an",
      "bri cs",
      "ken ya",
      "nú i",
      "nqu btvqh",
      "yor k",
      "chano cha",
      "eliz abeth",
      "0 8",
      "3 3",
      "3 4",
      "5 2",
      "7 9",
      "a t",
      "b á",
      "b é",
      "b ay",
      "b we",
      "c n",
      "c ze",
      "d ắt",
      "d ri",
      "d ạng",
      "e ̂",
      "e nd",
      "h e",
      "h ại",
      "h ăng",
      "h iê",
      "h ỏi",
      "k aza",
      "l z",
      "l á",
      "l ề",
      "l iều",
      "l ận",
      "l as",
      "l oài",
      "l iềm",
      "m ác",
      "m tt",
      "m ưu",
      "o ce",
      "p er",
      "r ẽ",
      "s é",
      "s tan",
      "s óng",
      "t ú",
      "t ức",
      "t ụng",
      "t land",
      "u ̉",
      "w ar",
      "x h",
      "x ướng",
      "x xii",
      "z a",
      "z am",
      "z im",
      "ò i",
      "ó i",
      "đ em",
      "đ òn",
      "́ t",
      "ỳ nh",
      "ng ờ",
      "ng ài",
      "ng ừa",
      "nh ớ",
      "th ang",
      "ch iế",
      "ch ấn",
      "tr ời",
      "tr ừng",
      "qu ần",
      "20 00",
      "an bank",
      "kh iến",
      "kh ép",
      "kh stan",
      "nam hoa",
      "202 8",
      "ai c",
      "ra ck",
      "khoá n",
      "ti êm",
      "2023 2028",
      "2022 2026",
      "vi ễn",
      "nd a",
      "xi co",
      "vị nh",
      "ba bwe",
      "ba rack",
      "phòng an",
      "tu ân",
      "nga ̀y",
      "in a",
      "re s",
      "197 2",
      "13 2",
      "huy ết",
      "17 0",
      "hi ll",
      "la ̀",
      "bi que",
      "196 5",
      "mo r",
      "mo di",
      "mo zam",
      "nó ng",
      "199 8",
      "mar k",
      "mar ine",
      "200 3",
      "200 5",
      "200 8",
      "198 0",
      "198 6",
      "198 8",
      "me xico",
      "uel a",
      "na to",
      "sco tland",
      "bo l",
      "ter res",
      "ế n",
      "gu terres",
      "2011 2016",
      "bc đ",
      "nar end",
      "chí nh",
      "đươ ̣c",
      "trù m",
      "dav os",
      "cze ch",
      "kaza khstan",
      "mtt q",
      "oce anbank",
      "zim babwe",
      "chiế c",
      "mozam bique",
      "narend ra",
      "0 7",
      "2 19",
      "3 8",
      "5 8",
      "6 2",
      "6 4",
      "7 4",
      "7 00",
      "9 4",
      "a h",
      "b đ",
      "b ề",
      "b ức",
      "b en",
      "b út",
      "b áu",
      "c ch",
      "c po",
      "d ày",
      "d ạy",
      "f re",
      "g m",
      "g ấp",
      "g ang",
      "g ắng",
      "g ọn",
      "g dp",
      "h ấp",
      "h iển",
      "h ar",
      "h ái",
      "h im",
      "j e",
      "j an",
      "j er",
      "j cpo",
      "k e",
      "k l",
      "k u",
      "k í",
      "k iệt",
      "k on",
      "l đ",
      "l en",
      "l la",
      "l ửa",
      "m ông",
      "m ật",
      "m ôn",
      "n ô",
      "n ang",
      "o l",
      "p t",
      "p an",
      "p vn",
      "r is",
      "r ệt",
      "s k",
      "s ay",
      "s úng",
      "s ri",
      "s áu",
      "t g",
      "t ỉ",
      "t ách",
      "t ĩnh",
      "t úng",
      "t ế",
      "t àn",
      "u ne",
      "u hito",
      "v ay",
      "v en",
      "v óc",
      "v ọt",
      "w a",
      "w ashi",
      "x gp",
      "y ip",
      "z uela",
      "ã o",
      "ê ̃",
      "ê ̣",
      "ô ́",
      "đ e",
      "đ t",
      "đ ống",
      "đ òi",
      "ũ i",
      "́ p",
      "̉ nh",
      "̣ p",
      "ẹ n",
      "ứ a",
      "ng ữ",
      "ng ợi",
      "ng ôi",
      "ng ton",
      "nh ì",
      "nh ẹ",
      "nh ắc",
      "nh ảy",
      "th ù",
      "th ẻ",
      "th oái",
      "th pt",
      "ch inh",
      "ch âm",
      "ch ạy",
      "ch ói",
      "tr u",
      "tr ăng",
      "tr ôi",
      "tr ọn",
      "tr uss",
      "ph a",
      "ph o",
      "20 50",
      "20 45",
      "an is",
      "gi ác",
      "gi án",
      "nam lào",
      "ngh ề",
      "ngh ênh",
      "ra l",
      "19 11",
      "19 55",
      "ang ri",
      "dự a",
      "lu ân",
      "cử u",
      "di azcanel",
      "hoà i",
      "ti ̉nh",
      "11 2",
      "ay e",
      "the n",
      "vi êm",
      "khi êm",
      "ca p",
      "al em",
      "ar d",
      "ne va",
      "ne zuela",
      "bố n",
      "15 0",
      "gó i",
      "tu m",
      "18 20",
      "tt ar",
      "tt xgp",
      "um a",
      "hu ỳnh",
      "bang ko",
      "to p",
      "tp p",
      "us alem",
      "si pas",
      "qđ nd",
      "196 7",
      "ma d",
      "199 9",
      "mar tin",
      "200 2",
      "hô ̣i",
      "ri za",
      "cp tpp",
      "ha ̀ng",
      "194 9",
      "ja kar",
      "ru tte",
      "sh angri",
      "ham as",
      "sco tt",
      "ara b",
      "bra him",
      "tay yip",
      "av g",
      "ge neva",
      "nar uhito",
      "sy riza",
      "sin ki",
      "ve nezuela",
      "hel sinki",
      "char les",
      "bé n",
      "hiê ̣n",
      "sé c",
      "ủ y",
      "hill ary",
      "bđ kh",
      "cch c",
      "jer usalem",
      "jcpo a",
      "une sco",
      "washi ngton",
      "ễ n",
      "bangko k",
      "jakar ta",
      "shangri la",
      "0 2",
      "2 20",
      "3 48",
      "5 1",
      "5 7",
      "6 50",
      "8 8",
      "9 1",
      "9 8",
      "9 00",
      "a c",
      "a f",
      "b r",
      "b ai",
      "b ăng",
      "b ách",
      "b al",
      "b in",
      "c ú",
      "c ây",
      "c ắt",
      "c ãi",
      "c ep",
      "c 03",
      "d òng",
      "d arus",
      "d uma",
      "f f",
      "g ì",
      "g ốc",
      "g ra",
      "g ũi",
      "h al",
      "h 30",
      "i d",
      "i k",
      "i brahim",
      "j r",
      "k s",
      "k ề",
      "k ạn",
      "k or",
      "l ữ",
      "l in",
      "l ọi",
      "l ắp",
      "l ạnh",
      "m ất",
      "m el",
      "m ừng",
      "m ec",
      "m un",
      "m óng",
      "n n",
      "n òng",
      "n ôi",
      "n and",
      "n or",
      "o p",
      "o anh",
      "p n",
      "q er",
      "q ali",
      "r ượ",
      "r ia",
      "r in",
      "s chu",
      "t c",
      "t ệ",
      "t ạc",
      "u gan",
      "u ttar",
      "v u",
      "v ác",
      "v ắng",
      "v ới",
      "v ề",
      "v ks",
      "w ho",
      "x ứ",
      "x xi",
      "z an",
      "â ̀n",
      "â ̣n",
      "ð ại",
      "ó n",
      "đ u",
      "đ inh",
      "đ ịch",
      "đ ập",
      "đ ôi",
      "đ hđ",
      "đ ạp",
      "đ ề",
      "đ ến",
      "ư ́c",
      "ư ỡng",
      "́ nh",
      "̣ ̂",
      "ề m",
      "ng ời",
      "ng ưỡng",
      "nh iệt",
      "nh ịp",
      "th ô",
      "th ai",
      "th ắn",
      "th ắm",
      "th ép",
      "th ềm",
      "ch ao",
      "ch el",
      "ch ào",
      "ch ênh",
      "ch ức",
      "tr ống",
      "tr ục",
      "tr úc",
      "tr ánh",
      "qu ê",
      "qu át",
      "ph ùng",
      "an war",
      "gi ó",
      "gi ấy",
      "kh iển",
      "kh âu",
      "am e",
      "chí n",
      "nam cuba",
      "ra long",
      "19 12",
      "19 31",
      "lu ồng",
      "lu xem",
      "trị an",
      "10 8",
      "di ễn",
      "2021 2025",
      "2021 2030",
      "11 13",
      "do ạ",
      "12 9",
      "thu ột",
      "thu ẫn",
      "co s",
      "co is",
      "al geria",
      "lớ p",
      "ar ma",
      "ne s",
      "2018 2023",
      "ninh quốc",
      "el s",
      "el la",
      "hoá xã",
      "ba f",
      "ba qer",
      "giá p",
      "thi r",
      "30 0",
      "iê ́n",
      "re cep",
      "thị t",
      "197 4",
      "197 8",
      "lan ka",
      "22 h",
      "er bai",
      "18 90",
      "on i",
      "ty ̉",
      "pu an",
      "đa ̉ng",
      "su l",
      "su ất",
      "hu ấn",
      "chu ̉",
      "duy ên",
      "us e",
      "si l",
      "196 2",
      "196 4",
      "es per",
      "so s",
      "ma du",
      "ma har",
      "199 0",
      "li z",
      "bu r",
      "va ji",
      "lệ ch",
      "mar x",
      "mar cos",
      "200 6",
      "gh anis",
      "sa ́ng",
      "de i",
      "de z",
      "ro man",
      "ro dri",
      "cp p",
      "aipa 44",
      "ha ̀",
      "194 1",
      "cs đt",
      "36 4",
      "ya w",
      "cư ̉",
      "te cho",
      "az erbai",
      "go ́p",
      "vô ́n",
      "cl v",
      "bo ur",
      "ter s",
      "pra desh",
      "và o",
      "195 2",
      "195 9",
      "fran cois",
      "der ik",
      "nghi ̣",
      "viê ̣t",
      "sal am",
      "sal man",
      "vc ci",
      "maha thir",
      "abdu lla",
      "francis co",
      "ầ u",
      "cop 28",
      "moham mad",
      "ê ̉",
      "mor ris",
      "fre derik",
      "ac mec",
      "af ghanis",
      "darus salam",
      "kor n",
      "nand ez",
      "qali baf",
      "rượ u",
      "schu lz",
      "ugan da",
      "vks nd",
      "ralong korn",
      "luxem bour",
      "mahar ani",
      "vaji ralongkorn",
      "azerbai jan",
      "morris on",
      "acmec s",
      "afghanis tan",
      "luxembour g",
      "2 25",
      "4 45",
      "4 70",
      "6 1",
      "6 00",
      "7 1",
      "8 7",
      "9 6",
      "9 12",
      "a g",
      "a j",
      "b e",
      "b h",
      "b ùng",
      "b on",
      "b us",
      "b iể",
      "b ão",
      "c d",
      "c ù",
      "c ũ",
      "c ang",
      "c âu",
      "c ởi",
      "c tn",
      "c los",
      "d g",
      "d ễ",
      "d ị",
      "d ời",
      "d iệu",
      "d ùng",
      "d iệt",
      "d ường",
      "d àng",
      "d ừng",
      "d âng",
      "d ốt",
      "d ám",
      "f an",
      "f di",
      "f or",
      "g ay",
      "g ánh",
      "g òn",
      "g aza",
      "g las",
      "h ẳ",
      "h uỷ",
      "h iếu",
      "h er",
      "i e",
      "j u",
      "j on",
      "j us",
      "k re",
      "k iềm",
      "k ur",
      "l ó",
      "l ẫ",
      "l au",
      "l ăng",
      "l ạm",
      "l ar",
      "l ái",
      "l on",
      "l ừng",
      "l ma",
      "l ỗi",
      "m ãn",
      "m lin",
      "n 1",
      "n ấ",
      "n an",
      "n is",
      "o c",
      "o ay",
      "o do",
      "p vc",
      "p vp",
      "q g",
      "r y",
      "r ực",
      "r ãi",
      "r ón",
      "s ch",
      "s iết",
      "s ài",
      "s ánh",
      "s er",
      "s to",
      "s te",
      "s dg",
      "t ề",
      "t ờ",
      "t ai",
      "t vi",
      "t ôi",
      "t óm",
      "t va",
      "t ali",
      "t ầ",
      "u ru",
      "u ane",
      "u ard",
      "u ters",
      "v í",
      "v ỡ",
      "v ết",
      "v ấp",
      "v ẹn",
      "w er",
      "w ab",
      "x ương",
      "x ay",
      "x oay",
      "y ́",
      "y ame",
      "z iz",
      "á y",
      "â ̣t",
      "é o",
      "ô m",
      "ô ̣c",
      "đ á",
      "đ ă",
      "đ ỏ",
      "đ ồ",
      "ư ̃",
      "́ m",
      "́ o",
      "̉ i",
      "̉ n",
      "̣ m",
      "̣ nh",
      "ồ i",
      "ớ p",
      "ng ai",
      "ng oái",
      "nh ờ",
      "nh ất",
      "th ồ",
      "th ươ",
      "th ải",
      "th iệp",
      "th on",
      "th ấm",
      "ch e",
      "ch ân",
      "ch iếu",
      "ch en",
      "ch ặng",
      "ch áu",
      "ch ặn",
      "ch ứa",
      "ch áy",
      "ch ớp",
      "tr ữ",
      "tr ăm",
      "tr ật",
      "tr ấn",
      "tr iết",
      "ph ai",
      "ph ra",
      "ph ụng",
      "ph no",
      "ph arma",
      "an u",
      "an ca",
      "an ton",
      "an thon",
      "gi ữ",
      "kh úc",
      "kh ái",
      "kh ơi",
      "am m",
      "nam trung",
      "đã i",
      "ai t",
      "quy ền",
      "oá ng",
      "ban es",
      "cá i",
      "cu ộc",
      "lu i",
      "10 4",
      "di lma",
      "ti can",
      "11 1",
      "11 3",
      "do r",
      "do uard",
      "2023 2025",
      "sau d",
      "12 7",
      "12 8",
      "lã i",
      "thu ý",
      "thu ̉",
      "vi sa",
      "co b",
      "ca r",
      "al a",
      "al ex",
      "al banes",
      "2019 2024",
      "ne tan",
      "ne xay",
      "khu ất",
      "ba ̉",
      "mại đầu",
      "tu nis",
      "truy ền",
      "re uters",
      "14 9",
      "14 17",
      "13 3",
      "22 9",
      "22 25",
      "lên in",
      "đi ̣nh",
      "18 0",
      "18 4",
      "ub tv",
      "17 1",
      "hạ ch",
      "đa ̃",
      ".. ..",
      "la f",
      "la zo",
      "la ziz",
      "27 0",
      "tri ̣",
      "to sa",
      "đo a",
      "us se",
      "si êu",
      "si ham",
      "si phan",
      "bi as",
      "bi ể",
      "jo m",
      "jo mar",
      "qđ tw",
      "lo u",
      "un clos",
      "du ter",
      "es t",
      "es te",
      "mo ha",
      "mo sk",
      "mo ral",
      "so m",
      "so nexay",
      "li tva",
      "and er",
      "va tican",
      "mar oc",
      "200 9",
      "ri nda",
      "pa dei",
      "198 2",
      "ns nn",
      "lh pn",
      "de au",
      "ro usse",
      "ké m",
      "me tte",
      "le o",
      "le y",
      "mi chel",
      "1945 1954",
      "aipa 43",
      "99 9",
      "ha ̀nh",
      "na ra",
      "194 3",
      "194 8",
      "tan zan",
      "ine a",
      "ru z",
      "ya hu",
      "ex po",
      "go w",
      "75 1",
      "ngo a",
      "2010 2015",
      "philipp e",
      "48 7",
      "ế t",
      "tô ̉ng",
      "gu ay",
      "gu inea",
      "1971 1975",
      "ni co",
      "ni geria",
      "se ̃",
      "ấ p",
      "nhi uane",
      "del hi",
      "sen tosa",
      "nhu ần",
      "1954 1975",
      "1960 1976",
      "ad y",
      "son aro",
      "pe nh",
      "sy ria",
      "ky ̀",
      "đươ ̀ng",
      "ip sos",
      "vo lo",
      "iể m",
      "uss els",
      "abdu laziz",
      "yo on",
      "huế đà",
      "moham ad",
      "cn tt",
      "mác lênin",
      "2005 2010",
      "bol sonaro",
      "gm s",
      "je an",
      "kl aus",
      "kí nh",
      "nô ̣i",
      "pan mun",
      "tg đ",
      "tru deau",
      "aye yaw",
      "cap ella",
      "br ussels",
      "bal moral",
      "cú m",
      "nor odo",
      "thô ́ng",
      "sul tan",
      "esper anca",
      "madu ro",
      "bur g",
      "rodri go",
      "abdulla h",
      "frederik sen",
      "glas gow",
      "hẳ n",
      "her nandez",
      "jus tin",
      "kre mlin",
      "lẫ y",
      "lau rinda",
      "nấ c",
      "sch wab",
      "tầ m",
      "uru guay",
      "phno m",
      "anton io",
      "anthon y",
      "alex ander",
      "albanes e",
      "netan yahu",
      "tunis ia",
      "ubtv qh",
      "siham oni",
      "biể u",
      "duter te",
      "este ban",
      "mosk va",
      "rousse ff",
      "tanzan ia",
      "panmun jom",
      "ayeyaw ady",
      "norodo m",
      "1 30",
      "2 14",
      "2 13",
      "2 129",
      "3 12",
      "3 17",
      "3 50",
      "3 26",
      "3 70",
      "3 60",
      "4 20",
      "4 10",
      "4 50",
      "4 99",
      "4 68",
      "5 78",
      "5 93",
      "5 n1",
      "8 1",
      "8 3",
      "8 10",
      "8 60",
      "8 80",
      "8 75",
      "8 68",
      "8 445",
      "9 7",
      "9 h",
      "9 19",
      "9 11",
      "9 47",
      "9 85",
      "a ́",
      "a qu",
      "a ec",
      "a ko",
      "b b",
      "b j",
      "b m",
      "b n",
      "b nd",
      "b ắn",
      "b ám",
      "b ali",
      "b ashi",
      "b ầu",
      "c q",
      "c t",
      "c ô",
      "c ừ",
      "c ong",
      "c ốc",
      "c ành",
      "c ảng",
      "c tt",
      "c to",
      "c ro",
      "c ruz",
      "c ấp",
      "d y",
      "d í",
      "d ụ",
      "d iên",
      "d ây",
      "d ấn",
      "d âm",
      "d ub",
      "d da",
      "d ro",
      "d ép",
      "d ệt",
      "e a",
      "e y",
      "e tin",
      "e thi",
      "e douard",
      "f l",
      "f it",
      "f il",
      "f gang",
      "f ven",
      "g r",
      "g ai",
      "g ạo",
      "g lu",
      "g ách",
      "g ặt",
      "h r",
      "h â",
      "h ủ",
      "h ổi",
      "h as",
      "h ứng",
      "h vi",
      "h ôn",
      "h in",
      "h át",
      "h òn",
      "h ane",
      "h ệ",
      "h ẹn",
      "h ứa",
      "h cap",
      "i c",
      "i ta",
      "i hito",
      "j am",
      "j ai",
      "j in",
      "j un",
      "k t",
      "k ì",
      "k as",
      "k al",
      "k em",
      "k to",
      "k it",
      "k ki",
      "k aye",
      "k nes",
      "l b",
      "l d",
      "l í",
      "l ô",
      "l ẻ",
      "l ật",
      "l do",
      "l ường",
      "l lan",
      "l is",
      "l ni",
      "l ọt",
      "l aro",
      "m c",
      "m p",
      "m ã",
      "m ú",
      "m ơ",
      "m ỏ",
      "m ực",
      "m âu",
      "m vi",
      "m ẫn",
      "m in",
      "m en",
      "m is",
      "m on",
      "m pu",
      "m ỏi",
      "m ùi",
      "m ệt",
      "m ới",
      "m nang",
      "m use",
      "m jomar",
      "n u",
      "n ổ",
      "n ương",
      "n on",
      "n ốt",
      "o a",
      "o di",
      "o as",
      "o man",
      "o sa",
      "o mi",
      "o bra",
      "o il",
      "o ly",
      "o laf",
      "p 5",
      "p gi",
      "p au",
      "p ca",
      "p ctn",
      "q at",
      "r à",
      "r ơ",
      "r ủ",
      "r am",
      "r ồng",
      "r ập",
      "r áo",
      "r iết",
      "r im",
      "r ừng",
      "r us",
      "r ơi",
      "r ama",
      "s t",
      "s ổ",
      "s ụ",
      "s ti",
      "s cho",
      "s re",
      "s ắt",
      "s con",
      "s ab",
      "s abe",
      "s ha",
      "s ít",
      "s àn",
      "s ố",
      "t b",
      "t ạ",
      "t ị",
      "t ươ",
      "t iệp",
      "t ùng",
      "t en",
      "t ta",
      "t oát",
      "t ka",
      "t aly",
      "t gp",
      "t tha",
      "t est",
      "u p",
      "u z",
      "u ế",
      "u hu",
      "u lou",
      "v d",
      "v ư",
      "v an",
      "v ân",
      "v ong",
      "v ời",
      "v ắc",
      "v ũng",
      "v ya",
      "v ấ",
      "v chen",
      "v vd",
      "w cs",
      "w ol",
      "w ait",
      "x ỉ",
      "x ấp",
      "x ăng",
      "x as",
      "y as",
      "z man",
      "z ak",
      "â ̣p",
      "đ ổ",
      "đ ản",
      "đ áo",
      "đ cs",
      "đ ặn",
      "đ ất",
      "đ ầu",
      "đ iểm",
      "ơ ̉",
      "̀ u",
      "́ a",
      "̃ ng",
      "̉ m",
      "̛ ̣",
      "̛ ́c",
      "̛ ̣c",
      "̣ o",
      "̣ u",
      "ễ m",
      "ễ u",
      "ỏ ng",
      "ộ n",
      "ờ n",
      "ng õ",
      "ng ao",
      "ng ược",
      "ng ạc",
      "ng ẫu",
      "ng àn",
      "nh ạt",
      "nh iê",
      "nh ãn",
      "nh ôm",
      "th ự",
      "th an",
      "th uy",
      "th âu",
      "th ánh",
      "th ắp",
      "th ậm",
      "th ế",
      "th oáng",
      "ch ăn",
      "ch ùng",
      "ch es",
      "ch èo",
      "ch iến",
      "ch lb",
      "tr ươ",
      "tr iể",
      "qu ỹ",
      "qu anh",
      "qu ật",
      "qu vết",
      "ph eu",
      "ph one",
      "20 7",
      "an t",
      "an tan",
      "gi o",
      "gi ết",
      "gi ống",
      "gi áng",
      "gi ỏi",
      "gi ns",
      "gi ới",
      "gi use",
      "gi sti",
      "kh a",
      "kh ang",
      "kh éo",
      "nam nhật",
      "nam thái",
      "nam hàn",
      "ngh ệ",
      "là ng",
      "chính ngân",
      "ai d",
      "ai po",
      "quy ết",
      "thư ́",
      "ra zak",
      "19 h",
      "19 20",
      "19 25",
      "19 22",
      "19 18",
      "19 29",
      "19 40",
      "19 01",
      "19 h30",
      "lu ận",
      "lu mpu",
      "lu scon",
      "au de",
      "10 1",
      "10 3",
      "10 5",
      "10 7",
      "10 12",
      "di ễu",
      "ti sco",
      "ti mor",
      "11 4",
      "11 5",
      "11 8",
      "11 h",
      "11 85",
      "qua y",
      "nhà ng",
      "ay a",
      "ho ạ",
      "ho ành",
      "ho ̣̂",
      "ho llan",
      "12 1",
      "12 4",
      "12 17",
      "tiế c",
      "2022 2023",
      "vi o",
      "vi ch",
      "vi nd",
      "vi er",
      "vi sin",
      "vi cto",
      "vi etin",
      "vi kto",
      "vi lni",
      "vi up",
      "co ́",
      "ca ̉",
      "al th",
      "al sis",
      "ar i",
      "ar t",
      "ar te",
      "tư ̣",
      "ne n",
      "ne o",
      "ne pal",
      "2018 2021",
      "asean 3",
      "khu bnd",
      "chuy ể",
      "ba ́c",
      "như ̃ng",
      "15 4",
      "15 8",
      "15 19",
      "gó c",
      "tu ỳ",
      "tu sk",
      "thi ênh",
      "2016 2020",
      "30 5",
      "re ro",
      "25 0",
      "25 2",
      "en s",
      "197 9",
      "14 0",
      "14 4",
      "14 69",
      "is mai",
      "13 1",
      "13 4",
      "13 5",
      "13 6",
      "13 15",
      "22 2",
      "ta ̣i",
      "18 5",
      "18 9",
      "hđ bc",
      "28 8",
      "23 4",
      "23 26",
      "huy ền",
      "16 3",
      "16 8",
      "17 5",
      "17 7",
      "17 h",
      "im a",
      "im ah",
      "im antan",
      "pu a",
      "tt b",
      "đa ̀i",
      "đa ́nh",
      "đô ̣c",
      "đô ̣ng",
      "em mer",
      "45 4",
      "45 6",
      "45 8",
      "su k",
      "su u",
      "hi ̀nh",
      "la v",
      "la tvi",
      "24 4",
      "hu s",
      "chu ộng",
      "to u",
      "to ky",
      "to kaye",
      "đo ́",
      "con te",
      "duy ệt",
      "hộ p",
      "us aid",
      "26 5",
      "29 7",
      "bi ́",
      "lo fven",
      "lo vchen",
      "lo gisti",
      "lộ n",
      "un nh",
      "po e",
      "po le",
      "po ulou",
      "da vid",
      "196 3",
      "196 9",
      "196 78",
      "du arte",
      "mo ldo",
      "đua khen",
      "so i",
      "so bo",
      "199 7",
      "199 22",
      "li cd",
      "bu ồn",
      "rai si",
      "campuchia lào",
      "mar in",
      "mar rero",
      "dục thể",
      "dục đào",
      "200 1",
      "hô ̀",
      "hô ̀i",
      "ri ya",
      "phu ̉",
      "phu ̣c",
      "1973 2022",
      "1973 22",
      "man i",
      "or ban",
      "or ge",
      "pa che",
      "pa pua",
      "tho tou",
      "198 1",
      "198 3",
      "198 5",
      "198 7",
      "par k",
      "54 7",
      "sa kel",
      "sa ̉n",
      "lai nen",
      "ro u",
      "ro xas",
      "ro vich",
      "me tro",
      "mi cha",
      "hy id",
      "mô ̣t",
      "2013 2023",
      "2013 2018",
      "99 1",
      "99 5",
      "99 43",
      "ha ji",
      "ha dda",
      "ci o",
      "ci ty",
      "na th",
      "na ji",
      "194 7",
      "36 3",
      "36 5",
      "ja va",
      "pp e",
      "pp p",
      "ya cob",
      "ya ako",
      "ya thotou",
      "ko vind",
      "go lovchen",
      "mu ham",
      "mu hyid",
      "sư ̣",
      "israel hamas",
      "75 2",
      "37 2",
      "68 8",
      "bel len",
      "cl aude",
      "mekong lan",
      "95 8",
      "95 14",
      "bo li",
      "joh n",
      "ak p",
      "ak ka",
      "ak ihito",
      "ter ina",
      "tre o",
      "47 2",
      "47 68",
      "ka gu",
      "ka bul",
      "ka terina",
      "kia h",
      "no i",
      "no bel",
      "no ́i",
      "tô ̉",
      "1950 2020",
      "gu zman",
      "tn tp",
      "39 8",
      "bor neo",
      "ipu 132",
      "ki licd",
      "kis tan",
      "195 1",
      "195 3",
      "1971 2023",
      "ni kki",
      "se t",
      "nhi ̀n",
      "nhi ễm",
      "ga hr",
      "sam rin",
      "sam aj",
      "sen a",
      "1954 2019",
      "1977 2022",
      "lư ng",
      "ck er",
      "ge orge",
      "pe z",
      "pe dro",
      "sy mjomar",
      "ve hvi",
      "ber mú",
      "ber luscon",
      "ky i",
      "san al",
      "viê ng",
      "viê ̣c",
      "les te",
      "tha ̀nh",
      "tha visin",
      "din and",
      "dav ao",
      "1996 2021",
      "1996 2016",
      "8h 30",
      "fer nan",
      "fer dinand",
      "tam i",
      "vp cq",
      "ye ong",
      "ye ol",
      "yo wer",
      "tim es",
      "cop 26",
      "aro glu",
      "appf 29",
      "kenya tta",
      "52 14",
      "at f",
      "cn xh",
      "he ng",
      "he alth",
      "lá s",
      "per u",
      "1986 2021",
      "bol kiah",
      "ben jam",
      "gm t",
      "ku ala",
      "ku wait",
      "kí n",
      "lđ lđ",
      "len in",
      "pan y",
      "say som",
      "ven i",
      "pho ̀ng",
      "pho mvi",
      "2002 2007",
      "gra ham",
      "gra ce",
      "hal ey",
      "hal imah",
      "op ia",
      "vu i",
      "vu ̣",
      "đu ổi",
      "sil va",
      "sil vio",
      "marx lenin",
      "roman ia",
      "87 16",
      "ag wa",
      "bh xh",
      "bus h",
      "biể u",
      "ie bc",
      "ju an",
      "jon as",
      "kur d",
      "ló pez",
      "lon don",
      "ser bia",
      "sto re",
      "ste fan",
      "tali ban",
      "yame kong",
      "đă ̣c",
      "thươ ̀ng",
      "phra yamekong",
      "bả o",
      "siphan done",
      "ngoa ̣i",
      "nico las",
      "volo din",
      "jean claude",
      "ayeyawady chao",
      "aqu in",
      "bj p",
      "bm s",
      "bashi r",
      "cong o",
      "ctt tg",
      "dí azcanel",
      "dub ai",
      "ethi opia",
      "fl c",
      "gr dp",
      "hâ ̣u",
      "has sanal",
      "hcap ita",
      "jai r",
      "jun cker",
      "kt xh",
      "kas symjomar",
      "kal imantan",
      "kem al",
      "knes set",
      "lí nh",
      "lis bon",
      "laro poulou",
      "mp ic",
      "mnang agwa",
      "muse veni",
      "nu ôi",
      "odi nga",
      "osa ka",
      "obra dor",
      "oly mpic",
      "pau l",
      "pctn tc",
      "qat ar",
      "st art",
      "scho lz",
      "sre ttha",
      "sab ri",
      "sabe co",
      "sha h",
      "tgp t",
      "uhu ru",
      "vư ờn",
      "vya ches",
      "vấ n",
      "wcs p5",
      "wol fgang",
      "yas sin",
      "nhiê ̣m",
      "thuy ền",
      "triể n",
      "giuse ppe",
      "lumpu r",
      "hộ i",
      "hollan de",
      "vietin bank",
      "vilni us",
      "alsis i",
      "chuyể n",
      "thiênh uế",
      "ismai l",
      "hđbc qg",
      "emmer son",
      "latvi a",
      "toky o",
      "tokaye v",
      "moldo va",
      "sobo tka",
      "pache co",
      "sakel laropoulou",
      "metro pole",
      "micha el",
      "hadda d",
      "naji b",
      "yaako b",
      "golovchen ko",
      "muhyid din",
      "kagu ta",
      "kilicd aroglu",
      "vehvi lainen",
      "bermú dez",
      "berluscon i",
      "fernan do",
      "vpcq csđt",
      "yower i",
      "benjam in",
      "saysom phone",
      "phomvi hane",
      "kassymjomar t",
      "vyaches lav",
      "0 9",
      "0 11",
      "0 13",
      "0 22",
      "0 21",
      "0 37",
      "0 68",
      "0 35",
      "0 78",
      "0 89",
      "0 92",
      "0 76",
      "0 91",
      "1 h",
      "1 19",
      "1 2017",
      "1 200",
      "1 1946",
      "1 2008",
      "2 11",
      "2 30",
      "2 18",
      "2 16",
      "3 c",
      "3 h",
      "3 19",
      "3 45",
      "3 24",
      "3 27",
      "3 1975",
      "3 55",
      "3 37",
      "3 39",
      "3 82",
      "4 g",
      "4 11",
      "4 25",
      "4 14",
      "4 17",
      "4 24",
      "4 1975",
      "4 36",
      "4 37",
      "4 1971",
      "4 1976",
      "5 a",
      "5 g",
      "5 s",
      "5 19",
      "5 10",
      "5 11",
      "5 2019",
      "5 2016",
      "5 25",
      "5 13",
      "5 21",
      "5 45",
      "5 99",
      "5 37",
      "5 68",
      "5 95",
      "5 67",
      "5 89",
      "5 2011",
      "5 77",
      "5 86",
      "5 1960",
      "5 92",
      "5 76",
      "5 82",
      "5 94",
      "5 363",
      "6 h",
      "6 đ",
      "6 20",
      "6 30",
      "6 25",
      "6 13",
      "6 23",
      "6 17",
      "6 31",
      "6 70",
      "6 40",
      "6 99",
      "6 55",
      "6 48",
      "6 1971",
      "6 56",
      "6 1964",
      "7 20",
      "7 2016",
      "7 30",
      "7 25",
      "7 50",
      "7 21",
      "7 29",
      "7 40",
      "7 99",
      "7 44",
      "7 95",
      "8 11",
      "8 2019",
      "8 30",
      "8 13",
      "8 18",
      "8 2015",
      "8 16",
      "8 21",
      "8 54",
      "8 99",
      "8 55",
      "8 48",
      "8 39",
      "8 42",
      "8 372",
      "8 958",
      "9 10",
      "9 25",
      "9 14",
      "9 18",
      "9 17",
      "9 45",
      "9 29",
      "9 44",
      "9 68",
      "9 41",
      "9 67",
      "9 1977",
      "9 72",
      "9 49",
      "9 71",
      "9 104",
      "9 398",
      "a gi",
      "a ung",
      "a vi",
      "a ta",
      "a pu",
      "a đa",
      "a tri",
      "a đơn",
      "a go",
      "a ̀n",
      "a ́n",
      "a than",
      "b 5",
      "b f",
      "b y",
      "b ê",
      "b ô",
      "b ờ",
      "b ội",
      "b lu",
      "b as",
      "b ar",
      "b àng",
      "b ụng",
      "b is",
      "b em",
      "b hu",
      "b ấy",
      "b ec",
      "b ưu",
      "b es",
      "b ọc",
      "b cs",
      "b os",
      "b ứt",
      "b sp",
      "b ước",
      "b ố",
      "b iến",
      "b unnh",
      "b yeong",
      "c y",
      "c ọ",
      "c ồ",
      "c ộ",
      "c ản",
      "c ấn",
      "c ứng",
      "c úng",
      "c ec",
      "c ồn",
      "c ci",
      "c ki",
      "c ố",
      "c rim",
      "d d",
      "d h",
      "d l",
      "d m",
      "d ã",
      "d ỡ",
      "d iệ",
      "d ốc",
      "d ối",
      "d ai",
      "d ao",
      "d iều",
      "d lu",
      "d ải",
      "d ho",
      "d ar",
      "d ẹp",
      "d hu",
      "d ấy",
      "d ẳng",
      "d ọc",
      "d ấ",
      "d ve",
      "d ịu",
      "d vc",
      "d din",
      "d ói",
      "d ồi",
      "e d",
      "e g",
      "e i",
      "e ng",
      "e as",
      "e vi",
      "e xi",
      "e con",
      "e ec",
      "e vo",
      "e dri",
      "e ke",
      "e ol",
      "e brahim",
      "e ̣̂",
      "e visa",
      "f 0",
      "f lu",
      "f as",
      "f ia",
      "f ar",
      "f el",
      "f ta",
      "f po",
      "f ri",
      "f dp",
      "f az",
      "f cc",
      "f ur",
      "f at",
      "f tali",
      "f ed",
      "g s",
      "g é",
      "g uy",
      "g án",
      "g ợi",
      "g ắt",
      "g on",
      "g eu",
      "g ma",
      "g ấm",
      "g or",
      "g sa",
      "g ro",
      "g no",
      "g ần",
      "g gins",
      "h l",
      "h ã",
      "h é",
      "h ề",
      "h oại",
      "h tin",
      "h ôi",
      "h is",
      "h ầm",
      "h iền",
      "h 00",
      "h ưu",
      "h rai",
      "h ơi",
      "h mu",
      "h ran",
      "h ani",
      "h ết",
      "h 5n1",
      "h ỏng",
      "h dd",
      "i j",
      "i ữ",
      "i on",
      "i đa",
      "i pap",
      "i ep",
      "i ana",
      "i wa",
      "i gno",
      "j b",
      "j ay",
      "j ab",
      "j eria",
      "j ane",
      "j ens",
      "k ê",
      "k ö",
      "k đ",
      "k ĩ",
      "k ẻ",
      "k an",
      "k iều",
      "k iê",
      "k tt",
      "k tp",
      "k ir",
      "k and",
      "k ế",
      "k tn",
      "k ể",
      "k los",
      "k ina",
      "k iến",
      "k yaw",
      "k iểm",
      "l p",
      "l ơ",
      "l ở",
      "l ươ",
      "l ung",
      "l ây",
      "l ay",
      "l ăn",
      "l ia",
      "l át",
      "l ẩn",
      "l ít",
      "l ton",
      "l õi",
      "l úa",
      "l ần",
      "l ten",
      "l ập",
      "l ỏng",
      "l ima",
      "m d",
      "m m",
      "m n",
      "m r",
      "m ê",
      "m ì",
      "m ễ",
      "m ồ",
      "m ộ",
      "m ờ",
      "m ỷ",
      "m ến",
      "m ạo",
      "m as",
      "m ái",
      "m ường",
      "m ầm",
      "m es",
      "m ọc",
      "m óc",
      "m bia",
      "m bo",
      "m ão",
      "m ũi",
      "m 5s",
      "n ă",
      "n ề",
      "n ợ",
      "n ới",
      "n iê",
      "n nông",
      "n ix",
      "n ạp",
      "n út",
      "n bc",
      "n ur",
      "n àn",
      "n vp",
      "n ền",
      "n lđ",
      "n ão",
      "n ld",
      "n jab",
      "o m",
      "o t",
      "o an",
      "o li",
      "o mar",
      "o it",
      "o vay",
      "o ́m",
      "o dlu",
      "o jb",
      "p d",
      "p s",
      "p áo",
      "p 14",
      "p 13",
      "p so",
      "p dp",
      "p ana",
      "p yo",
      "p 51",
      "p mc",
      "p rus",
      "p yeong",
      "p 4g",
      "q r",
      "q t",
      "r d",
      "r é",
      "r ư",
      "r ỡ",
      "r ác",
      "r el",
      "r ọi",
      "r la",
      "r ắn",
      "r ley",
      "r by",
      "s ă",
      "s ợ",
      "s tr",
      "s ốc",
      "s ương",
      "s ập",
      "s as",
      "s ùng",
      "s ar",
      "s ấu",
      "s ợi",
      "s el",
      "s tra",
      "s im",
      "s hi",
      "s eu",
      "s and",
      "s ắm",
      "s ex",
      "s ter",
      "s tand",
      "s ky",
      "s lp",
      "t ê",
      "t ước",
      "t trong",
      "t ết",
      "t ần",
      "t ống",
      "t áo",
      "t el",
      "t àng",
      "t si",
      "t áp",
      "t sh",
      "t ới",
      "t ashi",
      "t ất",
      "t ần",
      "t for",
      "t ồi",
      "t ập",
      "u x",
      "u th",
      "u kh",
      "u nam",
      "u ống",
      "u thi",
      "u ran",
      "u pf",
      "u ez",
      "u riya",
      "u ei",
      "v 2",
      "v t",
      "v á",
      "v é",
      "v ê",
      "v ần",
      "v áng",
      "v al",
      "v ạn",
      "v on",
      "v ạch",
      "v ằng",
      "v or",
      "v ãng",
      "v sp",
      "v pe",
      "v ệ",
      "v bh",
      "v ật",
      "v ala",
      "w b",
      "w y",
      "w an",
      "w ong",
      "w ay",
      "w al",
      "w in",
      "w on",
      "w es",
      "w or",
      "w it",
      "w ni",
      "w he",
      "w est",
      "x y",
      "x ư",
      "x ả",
      "x áo",
      "x ưa",
      "x ích",
      "x óm",
      "x lô",
      "y an",
      "y ong",
      "y ung",
      "y ến",
      "y em",
      "y il",
      "y taly",
      "y dar",
      "z u",
      "z el",
      "z ub",
      "z em",
      "z ko",
      "z ge",
      "z hel",
      "z uma",
      "z ló",
      "z uz",
      "á z",
      "é ly",
      "é douard",
      "ê ̣n",
      "ì a",
      "ð ị",
      "ð ông",
      "ð ối",
      "ð ây",
      "ð iềm",
      "ó t",
      "ô ̉",
      "ù a",
      "ù m",
      "ă ̣t",
      "č apu",
      "đ h",
      "đ ẫ",
      "đ ệ",
      "đ ự",
      "đ ền",
      "đ ọng",
      "đ au",
      "đ ĩnh",
      "đ ạm",
      "đ iệu",
      "đ ôn",
      "đ ợi",
      "đ iê",
      "đ en",
      "đ ằng",
      "đ ốt",
      "đ ám",
      "đ ạc",
      "đ ủ",
      "đ ể",
      "đ ùm",
      "ư mi",
      "̀ o",
      "́ ch",
      "̂ ̀",
      "̂ ́i",
      "̂ ́ng",
      "̂ ́t",
      "̂ ̉m",
      "̃ u",
      "̃ y",
      "̆ ng",
      "̉ e",
      "̣ ch",
      "ẳ m",
      "ố m",
      "ớ c",
      "ờ c",
      "ỡ i",
      "ủ i",
      "ng ã",
      "ng ộ",
      "ng ước",
      "ng ươ",
      "ng ột",
      "ng au",
      "ng òi",
      "ng ồi",
      "ng iữ",
      "ng ủi",
      "nh ạ",
      "nh ị",
      "nh uy",
      "nh en",
      "nh ap",
      "nh ọn",
      "nh ựa",
      "nh ye",
      "nh nn",
      "nh ận",
      "nh ật",
      "nh óm",
      "th y",
      "th ú",
      "th ả",
      "th ờ",
      "th ở",
      "th ận",
      "th ản",
      "th ổi",
      "th êu",
      "th âm",
      "th ảm",
      "th ào",
      "th cs",
      "th ầy",
      "th ẳm",
      "ch è",
      "ch ị",
      "ch ờ",
      "ch ợ",
      "ch ứ",
      "ch ử",
      "ch ông",
      "ch ối",
      "ch ai",
      "ch ang",
      "ch au",
      "ch ạm",
      "ch iê",
      "ch is",
      "ch er",
      "ch ảy",
      "ch ap",
      "ch ắn",
      "ch ơi",
      "ch ậm",
      "ch par",
      "ch ẩu",
      "ch ara",
      "ch ak",
      "ch ất",
      "ch ez",
      "ch éo",
      "ch oáng",
      "ch ấp",
      "ch ìa",
      "ch ót",
      "ch ùa",
      "tr ân",
      "tr ai",
      "tr au",
      "tr ăn",
      "tr ạch",
      "tr ỗi",
      "tr ôm",
      "tr ở",
      "tr ộn",
      "qu ới",
      "qu ét",
      "qu en",
      "qu es",
      "qu ãng",
      "qu ỳnh",
      "ph ẩ",
      "ph iến",
      "ph ượng",
      "ph ồn",
      "ph os",
      "ph ố",
      "ph ưmi",
      "ph ớc",
      "20 3",
      "20 4",
      "20 5",
      "20 6",
      "20 86",
      "20 91977",
      "20 h00",
      "an c",
      "an đt",
      "an nes",
      "an jin",
      "và nh",
      "gi à",
      "gi ỗ",
      "gi ày",
      "gi ảng",
      "gi ồng",
      "gi àng",
      "gi ầy",
      "gi ãn",
      "gi mon",
      "gi ux",
      "kh ố",
      "kh ăng",
      "kh ôn",
      "kh ảm",
      "kh óm",
      "kh and",
      "kh ad",
      "kh bol",
      "kh ame",
      "kh hđbcqg",
      "kh ổ",
      "am y",
      "của của",
      "chí t",
      "nam nam",
      "nam liên",
      "nam pháp",
      "nam phần",
      "nam eu",
      "nam triều",
      "nam campuchia",
      "nam singapore",
      "nam na",
      "nam new",
      "nam argentina",
      "nam uae",
      "nam brunei",
      "nam bangladesh",
      "nam chile",
      "nam mông",
      "ươ m",
      "ngh am",
      "ngh iệt",
      "ngh iê",
      "ngh iêng",
      "nước dân",
      "là n",
      "inh ard",
      "tổ n",
      "quy ên",
      "quy ện",
      "dân phát",
      "thư ̣c",
      "ra c",
      "ra nh",
      "ra chi",
      "ra pa",
      "ra les",
      "ra rd",
      "ra whe",
      "ra khand",
      "tỉnh trưởng",
      "anh oa",
      "19 3",
      "19 15",
      "19 28",
      "19 36",
      "19 04",
      "19 07",
      "19 38",
      "hợ i",
      "cu el",
      "cu ̀ng",
      "ang or",
      "ang cc",
      "nhân trí",
      "áng quảng",
      "khoá t",
      "khoá ng",
      "nguy ễn",
      "lu c",
      "lu ỵ",
      "lu ỹ",
      "lu la",
      "lu ki",
      "lu iz",
      "lu ật",
      "lu ̛̣c",
      "bí ch",
      "nội điện",
      "trị xã",
      "10 6",
      "10 15",
      "10 2014",
      "10 80",
      "10 55",
      "trư a",
      "trư ̣c",
      "trư ờc",
      "di quốc",
      "di co",
      "di ne",
      "di ja",
      "di ck",
      "di ves",
      "di rim",
      "di áz",
      "di ện",
      "ti s",
      "ti an",
      "ti ế",
      "ti ana",
      "ti ́n",
      "ti ê",
      "ti ến",
      "ti ago",
      "ti ́ch",
      "động thương",
      "động sinh",
      "cho l",
      "cho n",
      "cho ̣n",
      "cho las",
      "11 12",
      "11 2015",
      "qua ̉",
      "qua ̉n",
      "nhà n",
      "nhà o",
      "gia ́",
      "gia dân",
      "gia xin",
      "ho ang",
      "ho ằng",
      "ho fer",
      "ho ́a",
      "ho uthi",
      "cơ n",
      "do lu",
      "do ãn",
      "do wni",
      "do xy",
      "thức văn",
      "2023 2024",
      "2023 2027",
      "12 2",
      "12 3",
      "12 38",
      "đề hđnd",
      "lã m",
      "2022 2025",
      "2022 gs",
      "bình an",
      "tuy ến",
      "giao kinh",
      "thu a",
      "thu ê",
      "thu ận",
      "thu ̛̣c",
      "as w",
      "as ia",
      "as uriya",
      "vi a",
      "vi n",
      "vi r",
      "vi na",
      "vi et",
      "vi rus",
      "nd se",
      "co ne",
      "co el",
      "co lo",
      "co ron",
      "co ̀n",
      "co rby",
      "khi ́",
      "ia ea",
      "ca ́",
      "ca expo",
      "ca bis",
      "al c",
      "al p",
      "al am",
      "al ber",
      "al dez",
      "al sultan",
      "al oa",
      "al bashir",
      "al exi",
      "tố p",
      "ar des",
      "ar iz",
      "ar der",
      "ar min",
      "ar men",
      "ar kand",
      "ar gimon",
      "ase p",
      "ase anhoa",
      "ase angcc",
      "2019 2020",
      "ne c",
      "ne r",
      "ne tt",
      "ne sia",
      "ne ves",
      "ne ́t",
      "ne ry",
      "ne gro",
      "asean 1",
      "asean trung",
      "asean nga",
      "asean nhật",
      "asean eu",
      "khu on",
      "khu rel",
      "tin truyền",
      "chuy ện",
      "el mau",
      "el tami",
      "ba hu",
      "ba der",
      "ba chel",
      "ba ́o",
      "ba hrai",
      "thắng tham",
      "như ỡng",
      "15 1",
      "15 2",
      "15 5",
      "15 18",
      "15 16",
      "15 21",
      "15 70",
      "15 75",
      "tu ỵ",
      "tu ẩn",
      "tu lin",
      "tu ần",
      "tu ddin",
      "thi padei",
      "xv 2020",
      "30 3",
      "30 6",
      "30 7",
      "in c",
      "in f",
      "in t",
      "in ion",
      "re a",
      "re z",
      "re au",
      "re tt",
      "re ap",
      "re me",
      "re my",
      "re za",
      "re iwa",
      "re inhard",
      "re doxy",
      "tra ́i",
      "tra ̀o",
      "25 1",
      "25 3",
      "25 6",
      "25 00",
      "25 26",
      "en co",
      "en ko",
      "en omi",
      "en khbol",
      "en chon",
      "197 0",
      "197 27",
      "197 66",
      "14 2",
      "14 6",
      "14 h30",
      "is o",
      "is an",
      "is hin",
      "is eke",
      "is iana",
      "13 7",
      "13 8",
      "22 3",
      "22 7",
      "22 16",
      "22 24",
      "22 63",
      "22 66",
      "22 64",
      "dương thái",
      "ta h",
      "ta ̀i",
      "ta ̣o",
      "ta rakhand",
      "ta tiana",
      "2017 2021",
      "2017 2018",
      "er n",
      "er ra",
      "er on",
      "er te",
      "đi ê",
      "18 1",
      "18 2",
      "18 3",
      "18 7",
      "18 h",
      "18 18",
      "18 16",
      "18 95",
      "18 48",
      "18 67",
      "18 77",
      "18 92",
      "hđ xx",
      "hđ qt",
      "on a",
      "ub ktt",
      "khai l",
      "kho an",
      "kho ̉i",
      "kho ́a",
      "kho ̉e",
      "2015 2025",
      "can din",
      "can ađa",
      "xuân đất",
      "trí ch",
      "28 7",
      "28 30",
      "23 8",
      "23 9",
      "huy ệt",
      "16 0",
      "16 1",
      "16 2",
      "16 6",
      "16 20",
      "16 72016",
      "17 2",
      "17 6",
      "17 82",
      "17 h30",
      "17 102014",
      "đức tài",
      "50 4",
      "50 6",
      "50 8",
      "50 9",
      "pu njab",
      "tt el",
      "tt vp",
      "tt nhnn",
      "đa ̀n",
      "đa ̣t",
      "đa ́ng",
      "đa ́o",
      "đa ̉m",
      "đa ̣o",
      "đô ̣",
      "đô ̉i",
      "um no",
      "21 và",
      "ap c",
      "em yung",
      "trì u",
      "45 1",
      "45 3",
      "45 5",
      "45 7",
      "su e",
      "su kh",
      "su ôn",
      "su la",
      "su na",
      "su ji",
      "su ky",
      "su kar",
      "su ất",
      "su gay",
      "su ̛̣",
      "su ̛́c",
      "su won",
      "độ xhcn",
      "học công",
      "học kỹ",
      "hi r",
      "hi ro",
      "hi ggins",
      "la ban",
      "la ̣m",
      "la chít",
      "24 1",
      "24 2",
      "24 6",
      "24 7",
      "24 9",
      "24 26",
      "24 82019",
      "hu rley",
      "27 1",
      "27 3",
      "27 7",
      "bang a",
      "tri ̀",
      "tri ̀nh",
      "chu ́",
      "chu ỗi",
      "chu anjin",
      "to s",
      "to ạ",
      "to lla",
      "to àn",
      "to vá",
      "con tai",
      "tự a",
      "hoa ̣t",
      "hoa ̣ch",
      "mà n",
      "mà u",
      "cam eron",
      "26 0",
      "26 28",
      "26 112015",
      "29 3",
      "29 4",
      "29 8",
      "29 31",
      "29 1945",
      "si em",
      "si nghe",
      "si erra",
      "bi o",
      "bi nay",
      "bi ll",
      "bi rla",
      "jo se",
      "jo aquin",
      "qđ cs",
      "qđ bcđ",
      "qđ ctn",
      "qđ vpcqcsđt",
      "lo ạn",
      "lo wy",
      "lo ̂́i",
      "un fcc",
      "quang cựu",
      "po l",
      "po t",
      "po or",
      "po wer",
      "da ha",
      "da ̣ng",
      "da ̀i",
      "da fur",
      "da ̃y",
      "ir i",
      "ir o",
      "196 6",
      "du p",
      "du ẩn",
      "du ̣ng",
      "du ̛̣",
      "du erte",
      "es sex",
      "mo ri",
      "mo ro",
      "mo chis",
      "mo rales",
      "mo reau",
      "khí a",
      "khí t",
      "trào thanh",
      "so ạn",
      "so li",
      "so fit",
      "so vpe",
      "so ̂́ng",
      "ma ham",
      "ma ada",
      "ma tha",
      "ma dri",
      "ma ttar",
      "ma tvi",
      "ma hmu",
      "ma dine",
      "199 4",
      "li u",
      "li ban",
      "li us",
      "li ku",
      "li nes",
      "li ndse",
      "lê ̃",
      "bu har",
      "bu cki",
      "bu rapa",
      "phi êu",
      "and ré",
      "and rea",
      "rai la",
      "va cci",
      "mar y",
      "mar io",
      "mar ina",
      "ab del",
      "ab dl",
      "ab enomi",
      "chi êu",
      "chi rac",
      "ri o",
      "ri an",
      "ri bank",
      "ri char",
      "ri aya",
      "ri cio",
      "1973 2023",
      "1973 21",
      "man ipu",
      "man ez",
      "pa kistan",
      "tho a",
      "tho ải",
      "tho ̉a",
      "ns w",
      "par i",
      "par mel",
      "ttxv mn",
      "70 5",
      "70 8",
      "70 9",
      "70 36",
      "hư ̃u",
      "54 0",
      "54 2",
      "54 6",
      "54 9",
      "lh tn",
      "sa d",
      "sa tu",
      "sa ́nh",
      "de v",
      "40 2",
      "40 4",
      "40 8",
      "40 41",
      "dư ̣",
      "dư ̣ng",
      "ro a",
      "ro òng",
      "ro me",
      "ro bre",
      "ro mu",
      "ro sen",
      "60 2",
      "60 3",
      "60 9",
      "ké p",
      "me dve",
      "me dico",
      "cụ m",
      "le e",
      "le one",
      "le ad",
      "le ge",
      "le vo",
      "mi lan",
      "mi ye",
      "mi los",
      "mi ke",
      "mi cro",
      "mi lton",
      "mi khail",
      "ngu ỵ",
      "ngu ội",
      "ngu ôi",
      "1945 15",
      "aipa 37",
      "aipa 42",
      "2013 2020",
      "99 3",
      "99 13",
      "99 99",
      "99 95",
      "99 78",
      "99 86",
      "99 71",
      "dc nd",
      "ha ̣n",
      "xx trong",
      "ci nda",
      "ci enco",
      "na do",
      "na ̀y",
      "na agi",
      "na ftali",
      "na ̆ng",
      "194 4",
      "hỗ n",
      "mal wal",
      "mal dives",
      "os eltami",
      "nẵng quảng",
      "36 8",
      "36 9",
      "36 51",
      "ja d",
      "ja cob",
      "ja vier",
      "ja ques",
      "ja emyung",
      "ja cinda",
      "ru th",
      "ru rawhe",
      "sh arma",
      "sh ima",
      "sh armin",
      "ya zko",
      "80 8",
      "90 6",
      "90 10",
      "90 56",
      "90 57",
      "cư ̣c",
      "44 4",
      "44 8",
      "55 3",
      "dp k",
      "ko l",
      "ko hl",
      "te hran",
      "te negro",
      "2024 2026",
      "az mi",
      "az anis",
      "bó n",
      "go a",
      "go p",
      "go lan",
      "go ̣i",
      "go ve",
      "go mbo",
      "go odlu",
      "ham on",
      "ham id",
      "ham burg",
      "mu t",
      "mu da",
      "mu dez",
      "mu ộn",
      "phan ie",
      "israel palestine",
      "ngo ạn",
      "ngo ặt",
      "37 6",
      "37 9",
      "68 1",
      "68 2",
      "68 5",
      "sco v2",
      "2010 2023",
      "mekong hàn",
      "43 2",
      "63 9",
      "63 55",
      "95 3",
      "95 iii",
      "95 65",
      "95 88",
      "bo ̣̂",
      "bo unnh",
      "bo gor",
      "bo vor",
      "cc cd",
      "xa vier",
      "xe ́t",
      "joh annes",
      "48 1",
      "48 4",
      "48 5",
      "ak uei",
      "ak ishin",
      "ter ga",
      "ter car",
      "ana dolu",
      "mac ri",
      "35 3",
      "35 6",
      "46 1",
      "46 4",
      "46 6",
      "46 7",
      "46 9",
      "47 7",
      "47 87",
      "bra dy",
      "ka fan",
      "no or",
      "pra s",
      "pra wit",
      "pra chara",
      "pra sad",
      "tô ̣c",
      "tô ́t",
      "1950 2023",
      "1950 1961",
      "78 3",
      "78 9",
      "des z",
      "il lia",
      "ran il",
      "tn đcs",
      "39 2",
      "39 6",
      "39 168",
      "67 7",
      "89 2",
      "89 8",
      "89 45",
      "89 36",
      "ki y",
      "ki ko",
      "ki ệ",
      "kis iđa",
      "nq hđbcqg",
      "sp inc",
      "195 6",
      "195 7",
      "195 8",
      "1971 2021",
      "my r",
      "my int",
      "ni gma",
      "ni cholas",
      "ni kol",
      "se in",
      "se ou",
      "se bas",
      "sai gon",
      "nha ̀",
      "nhi ̃",
      "2011 2020",
      "2011 2015",
      "1961 1965",
      "1961 1974",
      "1968 2023",
      "77 9",
      "86 1",
      "86 2",
      "86 37",
      "86 56",
      "sam arkand",
      "nhu ệ",
      "cha ́nh",
      "cha ̂́t",
      "tro ̣ng",
      "ali ye",
      "1977 2023",
      "1977 2019",
      "1977 2018",
      "1992 2023",
      "1992 2022",
      "69 6",
      "bc bcs",
      "lư ̣c",
      "1960 1964",
      "03 2",
      "03 3",
      "49 4",
      "49 6",
      "53 8",
      "73 2",
      "73 40",
      "ad mm",
      "ad rian",
      "ck reme",
      "mau ricio",
      "1989 2014",
      "myanmar việt",
      "56 5",
      "66 1",
      "66 2",
      "66 5",
      "85 7",
      "92 17",
      "ce pa",
      "ce dei",
      "fi desz",
      "pe tr",
      "pe rez",
      "pal ang",
      "sin aloa",
      "ur sula",
      "ve ̂̀",
      "1930 3",
      "1930 2020",
      "1930 2021",
      "1930 2022",
      "1930 1945",
      "hide his",
      "ber g",
      "ber t",
      "ber satu",
      "ber mudez",
      "gp i",
      "gp s",
      "gar mis",
      "ly ́",
      "pf p",
      "san na",
      "san chez",
      "san tiago",
      "san tos",
      "ut tarakhand",
      "wi ckreme",
      "viê ̣n",
      "1946 1960",
      "pray uth",
      "franc es",
      "05 1",
      "05 10",
      "76 41",
      "kar l",
      "kar u",
      "rị a",
      "vo ̣ng",
      "vo rachi",
      "vo lachít",
      "que en",
      "que bec",
      "1976 25",
      "sud ary",
      "1996 1",
      "1996 2014",
      "abdu l",
      "93 37",
      "fer nandez",
      "fer nado",
      "hel mut",
      "pas sos",
      "pas hin",
      "yo nhap",
      "thụ t",
      "char levo",
      "ane sia",
      "2012 2020",
      "2012 2016",
      "2012 2017",
      "2012 2015",
      "2012 1960",
      "cop 25",
      "16h 00",
      "2007 2017",
      "79 7",
      "bay rou",
      "bay ern",
      "cn n",
      "he ydar",
      "hiê ̣p",
      "lề nh",
      "sé e",
      "war nery",
      "war isan",
      "ina cio",
      "là m",
      "1965 1967",
      "2003 2008",
      "2008 2013",
      "1988 1993",
      "davos klos",
      "58 7",
      "ah mad",
      "ah 5n1",
      "ah madine",
      "ben igno",
      "ben oit",
      "ben nett",
      "fre xit",
      "je jomar",
      "je remy",
      "ke y",
      "ke ́o",
      "ke vin",
      "len i",
      "ris hi",
      "ven uez",
      "wa diquốc",
      "wa terga",
      "đe ̣p",
      "tru đô",
      "tru ́ng",
      "pha te",
      "pha ́t",
      "pha ́p",
      "pha ̉i",
      "pha ̂̉m",
      "pho ́",
      "ral d",
      "ral mani",
      "1955 2022",
      "150 9",
      "1967 2019",
      "1999 2000",
      "1949 2019",
      "220 4",
      "88 54",
      "98 18",
      "98 43",
      "98 79",
      "900 9",
      "900 12008",
      "br vt",
      "bal kan",
      "bin ali",
      "ff in",
      "mel ia",
      "mel enchon",
      "mel anesia",
      "nor bert",
      "op inion",
      "rin ne",
      "tc vn",
      "zan upf",
      "ón io",
      "đu ́ng",
      "đu ̛́c",
      "đề u",
      "thô ̉",
      "quê vê",
      "1931 2021",
      "1931 2017",
      "1974 1978",
      "22h 45",
      "22h 00",
      "sul t",
      "1962 2022",
      "1964 1971",
      "1990 28",
      "bur kina",
      "rodri do",
      "hà o",
      "1941 1951",
      "470 7",
      "ag ribank",
      "aj ay",
      "be kistan",
      "be atri",
      "be ttel",
      "bon a",
      "bus an",
      "biể n",
      "for um",
      "for bes",
      "ju lius",
      "jon athan",
      "kur z",
      "lar ij",
      "lar cher",
      "ry an",
      "ser gio",
      "sto lten",
      "ste phanie",
      "yame en",
      "đă ́c",
      "thươ ̣ng",
      "phra ya",
      "anu cha",
      "giữ a",
      "amm 54",
      "ait s",
      "dor ji",
      "car los",
      "car thy",
      "bả y",
      "laf azanis",
      "đoa ̀n",
      "đoa ̣n",
      "đoa ̣t",
      "siphan don",
      "lou isiana",
      "lhpn vn",
      "ley en",
      "michel le",
      "ngoa ̀i",
      "nico lás",
      "volo dy",
      "jean luc",
      "130 8",
      "213 8",
      "213 9",
      "860 7",
      "880 2",
      "875 6",
      "875 9",
      "97 66",
      "919 0",
      "947 4",
      "aec io",
      "cô ̣ng",
      "cro o",
      "fit zge",
      "fil oni",
      "fil lon",
      "lô ́i",
      "mc carthy",
      "min ster",
      "mis hus",
      "mon tenegro",
      "omi c",
      "rơ ̀i",
      "rủ i",
      "sụ p",
      "sụ t",
      "tb ubtvqh",
      "tươ ́ng",
      "tươ ̣ng",
      "ten kir",
      "uz bekistan",
      "đcs vn",
      "trươ ̀ng",
      "trươ ̉ng",
      "ant ti",
      "ant ónio",
      "gio tis",
      "gins burg",
      "kha ́t",
      "kha dija",
      "1925 21",
      "1929 2019",
      "19h30 22h00",
      "timor leste",
      "11h 45",
      "aya tolla",
      "victo ria",
      "victo rovich",
      "vikto r",
      "vikto rovich",
      "ari b",
      "ari ffin",
      "ens kiy",
      "185 9",
      "288 1945",
      "ttb ca",
      "ttb tc",
      "hus sein",
      "logisti c",
      "logisti cs",
      "1997 2002",
      "19922 4",
      "campuchialào việt",
      "2001 2005",
      "2001 2002",
      "riya dh",
      "mani la",
      "1981 1987",
      "1983 1988",
      "rou hani",
      "1947 27",
      "muham ad",
      "muham madu",
      "boli va",
      "boli via",
      "1953 1954",
      "samaj wadiquốc",
      "tami flu",
      "lás zló",
      "lđlđ vn",
      "bhxh vn",
      "aquin o",
      "3h 25",
      "730 2",
      "729 5",
      "854 8",
      "avi v",
      "bf a",
      "bô ̣",
      "blu e",
      "bar rett",
      "bem es",
      "bhu tan",
      "bunnh ăng",
      "cy prus",
      "cộ m",
      "cec illia",
      "crim ea",
      "dm z",
      "diệ ngiữ",
      "dho se",
      "dhu ry",
      "dấ u",
      "dvc qg",
      "eg di",
      "eng els",
      "evi pa",
      "econ omic",
      "edri ch",
      "fas o",
      "fia la",
      "far os",
      "fel ix",
      "fta ap",
      "fri edrich",
      "faz li",
      "fat tah",
[...]
