{
   "ix_to_word": {
      "1": "garmischpartenkirchen",
      "2": "vietsovpetro",
      "3": "zhelyazkov",
      "4": "ukhnaagiin",
      "5": "tshisekedi",
      "6": "mastercard",
      "7": "kövér",
      "8": "diệngiữa",
      "9": "ayatollah",
      "10": "mishustin",
      "11": "fitzgerald",
      "12": "volodymyr",
      "13": "stoltenberg",
      "14": "larijani",
      "15": "beatriz",
      "16": "quêvêrơ",
      "17": "opinionway",
      "18": "watergate",
      "19": "venuezuela",
      "20": "ahmadinejad",
      "21": "davosklosters",
      "22": "charlevoix",
      "23": "pashinyan",
      "24": "vorachith",
      "25": "wickremesinghe",
      "26": "garmischpartenkir",
      "27": "hidehisa",
      "28": "cedeira",
      "29": "bcbcsđ",
      "30": "aliyev",
      "31": "sebastian",
      "32": "seoul",
      "33": "nigmatulin",
      "34": "kiện",
      "35": "pracharath",
      "36": "kafando",
      "37": "478763",
      "38": "akishino",
      "39": "johannesburg",
      "40": "bounnhang",
      "41": "goodluck",
      "42": "oseltamivir",
      "43": "micronesia",
      "44": "miyegombo",
      "45": "legend",
      "46": "leadsom",
      "47": "medicosult",
      "48": "medvedev",
      "49": "romualdez",
      "50": "robredo",
      "51": "parmelin",
      "52": "manezh",
      "53": "manipur",
      "54": "riayatuddin",
      "55": "richard",
      "56": "abenomics",
      "57": "abdlreza",
      "58": "vaccine",
      "59": "andrés",
      "60": "burapachaisri",
      "61": "buckingham",
      "62": "buhari",
      "63": "lindsey",
      "64": "likud",
      "65": "mahmud",
      "66": "matvienko",
      "67": "mattarella",
      "68": "madrid",
      "69": "mahamat",
      "70": "sofitel",
      "71": "moros",
      "72": "poors",
      "73": "unfccc",
      "74": "qđbcđcchc",
      "75": "qđcsktp",
      "76": "joseph",
      "77": "container",
      "78": "hiroshima",
      "79": "sugayoshihide",
      "80": "sukarno",
      "81": "sukyeol",
      "82": "sunak",
      "83": "ttvpcp",
      "84": "candinas",
      "85": "ubkttw",
      "86": "điều",
      "87": "enkhbold",
      "88": "bahrain",
      "89": "bachelet",
      "90": "bahujan",
      "91": "khurelsukh",
      "92": "armenia",
      "93": "ardern",
      "94": "arizona",
      "95": "ardeshir",
      "96": "alexis",
      "97": "alberto",
      "98": "corbyn",
      "99": "corona",
      "100": "colombia",
      "101": "coelho",
      "102": "coney",
      "103": "vietsovpe",
      "104": "2022gsw",
      "105": "downing",
      "106": "giaxinđa",
      "107": "tiêu",
      "108": "tiếng",
      "109": "lukid",
      "110": "nhântríđứctài",
      "111": "cuellar",
      "112": "19152020",
      "113": "nghiệp",
      "114": "khamenei",
      "115": "khadga",
      "116": "giuxtin",
      "117": "phưmiô",
      "118": "phosphate",
      "119": "chakri",
      "120": "chpartenkir",
      "121": "chapo",
      "122": "chiếm",
      "123": "chaudhury",
      "124": "chaisri",
      "125": "nhuyễn",
      "126": "ngaukraine",
      "127": "người",
      "128": "điều",
      "129": "đựng",
      "130": "đẫm",
      "131": "čaputová",
      "132": "ðịnh",
      "133": "élysée",
      "134": "zuzana",
      "135": "zhelyazko",
      "136": "zeman",
      "137": "zubiri",
      "138": "zelenskiy",
      "139": "yildirim",
      "140": "yemen",
      "141": "yongho",
      "142": "xử",
      "143": "westminster",
      "144": "world",
      "145": "wesley",
      "146": "wongsuwon",
      "147": "valadimir",
      "148": "vbhnvpqh",
      "149": "valovaya",
      "150": "urani",
      "151": "unamid",
      "152": "ukhnaagi",
      "153": "tshiseke",
      "154": "tsipras",
      "155": "slpv",
      "156": "standard",
      "157": "sandton",
      "158": "seug",
      "159": "shirin",
      "160": "simina",
      "161": "stratfor",
      "162": "selangor",
      "163": "sarscov2",
      "164": "sassoli",
      "165": "straits",
      "166": "sắc",
      "167": "rưỡi",
      "168": "pyeongchang",
      "169": "pmc1",
      "170": "panagiotis",
      "171": "pdplaban",
      "172": "psoe",
      "173": "ovaya",
      "174": "otsuji",
      "175": "nvpqh",
      "176": "nurlan",
      "177": "nixon",
      "178": "nắm",
      "179": "mesa",
      "180": "mastercar",
      "181": "mrc",
      "182": "látxlô",
      "183": "lược",
      "184": "ktnn",
      "185": "kiện",
      "186": "kđăm",
      "187": "kövé",
      "188": "janeiro",
      "189": "jayasuriya",
      "190": "hddnd",
      "191": "hãy",
      "192": "geunhye",
      "193": "gérard",
      "194": "fattah",
      "195": "fazli",
      "196": "friedrich",
      "197": "ftaap",
      "198": "felix",
      "199": "faros",
      "200": "fiala",
      "201": "faso",
      "202": "edrich",
      "203": "economic",
      "204": "evipa",
      "205": "engels",
      "206": "egdi",
      "207": "dvcqg",
      "208": "dấu",
      "209": "dhury",
      "210": "dhose",
      "211": "diệngiữ",
      "212": "dmz",
      "213": "crimea",
      "214": "cecillia",
      "215": "cộm",
      "216": "cyprus",
      "217": "bunnhăng",
      "218": "bhutan",
      "219": "bemes",
      "220": "barrett",
      "221": "blue",
      "222": "bộ",
      "223": "bfa",
      "224": "aviv",
      "225": "8548",
      "226": "7295",
      "227": "7302",
      "228": "3h25",
      "229": "aquino",
      "230": "bhxhvn",
      "231": "lđlđvn",
      "232": "lászló",
      "233": "tamiflu",
      "234": "samajwadiquốc",
      "235": "19531954",
      "236": "bolivia",
      "237": "boliva",
      "238": "muhammadu",
      "239": "muhamad",
      "240": "194727",
      "241": "rouhani",
      "242": "19831988",
      "243": "19811987",
      "244": "manila",
      "245": "riyadh",
      "246": "20012002",
      "247": "20012005",
      "248": "campuchialàoviệt",
      "249": "199224",
      "250": "19972002",
      "251": "logistics",
      "252": "logistic",
      "253": "hussein",
      "254": "ttbtc",
      "255": "ttbca",
      "256": "2881945",
      "257": "1859",
      "258": "enskiy",
      "259": "ariffin",
      "260": "arib",
      "261": "viktorovich",
      "262": "viktor",
      "263": "victorovich",
      "264": "victoria",
      "265": "ayatolla",
      "266": "11h45",
      "267": "timorleste",
      "268": "19h3022h00",
      "269": "19292019",
      "270": "192521",
      "271": "khadija",
      "272": "khát",
      "273": "ginsburg",
      "274": "giotis",
      "275": "antónio",
      "276": "antti",
      "277": "trưởng",
      "278": "trường",
      "279": "đcsvn",
      "280": "uzbekistan",
      "281": "tenkir",
      "282": "tượng",
      "283": "tướng",
      "284": "tbubtvqh",
      "285": "sụt",
      "286": "sụp",
      "287": "rủi",
      "288": "rời",
      "289": "omic",
      "290": "montenegro",
      "291": "mishus",
      "292": "minster",
      "293": "mccarthy",
      "294": "lối",
      "295": "fillon",
      "296": "filoni",
      "297": "fitzge",
      "298": "croo",
      "299": "cộng",
      "300": "aecio",
      "301": "9474",
      "302": "9190",
      "303": "9766",
      "304": "8759",
      "305": "8756",
      "306": "8802",
      "307": "8607",
      "308": "2139",
      "309": "2138",
      "310": "1308",
      "311": "jeanluc",
      "312": "volody",
      "313": "nicolás",
      "314": "ngoài",
      "315": "michelle",
      "316": "leyen",
      "317": "lhpnvn",
      "318": "louisiana",
      "319": "siphandon",
      "320": "đoạt",
      "321": "đoạn",
      "322": "đoàn",
      "323": "lafazanis",
      "324": "bảy",
      "325": "carthy",
      "326": "carlos",
      "327": "dorji",
      "328": "aits",
      "329": "amm54",
      "330": "giữa",
      "331": "anucha",
      "332": "phraya",
      "333": "thượng",
      "334": "đắc",
      "335": "yameen",
      "336": "stephanie",
      "337": "stolten",
      "338": "sergio",
      "339": "ryan",
      "340": "larcher",
      "341": "larij",
      "342": "kurz",
      "343": "jonathan",
      "344": "julius",
      "345": "forbes",
      "346": "forum",
      "347": "biển",
      "348": "busan",
      "349": "bona",
      "350": "bettel",
      "351": "beatri",
      "352": "bekistan",
      "353": "ajay",
      "354": "agribank",
      "355": "4707",
      "356": "19411951",
      "357": "hào",
      "358": "rodrido",
      "359": "burkina",
      "360": "199028",
      "361": "19641971",
      "362": "19622022",
      "363": "sult",
      "364": "22h00",
      "365": "22h45",
      "366": "19741978",
      "367": "19312017",
      "368": "19312021",
      "369": "quêvê",
      "370": "thổ",
      "371": "đều",
      "372": "đức",
      "373": "đúng",
      "374": "ónio",
      "375": "zanupf",
      "376": "tcvn",
      "377": "rinne",
      "378": "opinion",
      "379": "norbert",
      "380": "melanesia",
      "381": "melenchon",
      "382": "melia",
      "383": "ffin",
      "384": "binali",
      "385": "balkan",
      "386": "brvt",
      "387": "90012008",
      "388": "9009",
      "389": "9879",
      "390": "9843",
      "391": "9818",
      "392": "8854",
      "393": "2204",
      "394": "19492019",
      "395": "19992000",
      "396": "19672019",
      "397": "1509",
      "398": "19552022",
      "399": "ralmani",
      "400": "rald",
      "401": "phó",
      "402": "phẩm",
      "403": "phải",
      "404": "pháp",
      "405": "phát",
      "406": "phate",
      "407": "trúng",
      "408": "truđô",
      "409": "đẹp",
      "410": "waterga",
      "411": "wadiquốc",
      "412": "venuez",
      "413": "rishi",
      "414": "leni",
      "415": "kevin",
      "416": "kéo",
      "417": "key",
      "418": "jeremy",
      "419": "jejomar",
      "420": "frexit",
      "421": "bennett",
      "422": "benoit",
      "423": "benigno",
      "424": "ahmadine",
      "425": "ah5n1",
      "426": "ahmad",
      "427": "587",
      "428": "davosklos",
      "429": "19881993",
      "430": "20082013",
      "431": "20032008",
      "432": "19651967",
      "433": "làm",
      "434": "inacio",
      "435": "warisan",
      "436": "warnery",
      "437": "sée",
      "438": "lềnh",
      "439": "hiệp",
      "440": "heydar",
      "441": "cnn",
      "442": "bayern",
      "443": "bayrou",
      "444": "797",
      "445": "20072017",
      "446": "16h00",
      "447": "cop25",
      "448": "20121960",
      "449": "20122015",
      "450": "20122017",
      "451": "20122016",
      "452": "20122020",
      "453": "anesia",
      "454": "charlevo",
      "455": "thụt",
      "456": "yonhap",
      "457": "pashin",
      "458": "passos",
      "459": "helmut",
      "460": "fernado",
      "461": "fernandez",
      "462": "9337",
      "463": "abdul",
      "464": "19962014",
      "465": "19961",
      "466": "sudary",
      "467": "197625",
      "468": "quebec",
      "469": "queen",
      "470": "volachít",
      "471": "vorachi",
      "472": "vọng",
      "473": "rịa",
      "474": "karu",
      "475": "karl",
      "476": "7641",
      "477": "0510",
      "478": "051",
      "479": "frances",
      "480": "prayuth",
      "481": "19461960",
      "482": "viện",
      "483": "wickreme",
      "484": "uttarakhand",
      "485": "santos",
      "486": "santiago",
      "487": "sanchez",
      "488": "sanna",
      "489": "pfp",
      "490": "lý",
      "491": "garmis",
      "492": "gps",
      "493": "gpi",
      "494": "bermudez",
      "495": "bersatu",
      "496": "bert",
      "497": "berg",
      "498": "hidehis",
      "499": "19301945",
      "500": "19302022",
      "501": "19302021",
      "502": "19302020",
      "503": "19303",
      "504": "về",
      "505": "ursula",
      "506": "sinaloa",
      "507": "palang",
      "508": "perez",
      "509": "petr",
      "510": "fidesz",
      "511": "cedei",
      "512": "cepa",
      "513": "9217",
      "514": "857",
      "515": "665",
      "516": "662",
      "517": "661",
      "518": "565",
      "519": "myanmarviệt",
      "520": "19892014",
      "521": "mauricio",
      "522": "ckreme",
      "523": "adrian",
      "524": "admm",
      "525": "7340",
      "526": "732",
      "527": "538",
      "528": "496",
      "529": "494",
      "530": "033",
      "531": "032",
      "532": "19601964",
      "533": "lực",
      "534": "bcbcs",
      "535": "696",
      "536": "19922022",
      "537": "19922023",
      "538": "19772018",
      "539": "19772019",
      "540": "19772023",
      "541": "aliye",
      "542": "trọng",
      "543": "chất",
      "544": "chánh",
      "545": "nhuệ",
      "546": "samarkand",
      "547": "8656",
      "548": "8637",
      "549": "862",
      "550": "861",
      "551": "779",
      "552": "19682023",
      "553": "19611974",
      "554": "19611965",
      "555": "20112015",
      "556": "20112020",
      "557": "nhĩ",
      "558": "nhà",
      "559": "saigon",
      "560": "sebas",
      "561": "seou",
      "562": "sein",
      "563": "nikol",
      "564": "nicholas",
      "565": "nigma",
      "566": "myint",
      "567": "myr",
      "568": "19712021",
      "569": "1958",
      "570": "1957",
      "571": "1956",
      "572": "spinc",
      "573": "nqhđbcqg",
      "574": "kisiđa",
      "575": "kiệ",
      "576": "kiko",
      "577": "kiy",
      "578": "8936",
      "579": "8945",
      "580": "898",
      "581": "892",
      "582": "677",
      "583": "39168",
      "584": "396",
      "585": "392",
      "586": "tnđcs",
      "587": "ranil",
      "588": "illia",
      "589": "desz",
      "590": "789",
      "591": "783",
      "592": "19501961",
      "593": "19502023",
      "594": "tốt",
      "595": "tộc",
      "596": "prasad",
      "597": "prachara",
      "598": "prawit",
      "599": "pras",
      "600": "noor",
      "601": "kafan",
      "602": "brady",
      "603": "4787",
      "604": "477",
      "605": "469",
      "606": "467",
      "607": "466",
      "608": "464",
      "609": "461",
      "610": "356",
      "611": "353",
      "612": "macri",
      "613": "anadolu",
      "614": "tercar",
      "615": "terga",
      "616": "akishin",
      "617": "akuei",
      "618": "485",
      "619": "484",
      "620": "481",
      "621": "johannes",
      "622": "xét",
      "623": "xavier",
      "624": "cccd",
      "625": "bovor",
      "626": "bogor",
      "627": "bounnh",
      "628": "bộ",
      "629": "9588",
      "630": "9565",
      "631": "95iii",
      "632": "953",
      "633": "6355",
      "634": "639",
      "635": "432",
      "636": "mekonghàn",
      "637": "20102023",
      "638": "scov2",
      "639": "685",
      "640": "682",
      "641": "681",
      "642": "379",
      "643": "376",
      "644": "ngoặt",
      "645": "ngoạn",
      "646": "israelpalestine",
      "647": "phanie",
      "648": "muộn",
      "649": "mudez",
      "650": "muda",
      "651": "mut",
      "652": "hamburg",
      "653": "hamid",
      "654": "hamon",
      "655": "goodlu",
      "656": "gombo",
      "657": "gove",
      "658": "gọi",
      "659": "golan",
      "660": "gop",
      "661": "goa",
      "662": "bón",
      "663": "azanis",
      "664": "azmi",
      "665": "20242026",
      "666": "tenegro",
      "667": "tehran",
      "668": "kohl",
      "669": "kol",
      "670": "dpk",
      "671": "553",
      "672": "448",
      "673": "444",
      "674": "cực",
      "675": "9057",
      "676": "9056",
      "677": "9010",
      "678": "906",
      "679": "808",
      "680": "yazko",
      "681": "sharmin",
      "682": "shima",
      "683": "sharma",
      "684": "rurawhe",
      "685": "ruth",
      "686": "jacinda",
      "687": "jaemyung",
      "688": "jaques",
      "689": "javier",
      "690": "jacob",
      "691": "jad",
      "692": "3651",
      "693": "369",
      "694": "368",
      "695": "nẵngquảng",
      "696": "oseltami",
      "697": "maldives",
      "698": "malwal",
      "699": "hỗn",
      "700": "1944",
      "701": "năng",
      "702": "naftali",
      "703": "naagi",
      "704": "này",
      "705": "nado",
      "706": "cienco",
      "707": "cinda",
      "708": "xxtrong",
      "709": "hạn",
      "710": "dcnd",
      "711": "9971",
      "712": "9986",
      "713": "9978",
      "714": "9995",
      "715": "9999",
      "716": "9913",
      "717": "993",
      "718": "20132020",
      "719": "aipa42",
      "720": "aipa37",
      "721": "194515",
      "722": "nguôi",
      "723": "nguội",
      "724": "nguỵ",
      "725": "mikhail",
      "726": "milton",
      "727": "micro",
      "728": "mike",
      "729": "milos",
      "730": "miye",
      "731": "milan",
      "732": "levo",
      "733": "lege",
      "734": "lead",
      "735": "leone",
      "736": "lee",
      "737": "cụm",
      "738": "medico",
      "739": "medve",
      "740": "kép",
      "741": "609",
      "742": "603",
      "743": "602",
      "744": "rosen",
      "745": "romu",
      "746": "robre",
      "747": "rome",
      "748": "roòng",
      "749": "roa",
      "750": "dựng",
      "751": "dự",
      "752": "4041",
      "753": "408",
      "754": "404",
      "755": "402",
      "756": "dev",
      "757": "sánh",
      "758": "satu",
      "759": "sad",
      "760": "lhtn",
      "761": "549",
      "762": "546",
      "763": "542",
      "764": "540",
      "765": "hữu",
      "766": "7036",
      "767": "709",
      "768": "708",
      "769": "705",
      "770": "ttxvmn",
      "771": "parmel",
      "772": "pari",
      "773": "nsw",
      "774": "thỏa",
      "775": "thoải",
      "776": "thoa",
      "777": "pakistan",
      "778": "manez",
      "779": "manipu",
      "780": "197321",
      "781": "19732023",
      "782": "ricio",
      "783": "riaya",
      "784": "richar",
      "785": "ribank",
      "786": "rian",
      "787": "rio",
      "788": "chirac",
      "789": "chiêu",
      "790": "abenomi",
      "791": "abdl",
      "792": "abdel",
      "793": "marina",
      "794": "mario",
      "795": "mary",
      "796": "vacci",
      "797": "raila",
      "798": "andrea",
      "799": "andré",
      "800": "phiêu",
      "801": "burapa",
      "802": "bucki",
      "803": "buhar",
      "804": "lễ",
      "805": "lindse",
      "806": "lines",
      "807": "liku",
      "808": "lius",
      "809": "liban",
      "810": "liu",
      "811": "1994",
      "812": "madine",
      "813": "mahmu",
      "814": "matvi",
      "815": "mattar",
      "816": "madri",
      "817": "matha",
      "818": "maada",
      "819": "maham",
      "820": "sống",
      "821": "sovpe",
      "822": "sofit",
      "823": "soli",
      "824": "soạn",
      "825": "tràothanh",
      "826": "khít",
      "827": "khía",
      "828": "moreau",
      "829": "morales",
      "830": "mochis",
      "831": "moro",
      "832": "mori",
      "833": "essex",
      "834": "duerte",
      "835": "dự",
      "836": "dụng",
      "837": "duẩn",
      "838": "dup",
      "839": "1966",
      "840": "iro",
      "841": "iri",
      "842": "dãy",
      "843": "dafur",
      "844": "dài",
      "845": "dạng",
      "846": "daha",
      "847": "power",
      "848": "poor",
      "849": "pot",
      "850": "pol",
      "851": "quangcựu",
      "852": "unfcc",
      "853": "lối",
      "854": "lowy",
      "855": "loạn",
      "856": "qđvpcqcsđt",
      "857": "qđctn",
      "858": "qđbcđ",
      "859": "qđcs",
      "860": "joaquin",
      "861": "jose",
      "862": "birla",
      "863": "bill",
      "864": "binay",
      "865": "bio",
      "866": "sierra",
      "867": "singhe",
      "868": "siem",
      "869": "291945",
      "870": "2931",
      "871": "298",
      "872": "294",
      "873": "293",
      "874": "26112015",
      "875": "2628",
      "876": "260",
      "877": "cameron",
      "878": "màu",
      "879": "màn",
      "880": "hoạch",
      "881": "hoạt",
      "882": "tựa",
      "883": "contai",
      "884": "tová",
      "885": "toàn",
      "886": "tolla",
      "887": "toạ",
      "888": "tos",
      "889": "chuanjin",
      "890": "chuỗi",
      "891": "chú",
      "892": "trình",
      "893": "trì",
      "894": "banga",
      "895": "277",
      "896": "273",
      "897": "271",
      "898": "hurley",
      "899": "2482019",
      "900": "2426",
      "901": "249",
      "902": "247",
      "903": "246",
      "904": "242",
      "905": "241",
      "906": "lachít",
      "907": "lạm",
      "908": "laban",
      "909": "higgins",
      "910": "hiro",
      "911": "hir",
      "912": "họckỹ",
      "913": "họccông",
      "914": "độxhcn",
      "915": "suwon",
      "916": "sức",
      "917": "sự",
      "918": "sugay",
      "919": "suất",
      "920": "sukar",
      "921": "suky",
      "922": "suji",
      "923": "suna",
      "924": "sula",
      "925": "suôn",
      "926": "sukh",
      "927": "sue",
      "928": "457",
      "929": "455",
      "930": "453",
      "931": "451",
      "932": "trìu",
      "933": "emyung",
      "934": "apc",
      "935": "21và",
      "936": "umno",
      "937": "đổi",
      "938": "độ",
      "939": "đạo",
      "940": "đảm",
      "941": "đáo",
      "942": "đáng",
      "943": "đạt",
      "944": "đàn",
      "945": "ttnhnn",
      "946": "ttvp",
      "947": "ttel",
      "948": "punjab",
      "949": "509",
      "950": "508",
      "951": "506",
      "952": "504",
      "953": "đứctài",
      "954": "17102014",
      "955": "17h30",
      "956": "1782",
      "957": "176",
      "958": "172",
      "959": "1672016",
      "960": "1620",
      "961": "166",
      "962": "162",
      "963": "161",
      "964": "160",
      "965": "huyệt",
      "966": "239",
      "967": "238",
      "968": "2830",
      "969": "287",
      "970": "trích",
      "971": "xuânđất",
      "972": "canađa",
      "973": "candin",
      "974": "20152025",
      "975": "khỏe",
      "976": "khóa",
      "977": "khỏi",
      "978": "khoan",
      "979": "khail",
      "980": "ubktt",
      "981": "ona",
      "982": "hđqt",
      "983": "hđxx",
      "984": "1892",
      "985": "1877",
      "986": "1867",
      "987": "1848",
      "988": "1895",
      "989": "1816",
      "990": "1818",
      "991": "18h",
      "992": "187",
      "993": "183",
      "994": "182",
      "995": "181",
      "996": "điê",
      "997": "erte",
      "998": "eron",
      "999": "erra",
      "1000": "ern",
      "1001": "20172018",
      "1002": "20172021",
      "1003": "tatiana",
      "1004": "tarakhand",
      "1005": "tạo",
      "1006": "tài",
      "1007": "tah",
      "1008": "dươngthái",
      "1009": "2264",
      "1010": "2266",
      "1011": "2263",
      "1012": "2224",
      "1013": "2216",
      "1014": "227",
      "1015": "223",
      "1016": "138",
      "1017": "137",
      "1018": "isiana",
      "1019": "iseke",
      "1020": "ishin",
      "1021": "isan",
      "1022": "iso",
      "1023": "14h30",
      "1024": "146",
      "1025": "142",
      "1026": "19766",
      "1027": "19727",
      "1028": "1970",
      "1029": "enchon",
      "1030": "enkhbol",
      "1031": "enomi",
      "1032": "enko",
      "1033": "enco",
      "1034": "2526",
      "1035": "2500",
      "1036": "256",
      "1037": "253",
      "1038": "251",
      "1039": "trào",
      "1040": "trái",
      "1041": "redoxy",
      "1042": "reinhard",
      "1043": "reiwa",
      "1044": "reza",
      "1045": "remy",
      "1046": "reme",
      "1047": "reap",
      "1048": "rett",
      "1049": "reau",
      "1050": "rez",
      "1051": "rea",
      "1052": "inion",
      "1053": "int",
      "1054": "inf",
      "1055": "inc",
      "1056": "307",
      "1057": "306",
      "1058": "303",
      "1059": "xv2020",
      "1060": "thipadei",
      "1061": "tuddin",
      "1062": "tuần",
      "1063": "tulin",
      "1064": "tuẩn",
      "1065": "tuỵ",
      "1066": "1575",
      "1067": "1570",
      "1068": "1521",
      "1069": "1516",
      "1070": "1518",
      "1071": "155",
      "1072": "152",
      "1073": "151",
      "1074": "nhưỡng",
      "1075": "thắngtham",
      "1076": "bahrai",
      "1077": "báo",
      "1078": "bachel",
      "1079": "bader",
      "1080": "bahu",
      "1081": "eltami",
      "1082": "elmau",
      "1083": "chuyện",
      "1084": "tintruyền",
      "1085": "khurel",
      "1086": "khuon",
      "1087": "aseaneu",
      "1088": "aseannhật",
      "1089": "aseannga",
      "1090": "aseantrung",
      "1091": "asean1",
      "1092": "negro",
      "1093": "nery",
      "1094": "nét",
      "1095": "neves",
      "1096": "nesia",
      "1097": "nett",
      "1098": "ner",
      "1099": "nec",
      "1100": "20192020",
      "1101": "aseangcc",
      "1102": "aseanhoa",
      "1103": "asep",
      "1104": "argimon",
      "1105": "arkand",
      "1106": "armen",
      "1107": "armin",
      "1108": "arder",
      "1109": "ariz",
      "1110": "ardes",
      "1111": "tốp",
      "1112": "alexi",
      "1113": "albashir",
      "1114": "aloa",
      "1115": "alsultan",
      "1116": "aldez",
      "1117": "alber",
      "1118": "alam",
      "1119": "alp",
      "1120": "alc",
      "1121": "cabis",
      "1122": "caexpo",
      "1123": "cá",
      "1124": "iaea",
      "1125": "khí",
      "1126": "corby",
      "1127": "còn",
      "1128": "coron",
      "1129": "colo",
      "1130": "coel",
      "1131": "cone",
      "1132": "ndse",
      "1133": "virus",
      "1134": "viet",
      "1135": "vina",
      "1136": "vir",
      "1137": "vin",
      "1138": "via",
      "1139": "asuriya",
      "1140": "asia",
      "1141": "asw",
      "1142": "thực",
      "1143": "thuận",
      "1144": "thuê",
      "1145": "thua",
      "1146": "giaokinh",
      "1147": "tuyến",
      "1148": "bìnhan",
      "1149": "2022gs",
      "1150": "20222025",
      "1151": "lãm",
      "1152": "đềhđnd",
      "1153": "1238",
      "1154": "123",
      "1155": "122",
      "1156": "20232027",
      "1157": "20232024",
      "1158": "thứcvăn",
      "1159": "doxy",
      "1160": "downi",
      "1161": "doãn",
      "1162": "dolu",
      "1163": "cơn",
      "1164": "houthi",
      "1165": "hóa",
      "1166": "hofer",
      "1167": "hoằng",
      "1168": "hoang",
      "1169": "giaxin",
      "1170": "giadân",
      "1171": "giá",
      "1172": "nhào",
      "1173": "nhàn",
      "1174": "quản",
      "1175": "quả",
      "1176": "112015",
      "1177": "1112",
      "1178": "cholas",
      "1179": "chọn",
      "1180": "chon",
      "1181": "chol",
      "1182": "độngsinh",
      "1183": "độngthương",
      "1184": "tích",
      "1185": "tiago",
      "1186": "tiến",
      "1187": "tiê",
      "1188": "tín",
      "1189": "tiana",
      "1190": "tiế",
      "1191": "tian",
      "1192": "tis",
      "1193": "diện",
      "1194": "diáz",
      "1195": "dirim",
      "1196": "dives",
      "1197": "dick",
      "1198": "dija",
      "1199": "dine",
      "1200": "dico",
      "1201": "diquốc",
      "1202": "trườc",
      "1203": "trực",
      "1204": "trưa",
      "1205": "1055",
      "1206": "1080",
      "1207": "102014",
      "1208": "1015",
      "1209": "106",
      "1210": "trịxã",
      "1211": "nộiđiện",
      "1212": "bích",
      "1213": "lực",
      "1214": "luật",
      "1215": "luiz",
      "1216": "luki",
      "1217": "lula",
      "1218": "luỹ",
      "1219": "luỵ",
      "1220": "luc",
      "1221": "nguyễn",
      "1222": "khoáng",
      "1223": "khoát",
      "1224": "ángquảng",
      "1225": "nhântrí",
      "1226": "angcc",
      "1227": "angor",
      "1228": "cùng",
      "1229": "cuel",
      "1230": "hợi",
      "1231": "1938",
      "1232": "1907",
      "1233": "1904",
      "1234": "1936",
      "1235": "1928",
      "1236": "1915",
      "1237": "193",
      "1238": "anhoa",
      "1239": "tỉnhtrưởng",
      "1240": "rakhand",
      "1241": "rawhe",
      "1242": "rard",
      "1243": "rales",
      "1244": "rapa",
      "1245": "rachi",
      "1246": "ranh",
      "1247": "rac",
      "1248": "thực",
      "1249": "dânphát",
      "1250": "quyện",
      "1251": "quyên",
      "1252": "tổn",
      "1253": "inhard",
      "1254": "làn",
      "1255": "nướcdân",
      "1256": "nghiêng",
      "1257": "nghiê",
      "1258": "nghiệt",
      "1259": "ngham",
      "1260": "ươm",
      "1261": "nammông",
      "1262": "namchile",
      "1263": "nambangladesh",
      "1264": "nambrunei",
      "1265": "namuae",
      "1266": "namargentina",
      "1267": "namnew",
      "1268": "namna",
      "1269": "namsingapore",
      "1270": "namcampuchia",
      "1271": "namtriều",
      "1272": "nameu",
      "1273": "namphần",
      "1274": "nampháp",
      "1275": "namliên",
      "1276": "namnam",
      "1277": "chít",
      "1278": "củacủa",
      "1279": "amy",
      "1280": "khổ",
      "1281": "khhđbcqg",
      "1282": "khame",
      "1283": "khbol",
      "1284": "khad",
      "1285": "khand",
      "1286": "khóm",
      "1287": "khảm",
      "1288": "khôn",
      "1289": "khăng",
      "1290": "khố",
      "1291": "giux",
      "1292": "gimon",
      "1293": "giãn",
      "1294": "giầy",
      "1295": "giàng",
      "1296": "giồng",
      "1297": "giảng",
      "1298": "giày",
      "1299": "giỗ",
      "1300": "già",
      "1301": "vành",
      "1302": "anjin",
      "1303": "annes",
      "1304": "anđt",
      "1305": "anc",
      "1306": "20h00",
      "1307": "2091977",
      "1308": "2086",
      "1309": "206",
      "1310": "205",
      "1311": "204",
      "1312": "203",
      "1313": "phớc",
      "1314": "phưmi",
      "1315": "phố",
      "1316": "phos",
      "1317": "phồn",
      "1318": "phượng",
      "1319": "phiến",
      "1320": "phẩ",
      "1321": "quỳnh",
      "1322": "quãng",
      "1323": "ques",
      "1324": "quen",
      "1325": "quét",
      "1326": "quới",
      "1327": "trộn",
      "1328": "trở",
      "1329": "trôm",
      "1330": "trỗi",
      "1331": "trạch",
      "1332": "trăn",
      "1333": "trau",
      "1334": "trai",
      "1335": "trân",
      "1336": "chùa",
      "1337": "chót",
      "1338": "chìa",
      "1339": "chấp",
      "1340": "choáng",
      "1341": "chéo",
      "1342": "chez",
      "1343": "chất",
      "1344": "chak",
      "1345": "chara",
      "1346": "chẩu",
      "1347": "chpar",
      "1348": "chậm",
      "1349": "chơi",
      "1350": "chắn",
      "1351": "chap",
      "1352": "chảy",
      "1353": "cher",
      "1354": "chis",
      "1355": "chiê",
      "1356": "chạm",
      "1357": "chau",
      "1358": "chang",
      "1359": "chai",
      "1360": "chối",
      "1361": "chông",
      "1362": "chử",
      "1363": "chứ",
      "1364": "chợ",
      "1365": "chờ",
      "1366": "chị",
      "1367": "chè",
      "1368": "thẳm",
      "1369": "thầy",
      "1370": "thcs",
      "1371": "thào",
      "1372": "thảm",
      "1373": "thâm",
      "1374": "thêu",
      "1375": "thổi",
      "1376": "thản",
      "1377": "thận",
      "1378": "thở",
      "1379": "thờ",
      "1380": "thả",
      "1381": "thú",
      "1382": "thy",
      "1383": "nhóm",
      "1384": "nhật",
      "1385": "nhận",
      "1386": "nhnn",
      "1387": "nhye",
      "1388": "nhựa",
      "1389": "nhọn",
      "1390": "nhap",
      "1391": "nhen",
      "1392": "nhuy",
      "1393": "nhị",
      "1394": "nhạ",
      "1395": "ngủi",
      "1396": "ngiữ",
      "1397": "ngồi",
      "1398": "ngòi",
      "1399": "ngau",
      "1400": "ngột",
      "1401": "ngươ",
      "1402": "ngước",
      "1403": "ngộ",
      "1404": "ngã",
      "1405": "ủi",
      "1406": "ỡi",
      "1407": "ờc",
      "1408": "ớc",
      "1409": "ốm",
      "1410": "ẳm",
      "1411": "̣ch",
      "1412": "̉e",
      "1413": "̆ng",
      "1414": "̃y",
      "1415": "̃u",
      "1416": "̂̉m",
      "1417": "̂́t",
      "1418": "̂́ng",
      "1419": "̂́i",
      "1420": "̂̀",
      "1421": "́ch",
      "1422": "̀o",
      "1423": "ưmi",
      "1424": "đùm",
      "1425": "để",
      "1426": "đủ",
      "1427": "đạc",
      "1428": "đám",
      "1429": "đốt",
      "1430": "đằng",
      "1431": "đen",
      "1432": "điê",
      "1433": "đợi",
      "1434": "đôn",
      "1435": "điệu",
      "1436": "đạm",
      "1437": "đĩnh",
      "1438": "đau",
      "1439": "đọng",
      "1440": "đền",
      "1441": "đự",
      "1442": "đệ",
      "1443": "đẫ",
      "1444": "đh",
      "1445": "čapu",
      "1446": "ặt",
      "1447": "ùm",
      "1448": "ùa",
      "1449": "ổ",
      "1450": "ót",
      "1451": "ðiềm",
      "1452": "ðây",
      "1453": "ðối",
      "1454": "ðông",
      "1455": "ðị",
      "1456": "ìa",
      "1457": "ện",
      "1458": "édouard",
      "1459": "ély",
      "1460": "áz",
      "1461": "zuz",
      "1462": "zló",
      "1463": "zuma",
      "1464": "zhel",
      "1465": "zge",
      "1466": "zko",
      "1467": "zem",
      "1468": "zub",
      "1469": "zel",
      "1470": "zu",
      "1471": "ydar",
      "1472": "ytaly",
      "1473": "yil",
      "1474": "yem",
      "1475": "yến",
      "1476": "yung",
      "1477": "yong",
      "1478": "yan",
      "1479": "xlô",
      "1480": "xóm",
      "1481": "xích",
      "1482": "xưa",
      "1483": "xáo",
      "1484": "xả",
      "1485": "xư",
      "1486": "xy",
      "1487": "west",
      "1488": "whe",
      "1489": "wni",
      "1490": "wit",
      "1491": "wor",
      "1492": "wes",
      "1493": "won",
      "1494": "win",
      "1495": "wal",
      "1496": "way",
      "1497": "wong",
      "1498": "wan",
      "1499": "wy",
      "1500": "wb",
      "1501": "vala",
      "1502": "vật",
      "1503": "vbh",
      "1504": "vệ",
      "1505": "vpe",
      "1506": "vsp",
      "1507": "vãng",
      "1508": "vor",
      "1509": "vằng",
      "1510": "vạch",
      "1511": "von",
      "1512": "vạn",
      "1513": "val",
      "1514": "váng",
      "1515": "vần",
      "1516": "vê",
      "1517": "vé",
      "1518": "vá",
      "1519": "vt",
      "1520": "v2",
      "1521": "uei",
      "1522": "uriya",
      "1523": "uez",
      "1524": "upf",
      "1525": "uran",
      "1526": "uthi",
      "1527": "uống",
      "1528": "unam",
      "1529": "ukh",
      "1530": "uth",
      "1531": "ux",
      "1532": "tập",
      "1533": "tồi",
      "1534": "tfor",
      "1535": "tần",
      "1536": "tất",
      "1537": "tashi",
      "1538": "tới",
      "1539": "tsh",
      "1540": "táp",
      "1541": "tsi",
      "1542": "tàng",
      "1543": "tel",
      "1544": "táo",
      "1545": "tống",
      "1546": "tần",
      "1547": "tết",
      "1548": "ttrong",
      "1549": "tước",
      "1550": "tê",
      "1551": "slp",
      "1552": "sky",
      "1553": "stand",
      "1554": "ster",
      "1555": "sex",
      "1556": "sắm",
      "1557": "sand",
      "1558": "seu",
      "1559": "shi",
      "1560": "sim",
      "1561": "stra",
      "1562": "sel",
      "1563": "sợi",
      "1564": "sấu",
      "1565": "sar",
      "1566": "sùng",
      "1567": "sas",
      "1568": "sập",
      "1569": "sương",
      "1570": "sốc",
      "1571": "str",
      "1572": "sợ",
      "1573": "să",
      "1574": "rby",
      "1575": "rley",
      "1576": "rắn",
      "1577": "rla",
      "1578": "rọi",
      "1579": "rel",
      "1580": "rác",
      "1581": "rỡ",
      "1582": "rư",
      "1583": "ré",
      "1584": "rd",
      "1585": "qt",
      "1586": "qr",
      "1587": "p4g",
      "1588": "pyeong",
      "1589": "prus",
      "1590": "pmc",
      "1591": "p51",
      "1592": "pyo",
      "1593": "pana",
      "1594": "pdp",
      "1595": "pso",
      "1596": "p13",
      "1597": "p14",
      "1598": "páo",
      "1599": "ps",
      "1600": "pd",
      "1601": "ojb",
      "1602": "odlu",
      "1603": "óm",
      "1604": "ovay",
      "1605": "oit",
      "1606": "omar",
      "1607": "oli",
      "1608": "oan",
      "1609": "ot",
      "1610": "om",
      "1611": "njab",
      "1612": "nld",
      "1613": "não",
      "1614": "nlđ",
      "1615": "nền",
      "1616": "nvp",
      "1617": "nàn",
      "1618": "nur",
      "1619": "nbc",
      "1620": "nút",
      "1621": "nạp",
      "1622": "nix",
      "1623": "nnông",
      "1624": "niê",
      "1625": "nới",
      "1626": "nợ",
      "1627": "nề",
      "1628": "nă",
      "1629": "m5s",
      "1630": "mũi",
      "1631": "mão",
      "1632": "mbo",
      "1633": "mbia",
      "1634": "móc",
      "1635": "mọc",
      "1636": "mes",
      "1637": "mầm",
      "1638": "mường",
      "1639": "mái",
      "1640": "mas",
      "1641": "mạo",
      "1642": "mến",
      "1643": "mỷ",
      "1644": "mờ",
      "1645": "mộ",
      "1646": "mồ",
      "1647": "mễ",
      "1648": "mì",
      "1649": "mê",
      "1650": "mr",
      "1651": "mn",
      "1652": "mm",
      "1653": "md",
      "1654": "lima",
      "1655": "lỏng",
      "1656": "lập",
      "1657": "lten",
      "1658": "lần",
      "1659": "lúa",
      "1660": "lõi",
      "1661": "lton",
      "1662": "lít",
      "1663": "lẩn",
      "1664": "lát",
      "1665": "lia",
      "1666": "lăn",
      "1667": "lay",
      "1668": "lây",
      "1669": "lung",
      "1670": "lươ",
      "1671": "lở",
      "1672": "lơ",
      "1673": "lp",
      "1674": "kiểm",
      "1675": "kyaw",
      "1676": "kiến",
      "1677": "kina",
      "1678": "klos",
      "1679": "kể",
      "1680": "ktn",
      "1681": "kế",
      "1682": "kand",
      "1683": "kir",
      "1684": "ktp",
      "1685": "ktt",
      "1686": "kiê",
      "1687": "kiều",
      "1688": "kan",
      "1689": "kẻ",
      "1690": "kĩ",
      "1691": "kđ",
      "1692": "kö",
      "1693": "kê",
      "1694": "jens",
      "1695": "jane",
      "1696": "jeria",
      "1697": "jab",
      "1698": "jay",
      "1699": "jb",
      "1700": "igno",
      "1701": "iwa",
      "1702": "iana",
      "1703": "iep",
      "1704": "ipap",
      "1705": "iđa",
      "1706": "ion",
      "1707": "iữ",
      "1708": "ij",
      "1709": "hdd",
      "1710": "hỏng",
      "1711": "h5n1",
      "1712": "hết",
      "1713": "hani",
      "1714": "hran",
      "1715": "hmu",
      "1716": "hơi",
      "1717": "hrai",
      "1718": "hưu",
      "1719": "h00",
      "1720": "hiền",
      "1721": "hầm",
      "1722": "his",
      "1723": "hôi",
      "1724": "htin",
      "1725": "hoại",
      "1726": "hề",
      "1727": "hé",
      "1728": "hã",
      "1729": "hl",
      "1730": "ggins",
      "1731": "gần",
      "1732": "gno",
      "1733": "gro",
      "1734": "gsa",
      "1735": "gor",
      "1736": "gấm",
      "1737": "gma",
      "1738": "geu",
      "1739": "gon",
      "1740": "gắt",
      "1741": "gợi",
      "1742": "gán",
      "1743": "guy",
      "1744": "gé",
      "1745": "gs",
      "1746": "fed",
      "1747": "ftali",
      "1748": "fat",
      "1749": "fur",
      "1750": "fcc",
      "1751": "faz",
      "1752": "fdp",
      "1753": "fri",
      "1754": "fpo",
      "1755": "fta",
      "1756": "fel",
      "1757": "far",
      "1758": "fia",
      "1759": "fas",
      "1760": "flu",
      "1761": "f0",
      "1762": "evisa",
      "1763": "ệ",
      "1764": "ebrahim",
      "1765": "eol",
      "1766": "eke",
      "1767": "edri",
      "1768": "evo",
      "1769": "eec",
      "1770": "econ",
      "1771": "exi",
      "1772": "evi",
      "1773": "eas",
      "1774": "eng",
      "1775": "ei",
      "1776": "eg",
      "1777": "ed",
      "1778": "dồi",
      "1779": "dói",
      "1780": "ddin",
      "1781": "dvc",
      "1782": "dịu",
      "1783": "dve",
      "1784": "dấ",
      "1785": "dọc",
      "1786": "dẳng",
      "1787": "dấy",
      "1788": "dhu",
      "1789": "dẹp",
      "1790": "dar",
      "1791": "dho",
      "1792": "dải",
      "1793": "dlu",
      "1794": "diều",
      "1795": "dao",
      "1796": "dai",
      "1797": "dối",
      "1798": "dốc",
      "1799": "diệ",
      "1800": "dỡ",
      "1801": "dã",
      "1802": "dm",
      "1803": "dl",
      "1804": "dh",
      "1805": "dd",
      "1806": "crim",
      "1807": "cố",
      "1808": "cki",
      "1809": "cci",
      "1810": "cồn",
      "1811": "cec",
      "1812": "cúng",
      "1813": "cứng",
      "1814": "cấn",
      "1815": "cản",
      "1816": "cộ",
      "1817": "cồ",
      "1818": "cọ",
      "1819": "cy",
      "1820": "byeong",
      "1821": "bunnh",
      "1822": "biến",
      "1823": "bố",
      "1824": "bước",
      "1825": "bsp",
      "1826": "bứt",
      "1827": "bos",
      "1828": "bcs",
      "1829": "bọc",
      "1830": "bes",
      "1831": "bưu",
      "1832": "bec",
      "1833": "bấy",
      "1834": "bhu",
      "1835": "bem",
      "1836": "bis",
      "1837": "bụng",
      "1838": "bàng",
      "1839": "bar",
      "1840": "bas",
      "1841": "blu",
      "1842": "bội",
      "1843": "bờ",
      "1844": "bô",
      "1845": "bê",
      "1846": "by",
      "1847": "bf",
      "1848": "b5",
      "1849": "athan",
      "1850": "án",
      "1851": "àn",
      "1852": "ago",
      "1853": "ađơn",
      "1854": "atri",
      "1855": "ađa",
      "1856": "apu",
      "1857": "ata",
      "1858": "avi",
      "1859": "aung",
      "1860": "agi",
      "1861": "9398",
      "1862": "9104",
      "1863": "971",
      "1864": "949",
      "1865": "972",
      "1866": "91977",
      "1867": "967",
      "1868": "941",
      "1869": "968",
      "1870": "944",
      "1871": "929",
      "1872": "945",
      "1873": "917",
      "1874": "918",
      "1875": "914",
      "1876": "925",
      "1877": "910",
      "1878": "8958",
      "1879": "8372",
      "1880": "842",
      "1881": "839",
      "1882": "848",
      "1883": "855",
      "1884": "899",
      "1885": "854",
      "1886": "821",
      "1887": "816",
      "1888": "82015",
      "1889": "818",
      "1890": "813",
      "1891": "830",
      "1892": "82019",
      "1893": "811",
      "1894": "795",
      "1895": "744",
      "1896": "799",
      "1897": "740",
      "1898": "729",
      "1899": "721",
      "1900": "750",
      "1901": "725",
      "1902": "730",
      "1903": "72016",
      "1904": "720",
      "1905": "61964",
      "1906": "656",
      "1907": "61971",
      "1908": "648",
      "1909": "655",
      "1910": "699",
      "1911": "640",
      "1912": "670",
      "1913": "631",
      "1914": "617",
      "1915": "623",
      "1916": "613",
      "1917": "625",
      "1918": "630",
      "1919": "620",
      "1920": "6đ",
      "1921": "6h",
      "1922": "5363",
      "1923": "594",
      "1924": "582",
      "1925": "576",
      "1926": "592",
      "1927": "51960",
      "1928": "586",
      "1929": "577",
      "1930": "52011",
      "1931": "589",
      "1932": "567",
      "1933": "595",
      "1934": "568",
      "1935": "537",
      "1936": "599",
      "1937": "545",
      "1938": "521",
      "1939": "513",
      "1940": "525",
      "1941": "52016",
      "1942": "52019",
      "1943": "511",
      "1944": "510",
      "1945": "519",
      "1946": "5s",
      "1947": "5g",
      "1948": "5a",
      "1949": "41976",
      "1950": "41971",
      "1951": "437",
      "1952": "436",
      "1953": "41975",
      "1954": "424",
      "1955": "417",
      "1956": "414",
      "1957": "425",
      "1958": "411",
      "1959": "4g",
      "1960": "382",
      "1961": "339",
      "1962": "337",
      "1963": "355",
      "1964": "31975",
      "1965": "327",
      "1966": "324",
      "1967": "345",
      "1968": "319",
      "1969": "3h",
      "1970": "3c",
      "1971": "216",
      "1972": "218",
      "1973": "230",
      "1974": "211",
      "1975": "12008",
      "1976": "11946",
      "1977": "1200",
      "1978": "12017",
      "1979": "119",
      "1980": "1h",
      "1981": "091",
      "1982": "076",
      "1983": "092",
      "1984": "089",
      "1985": "078",
      "1986": "035",
      "1987": "068",
      "1988": "037",
      "1989": "021",
      "1990": "022",
      "1991": "013",
      "1992": "011",
      "1993": "09",
      "1994": "vyacheslav",
      "1995": "kassymjomart",
      "1996": "phomvihane",
      "1997": "saysomphone",
      "1998": "benjamin",
      "1999": "yoweri",
      "2000": "vpcqcsđt",
      "2001": "fernando",
      "2002": "berlusconi",
      "2003": "bermúdez",
      "2004": "vehvilainen",
      "2005": "kilicdaroglu",
      "2006": "kaguta",
      "2007": "muhyiddin",
      "2008": "golovchenko",
      "2009": "yaakob",
      "2010": "najib",
      "2011": "haddad",
      "2012": "michael",
      "2013": "metropole",
      "2014": "sakellaropoulou",
      "2015": "pacheco",
      "2016": "sobotka",
      "2017": "moldova",
      "2018": "tokayev",
      "2019": "tokyo",
      "2020": "latvia",
      "2021": "emmerson",
      "2022": "hđbcqg",
      "2023": "ismail",
      "2024": "thiênhuế",
      "2025": "chuyển",
      "2026": "alsisi",
      "2027": "vilnius",
      "2028": "vietinbank",
      "2029": "hollande",
      "2030": "hội",
      "2031": "lumpur",
      "2032": "giuseppe",
      "2033": "triển",
      "2034": "thuyền",
      "2035": "nhiệm",
      "2036": "yassin",
      "2037": "wolfgang",
      "2038": "wcsp5",
      "2039": "vấn",
      "2040": "vyaches",
      "2041": "vườn",
      "2042": "uhuru",
      "2043": "tgpt",
      "2044": "shah",
      "2045": "sabeco",
      "2046": "sabri",
      "2047": "srettha",
      "2048": "scholz",
      "2049": "start",
      "2050": "qatar",
      "2051": "pctntc",
      "2052": "paul",
      "2053": "olympic",
      "2054": "obrador",
      "2055": "osaka",
      "2056": "odinga",
      "2057": "nuôi",
      "2058": "museveni",
      "2059": "mnangagwa",
      "2060": "mpic",
      "2061": "laropoulou",
      "2062": "lisbon",
      "2063": "lính",
      "2064": "knesset",
      "2065": "kemal",
      "2066": "kalimantan",
      "2067": "kassymjomar",
      "2068": "ktxh",
      "2069": "juncker",
      "2070": "jair",
      "2071": "hcapita",
      "2072": "hassanal",
      "2073": "hậu",
      "2074": "grdp",
      "2075": "flc",
      "2076": "ethiopia",
      "2077": "dubai",
      "2078": "díazcanel",
      "2079": "ctttg",
      "2080": "congo",
      "2081": "bashir",
      "2082": "bms",
      "2083": "bjp",
      "2084": "aquin",
      "2085": "ayeyawadychao",
      "2086": "jeanclaude",
      "2087": "volodin",
      "2088": "nicolas",
      "2089": "ngoại",
      "2090": "siphandone",
      "2091": "bảo",
      "2092": "phrayamekong",
      "2093": "thường",
      "2094": "đặc",
      "2095": "yamekong",
      "2096": "taliban",
      "2097": "stefan",
      "2098": "store",
      "2099": "serbia",
      "2100": "london",
      "2101": "lópez",
      "2102": "kurd",
      "2103": "jonas",
      "2104": "juan",
      "2105": "iebc",
      "2106": "biểu",
      "2107": "bush",
      "2108": "bhxh",
      "2109": "agwa",
      "2110": "8716",
      "2111": "romania",
      "2112": "marxlenin",
      "2113": "silvio",
      "2114": "silva",
      "2115": "đuổi",
      "2116": "vụ",
      "2117": "vui",
      "2118": "opia",
      "2119": "halimah",
      "2120": "haley",
      "2121": "grace",
      "2122": "graham",
      "2123": "20022007",
      "2124": "phomvi",
      "2125": "phòng",
      "2126": "veni",
      "2127": "saysom",
      "2128": "pany",
      "2129": "lenin",
      "2130": "lđlđ",
      "2131": "kín",
      "2132": "kuwait",
      "2133": "kuala",
      "2134": "gmt",
      "2135": "benjam",
      "2136": "bolkiah",
      "2137": "19862021",
      "2138": "peru",
      "2139": "lás",
      "2140": "health",
      "2141": "heng",
      "2142": "cnxh",
      "2143": "atf",
      "2144": "5214",
      "2145": "kenyatta",
      "2146": "appf29",
      "2147": "aroglu",
      "2148": "cop26",
      "2149": "times",
      "2150": "yower",
      "2151": "yeol",
      "2152": "yeong",
      "2153": "vpcq",
      "2154": "tami",
      "2155": "ferdinand",
      "2156": "fernan",
      "2157": "8h30",
      "2158": "19962016",
      "2159": "19962021",
      "2160": "davao",
      "2161": "dinand",
      "2162": "thavisin",
      "2163": "thành",
      "2164": "leste",
      "2165": "việc",
      "2166": "viêng",
      "2167": "sanal",
      "2168": "kyi",
      "2169": "berluscon",
      "2170": "bermú",
      "2171": "vehvi",
      "2172": "symjomar",
      "2173": "pedro",
      "2174": "pez",
      "2175": "george",
      "2176": "cker",
      "2177": "lưng",
      "2178": "19772022",
      "2179": "19542019",
      "2180": "sena",
      "2181": "samaj",
      "2182": "samrin",
      "2183": "gahr",
      "2184": "nhiễm",
      "2185": "nhìn",
      "2186": "set",
      "2187": "nikki",
      "2188": "19712023",
      "2189": "1953",
      "2190": "1951",
      "2191": "kistan",
      "2192": "kilicd",
      "2193": "ipu132",
      "2194": "borneo",
      "2195": "398",
      "2196": "tntp",
      "2197": "guzman",
      "2198": "19502020",
      "2199": "tổ",
      "2200": "nói",
      "2201": "nobel",
      "2202": "noi",
      "2203": "kiah",
      "2204": "katerina",
      "2205": "kabul",
      "2206": "kagu",
      "2207": "4768",
      "2208": "472",
      "2209": "treo",
      "2210": "terina",
      "2211": "akihito",
      "2212": "akka",
      "2213": "akp",
      "2214": "john",
      "2215": "boli",
      "2216": "9514",
      "2217": "958",
      "2218": "mekonglan",
      "2219": "claude",
      "2220": "bellen",
      "2221": "688",
      "2222": "372",
      "2223": "752",
      "2224": "israelhamas",
      "2225": "sự",
      "2226": "muhyid",
      "2227": "muham",
      "2228": "golovchen",
      "2229": "kovind",
      "2230": "yathotou",
      "2231": "yaako",
      "2232": "yacob",
      "2233": "ppp",
      "2234": "ppe",
      "2235": "java",
      "2236": "365",
      "2237": "363",
      "2238": "1947",
      "2239": "naji",
      "2240": "nath",
      "2241": "city",
      "2242": "cio",
      "2243": "hadda",
      "2244": "haji",
      "2245": "9943",
      "2246": "995",
      "2247": "991",
      "2248": "20132018",
      "2249": "20132023",
      "2250": "một",
      "2251": "hyid",
      "2252": "micha",
      "2253": "metro",
      "2254": "rovich",
      "2255": "roxas",
      "2256": "rou",
      "2257": "lainen",
      "2258": "sản",
      "2259": "sakel",
      "2260": "547",
      "2261": "park",
      "2262": "1987",
      "2263": "1985",
      "2264": "1983",
      "2265": "1981",
      "2266": "thotou",
      "2267": "papua",
      "2268": "pache",
      "2269": "orge",
      "2270": "orban",
      "2271": "mani",
      "2272": "197322",
      "2273": "19732022",
      "2274": "phục",
      "2275": "phủ",
      "2276": "riya",
      "2277": "hồi",
      "2278": "hồ",
      "2279": "2001",
      "2280": "dụcđào",
      "2281": "dụcthể",
      "2282": "marrero",
      "2283": "marin",
      "2284": "campuchialào",
      "2285": "raisi",
      "2286": "buồn",
      "2287": "licd",
      "2288": "19922",
      "2289": "1997",
      "2290": "sobo",
      "2291": "soi",
      "2292": "đuakhen",
      "2293": "moldo",
      "2294": "duarte",
      "2295": "19678",
      "2296": "1969",
      "2297": "1963",
      "2298": "david",
      "2299": "poulou",
      "2300": "pole",
      "2301": "poe",
      "2302": "unnh",
      "2303": "lộn",
      "2304": "logisti",
      "2305": "lovchen",
      "2306": "lofven",
      "2307": "bí",
      "2308": "297",
      "2309": "265",
      "2310": "usaid",
      "2311": "hộp",
      "2312": "duyệt",
      "2313": "conte",
      "2314": "đó",
      "2315": "tokaye",
      "2316": "toky",
      "2317": "tou",
      "2318": "chuộng",
      "2319": "hus",
      "2320": "244",
      "2321": "latvi",
      "2322": "lav",
      "2323": "hình",
      "2324": "suu",
      "2325": "suk",
      "2326": "458",
      "2327": "456",
      "2328": "454",
      "2329": "emmer",
      "2330": "động",
      "2331": "độc",
      "2332": "đánh",
      "2333": "đài",
      "2334": "ttb",
      "2335": "pua",
      "2336": "imantan",
      "2337": "imah",
      "2338": "ima",
      "2339": "17h",
      "2340": "177",
      "2341": "175",
      "2342": "168",
      "2343": "163",
      "2344": "huyền",
      "2345": "2326",
      "2346": "234",
      "2347": "288",
      "2348": "hđbc",
      "2349": "189",
      "2350": "185",
      "2351": "tại",
      "2352": "222",
      "2353": "1315",
      "2354": "136",
      "2355": "135",
      "2356": "134",
      "2357": "131",
      "2358": "ismai",
      "2359": "1469",
      "2360": "144",
      "2361": "140",
      "2362": "1979",
      "2363": "ens",
      "2364": "252",
      "2365": "250",
      "2366": "rero",
      "2367": "305",
      "2368": "20162020",
      "2369": "thiênh",
      "2370": "tusk",
      "2371": "tuỳ",
      "2372": "góc",
      "2373": "1519",
      "2374": "158",
      "2375": "154",
      "2376": "những",
      "2377": "bác",
      "2378": "chuyể",
      "2379": "khubnd",
      "2380": "asean3",
      "2381": "20182021",
      "2382": "nepal",
      "2383": "neo",
      "2384": "nen",
      "2385": "tự",
      "2386": "arte",
      "2387": "art",
      "2388": "ari",
      "2389": "alsis",
      "2390": "alth",
      "2391": "cả",
      "2392": "có",
      "2393": "viup",
      "2394": "vilni",
      "2395": "vikto",
      "2396": "vietin",
      "2397": "victo",
      "2398": "visin",
      "2399": "vier",
      "2400": "vind",
      "2401": "vich",
      "2402": "vio",
      "2403": "20222023",
      "2404": "tiếc",
      "2405": "1217",
      "2406": "124",
      "2407": "121",
      "2408": "hollan",
      "2409": "hộ",
      "2410": "hoành",
      "2411": "hoạ",
      "2412": "aya",
      "2413": "nhàng",
      "2414": "quay",
      "2415": "1185",
      "2416": "11h",
      "2417": "118",
      "2418": "115",
      "2419": "114",
      "2420": "timor",
      "2421": "tisco",
      "2422": "diễu",
      "2423": "1012",
      "2424": "107",
      "2425": "105",
      "2426": "103",
      "2427": "101",
      "2428": "aude",
      "2429": "luscon",
      "2430": "lumpu",
      "2431": "luận",
      "2432": "19h30",
      "2433": "1901",
      "2434": "1940",
      "2435": "1929",
      "2436": "1918",
      "2437": "1922",
      "2438": "1925",
      "2439": "1920",
      "2440": "19h",
      "2441": "razak",
      "2442": "thứ",
      "2443": "quyết",
      "2444": "aipo",
      "2445": "aid",
      "2446": "chínhngân",
      "2447": "làng",
      "2448": "nghệ",
      "2449": "namhàn",
      "2450": "namthái",
      "2451": "namnhật",
      "2452": "khéo",
      "2453": "khang",
      "2454": "kha",
      "2455": "gisti",
      "2456": "giuse",
      "2457": "giới",
      "2458": "gins",
      "2459": "giỏi",
      "2460": "giáng",
      "2461": "giống",
      "2462": "giết",
      "2463": "gio",
      "2464": "antan",
      "2465": "ant",
      "2466": "207",
      "2467": "phone",
      "2468": "pheu",
      "2469": "quvết",
      "2470": "quật",
      "2471": "quanh",
      "2472": "quỹ",
      "2473": "triể",
      "2474": "trươ",
      "2475": "chlb",
      "2476": "chiến",
      "2477": "chèo",
      "2478": "ches",
      "2479": "chùng",
      "2480": "chăn",
      "2481": "thoáng",
      "2482": "thế",
      "2483": "thậm",
      "2484": "thắp",
      "2485": "thánh",
      "2486": "thâu",
      "2487": "thuy",
      "2488": "than",
      "2489": "thự",
      "2490": "nhôm",
      "2491": "nhãn",
      "2492": "nhiê",
      "2493": "nhạt",
      "2494": "ngàn",
      "2495": "ngẫu",
      "2496": "ngạc",
      "2497": "ngược",
      "2498": "ngao",
      "2499": "ngõ",
      "2500": "ờn",
      "2501": "ộn",
      "2502": "ỏng",
      "2503": "ễu",
      "2504": "ễm",
      "2505": "̣u",
      "2506": "̣o",
      "2507": "̛̣c",
      "2508": "̛́c",
      "2509": "̛̣",
      "2510": "̉m",
      "2511": "̃ng",
      "2512": "́a",
      "2513": "̀u",
      "2514": "ở",
      "2515": "điểm",
      "2516": "đầu",
      "2517": "đất",
      "2518": "đặn",
      "2519": "đcs",
      "2520": "đáo",
      "2521": "đản",
      "2522": "đổ",
      "2523": "ập",
      "2524": "zak",
      "2525": "zman",
      "2526": "yas",
      "2527": "xas",
      "2528": "xăng",
      "2529": "xấp",
      "2530": "xỉ",
      "2531": "wait",
      "2532": "wol",
      "2533": "wcs",
      "2534": "vvd",
      "2535": "vchen",
      "2536": "vấ",
      "2537": "vya",
      "2538": "vũng",
      "2539": "vắc",
      "2540": "vời",
      "2541": "vong",
      "2542": "vân",
      "2543": "van",
      "2544": "vư",
      "2545": "vd",
      "2546": "ulou",
      "2547": "uhu",
      "2548": "uế",
      "2549": "uz",
      "2550": "up",
      "2551": "test",
      "2552": "ttha",
      "2553": "tgp",
      "2554": "taly",
      "2555": "tka",
      "2556": "toát",
      "2557": "tta",
      "2558": "ten",
      "2559": "tùng",
      "2560": "tiệp",
      "2561": "tươ",
      "2562": "tị",
      "2563": "tạ",
      "2564": "tb",
      "2565": "số",
      "2566": "sàn",
      "2567": "sít",
      "2568": "sha",
      "2569": "sabe",
      "2570": "sab",
      "2571": "scon",
      "2572": "sắt",
      "2573": "sre",
      "2574": "scho",
      "2575": "sti",
      "2576": "sụ",
      "2577": "sổ",
      "2578": "st",
      "2579": "rama",
      "2580": "rơi",
      "2581": "rus",
      "2582": "rừng",
      "2583": "rim",
      "2584": "riết",
      "2585": "ráo",
      "2586": "rập",
      "2587": "rồng",
      "2588": "ram",
      "2589": "rủ",
      "2590": "rơ",
      "2591": "rà",
      "2592": "qat",
      "2593": "pctn",
      "2594": "pca",
      "2595": "pau",
      "2596": "pgi",
      "2597": "p5",
      "2598": "olaf",
      "2599": "oly",
      "2600": "oil",
      "2601": "obra",
      "2602": "omi",
      "2603": "osa",
      "2604": "oman",
      "2605": "oas",
      "2606": "odi",
      "2607": "oa",
      "2608": "nốt",
      "2609": "non",
      "2610": "nương",
      "2611": "nổ",
      "2612": "nu",
      "2613": "mjomar",
      "2614": "muse",
      "2615": "mnang",
      "2616": "mới",
      "2617": "mệt",
      "2618": "mùi",
      "2619": "mỏi",
      "2620": "mpu",
      "2621": "mon",
      "2622": "mis",
      "2623": "men",
      "2624": "min",
      "2625": "mẫn",
      "2626": "mvi",
      "2627": "mâu",
      "2628": "mực",
      "2629": "mỏ",
      "2630": "mơ",
      "2631": "mú",
      "2632": "mã",
      "2633": "mp",
      "2634": "mc",
      "2635": "laro",
      "2636": "lọt",
      "2637": "lni",
      "2638": "lis",
      "2639": "llan",
      "2640": "lường",
      "2641": "ldo",
      "2642": "lật",
      "2643": "lẻ",
      "2644": "lô",
      "2645": "lí",
      "2646": "ld",
      "2647": "lb",
      "2648": "knes",
      "2649": "kaye",
      "2650": "kki",
      "2651": "kit",
      "2652": "kto",
      "2653": "kem",
      "2654": "kal",
      "2655": "kas",
      "2656": "kì",
      "2657": "kt",
      "2658": "jun",
      "2659": "jin",
      "2660": "jai",
      "2661": "jam",
      "2662": "ihito",
      "2663": "ita",
      "2664": "ic",
      "2665": "hcap",
      "2666": "hứa",
      "2667": "hẹn",
      "2668": "hệ",
      "2669": "hane",
      "2670": "hòn",
      "2671": "hát",
      "2672": "hin",
      "2673": "hôn",
      "2674": "hvi",
      "2675": "hứng",
      "2676": "has",
      "2677": "hổi",
      "2678": "hủ",
      "2679": "hâ",
      "2680": "hr",
      "2681": "gặt",
      "2682": "gách",
      "2683": "glu",
      "2684": "gạo",
      "2685": "gai",
      "2686": "gr",
      "2687": "fven",
      "2688": "fgang",
      "2689": "fil",
      "2690": "fit",
      "2691": "fl",
      "2692": "edouard",
      "2693": "ethi",
      "2694": "etin",
      "2695": "ey",
      "2696": "ea",
      "2697": "dệt",
      "2698": "dép",
      "2699": "dro",
      "2700": "dda",
      "2701": "dub",
      "2702": "dâm",
      "2703": "dấn",
      "2704": "dây",
      "2705": "diên",
      "2706": "dụ",
      "2707": "dí",
      "2708": "dy",
      "2709": "cấp",
      "2710": "cruz",
      "2711": "cro",
      "2712": "cto",
      "2713": "ctt",
      "2714": "cảng",
      "2715": "cành",
      "2716": "cốc",
      "2717": "cong",
      "2718": "cừ",
      "2719": "cô",
      "2720": "ct",
      "2721": "cq",
      "2722": "bầu",
      "2723": "bashi",
      "2724": "bali",
      "2725": "bám",
      "2726": "bắn",
      "2727": "bnd",
      "2728": "bn",
      "2729": "bm",
      "2730": "bj",
      "2731": "bb",
      "2732": "ako",
      "2733": "aec",
      "2734": "aqu",
      "2735": "á",
      "2736": "985",
      "2737": "947",
      "2738": "911",
      "2739": "919",
      "2740": "9h",
      "2741": "97",
      "2742": "8445",
      "2743": "868",
      "2744": "875",
      "2745": "880",
      "2746": "860",
      "2747": "810",
      "2748": "83",
      "2749": "81",
      "2750": "5n1",
      "2751": "593",
      "2752": "578",
      "2753": "468",
      "2754": "499",
      "2755": "450",
      "2756": "410",
      "2757": "420",
      "2758": "360",
      "2759": "370",
      "2760": "326",
      "2761": "350",
      "2762": "317",
      "2763": "312",
      "2764": "2129",
      "2765": "213",
      "2766": "214",
      "2767": "130",
      "2768": "norodom",
      "2769": "ayeyawady",
      "2770": "panmunjom",
      "2771": "tanzania",
      "2772": "rousseff",
      "2773": "moskva",
      "2774": "esteban",
      "2775": "duterte",
      "2776": "biểu",
      "2777": "sihamoni",
      "2778": "ubtvqh",
      "2779": "tunisia",
      "2780": "netanyahu",
      "2781": "albanese",
      "2782": "alexander",
      "2783": "anthony",
      "2784": "antonio",
      "2785": "phnom",
      "2786": "uruguay",
      "2787": "tầm",
      "2788": "schwab",
      "2789": "nấc",
      "2790": "laurinda",
      "2791": "lẫy",
      "2792": "kremlin",
      "2793": "justin",
      "2794": "hernandez",
      "2795": "hẳn",
      "2796": "glasgow",
      "2797": "frederiksen",
      "2798": "abdullah",
      "2799": "rodrigo",
      "2800": "burg",
      "2801": "maduro",
      "2802": "esperanca",
      "2803": "sultan",
      "2804": "thống",
      "2805": "norodo",
      "2806": "cúm",
      "2807": "balmoral",
      "2808": "brussels",
      "2809": "capella",
      "2810": "ayeyaw",
      "2811": "trudeau",
      "2812": "tgđ",
      "2813": "panmun",
      "2814": "nội",
      "2815": "kính",
      "2816": "klaus",
      "2817": "jean",
      "2818": "gms",
      "2819": "bolsonaro",
      "2820": "20052010",
      "2821": "máclênin",
      "2822": "cntt",
      "2823": "mohamad",
      "2824": "huếđà",
      "2825": "yoon",
      "2826": "abdulaziz",
      "2827": "ussels",
      "2828": "iểm",
      "2829": "volo",
      "2830": "ipsos",
      "2831": "đường",
      "2832": "kỳ",
      "2833": "syria",
      "2834": "penh",
      "2835": "sonaro",
      "2836": "ady",
      "2837": "19601976",
      "2838": "19541975",
      "2839": "nhuần",
      "2840": "sentosa",
      "2841": "delhi",
      "2842": "nhiuane",
      "2843": "ấp",
      "2844": "sẽ",
      "2845": "nigeria",
      "2846": "nico",
      "2847": "19711975",
      "2848": "guinea",
      "2849": "guay",
      "2850": "tổng",
      "2851": "ết",
      "2852": "487",
      "2853": "philippe",
      "2854": "20102015",
      "2855": "ngoa",
      "2856": "751",
      "2857": "gow",
      "2858": "expo",
      "2859": "yahu",
      "2860": "ruz",
      "2861": "inea",
      "2862": "tanzan",
      "2863": "1948",
      "2864": "1943",
      "2865": "nara",
      "2866": "hành",
      "2867": "999",
      "2868": "aipa43",
      "2869": "19451954",
      "2870": "michel",
      "2871": "ley",
      "2872": "leo",
      "2873": "mette",
      "2874": "kém",
      "2875": "rousse",
      "2876": "deau",
      "2877": "lhpn",
      "2878": "nsnn",
      "2879": "1982",
      "2880": "padei",
      "2881": "rinda",
      "2882": "2009",
      "2883": "maroc",
      "2884": "vatican",
      "2885": "ander",
      "2886": "litva",
      "2887": "sonexay",
      "2888": "som",
      "2889": "moral",
      "2890": "mosk",
      "2891": "moha",
      "2892": "este",
      "2893": "est",
      "2894": "duter",
      "2895": "unclos",
      "2896": "lou",
      "2897": "qđtw",
      "2898": "jomar",
      "2899": "jom",
      "2900": "biể",
      "2901": "bias",
      "2902": "siphan",
      "2903": "siham",
      "2904": "siêu",
      "2905": "usse",
      "2906": "đoa",
      "2907": "tosa",
      "2908": "trị",
      "2909": "270",
      "2910": "laziz",
      "2911": "lazo",
      "2912": "laf",
      "2913": "....",
      "2914": "đã",
      "2915": "hạch",
      "2916": "171",
      "2917": "ubtv",
      "2918": "184",
      "2919": "180",
      "2920": "định",
      "2921": "lênin",
      "2922": "2225",
      "2923": "229",
      "2924": "133",
      "2925": "1417",
      "2926": "149",
      "2927": "reuters",
      "2928": "truyền",
      "2929": "tunis",
      "2930": "mạiđầu",
      "2931": "bả",
      "2932": "khuất",
      "2933": "nexay",
      "2934": "netan",
      "2935": "20192024",
      "2936": "albanes",
      "2937": "alex",
      "2938": "ala",
      "2939": "car",
      "2940": "cob",
      "2941": "visa",
      "2942": "thủ",
      "2943": "thuý",
      "2944": "lãi",
      "2945": "128",
      "2946": "127",
      "2947": "saud",
      "2948": "20232025",
      "2949": "douard",
      "2950": "dor",
      "2951": "113",
      "2952": "111",
      "2953": "tican",
      "2954": "dilma",
      "2955": "104",
      "2956": "lui",
      "2957": "cuộc",
      "2958": "cái",
      "2959": "banes",
      "2960": "oáng",
      "2961": "quyền",
      "2962": "ait",
      "2963": "đãi",
      "2964": "namtrung",
      "2965": "amm",
      "2966": "khơi",
      "2967": "khái",
      "2968": "khúc",
      "2969": "giữ",
      "2970": "anthon",
      "2971": "anton",
      "2972": "anca",
      "2973": "anu",
      "2974": "pharma",
      "2975": "phno",
      "2976": "phụng",
      "2977": "phra",
      "2978": "phai",
      "2979": "triết",
      "2980": "trấn",
      "2981": "trật",
      "2982": "trăm",
      "2983": "trữ",
      "2984": "chớp",
      "2985": "cháy",
      "2986": "chứa",
      "2987": "chặn",
      "2988": "cháu",
      "2989": "chặng",
      "2990": "chen",
      "2991": "chiếu",
      "2992": "chân",
      "2993": "che",
      "2994": "thấm",
      "2995": "thon",
      "2996": "thiệp",
      "2997": "thải",
      "2998": "thươ",
      "2999": "thồ",
      "3000": "nhất",
      "3001": "nhờ",
      "3002": "ngoái",
      "3003": "ngai",
      "3004": "ớp",
      "3005": "ồi",
      "3006": "̣nh",
      "3007": "̣m",
      "3008": "̉n",
      "3009": "̉i",
      "3010": "́o",
      "3011": "́m",
      "3012": "ữ",
      "3013": "đồ",
      "3014": "đỏ",
      "3015": "đă",
      "3016": "đá",
      "3017": "ộc",
      "3018": "ôm",
      "3019": "éo",
      "3020": "ật",
      "3021": "áy",
      "3022": "ziz",
      "3023": "yame",
      "3024": "ý",
      "3025": "xoay",
      "3026": "xay",
      "3027": "xương",
      "3028": "wab",
      "3029": "wer",
      "3030": "vẹn",
      "3031": "vấp",
      "3032": "vết",
      "3033": "vỡ",
      "3034": "ví",
      "3035": "uters",
      "3036": "uard",
      "3037": "uane",
      "3038": "uru",
      "3039": "tầ",
      "3040": "tali",
      "3041": "tva",
      "3042": "tóm",
      "3043": "tôi",
      "3044": "tvi",
      "3045": "tai",
      "3046": "tờ",
      "3047": "tề",
      "3048": "sdg",
      "3049": "ste",
      "3050": "sto",
      "3051": "ser",
      "3052": "sánh",
      "3053": "sài",
      "3054": "siết",
      "3055": "sch",
      "3056": "rón",
      "3057": "rãi",
      "3058": "rực",
      "3059": "ry",
      "3060": "qg",
      "3061": "pvp",
      "3062": "pvc",
      "3063": "odo",
      "3064": "oay",
      "3065": "oc",
      "3066": "nis",
      "3067": "nan",
      "3068": "nấ",
      "3069": "n1",
      "3070": "mlin",
      "3071": "mãn",
      "3072": "lỗi",
      "3073": "lma",
      "3074": "lừng",
      "3075": "lon",
      "3076": "lái",
      "3077": "lar",
      "3078": "lạm",
      "3079": "lăng",
      "3080": "lau",
      "3081": "lẫ",
      "3082": "ló",
      "3083": "kur",
      "3084": "kiềm",
      "3085": "kre",
      "3086": "jus",
      "3087": "jon",
      "3088": "ju",
      "3089": "ie",
      "3090": "her",
      "3091": "hiếu",
      "3092": "huỷ",
      "3093": "hẳ",
      "3094": "glas",
      "3095": "gaza",
      "3096": "gòn",
      "3097": "gánh",
      "3098": "gay",
      "3099": "for",
      "3100": "fdi",
      "3101": "fan",
      "3102": "dám",
      "3103": "dốt",
      "3104": "dâng",
      "3105": "dừng",
      "3106": "dàng",
      "3107": "dường",
      "3108": "diệt",
      "3109": "dùng",
      "3110": "diệu",
      "3111": "dời",
      "3112": "dị",
      "3113": "dễ",
      "3114": "dg",
      "3115": "clos",
      "3116": "ctn",
      "3117": "cởi",
      "3118": "câu",
      "3119": "cang",
      "3120": "cũ",
      "3121": "cù",
      "3122": "cd",
      "3123": "bão",
      "3124": "biể",
      "3125": "bus",
      "3126": "bon",
      "3127": "bùng",
      "3128": "bh",
      "3129": "be",
      "3130": "aj",
      "3131": "ag",
      "3132": "912",
      "3133": "96",
      "3134": "87",
      "3135": "71",
      "3136": "600",
      "3137": "61",
      "3138": "470",
      "3139": "445",
      "3140": "225",
      "3141": "luxembourg",
      "3142": "afghanistan",
      "3143": "acmecs",
      "3144": "morrison",
      "3145": "azerbaijan",
      "3146": "vajiralongkorn",
      "3147": "maharani",
      "3148": "luxembour",
      "3149": "ralongkorn",
      "3150": "vksnd",
      "3151": "uganda",
      "3152": "schulz",
      "3153": "rượu",
      "3154": "qalibaf",
      "3155": "nandez",
      "3156": "korn",
      "3157": "darussalam",
      "3158": "afghanis",
      "3159": "acmec",
      "3160": "frederik",
      "3161": "morris",
      "3162": "ể",
      "3163": "mohammad",
      "3164": "cop28",
      "3165": "ầu",
      "3166": "francisco",
      "3167": "abdulla",
      "3168": "mahathir",
      "3169": "vcci",
      "3170": "salman",
      "3171": "salam",
      "3172": "việt",
      "3173": "nghị",
      "3174": "derik",
      "3175": "francois",
      "3176": "1959",
      "3177": "1952",
      "3178": "vào",
      "3179": "pradesh",
      "3180": "ters",
      "3181": "bour",
      "3182": "clv",
      "3183": "vốn",
      "3184": "góp",
      "3185": "azerbai",
      "3186": "techo",
      "3187": "cử",
      "3188": "yaw",
      "3189": "364",
      "3190": "csđt",
      "3191": "1941",
      "3192": "hà",
      "3193": "aipa44",
      "3194": "cpp",
      "3195": "rodri",
      "3196": "roman",
      "3197": "dez",
      "3198": "dei",
      "3199": "sáng",
      "3200": "ghanis",
      "3201": "2006",
      "3202": "marcos",
      "3203": "marx",
      "3204": "lệch",
      "3205": "vaji",
      "3206": "bur",
      "3207": "liz",
      "3208": "1990",
      "3209": "mahar",
      "3210": "madu",
      "3211": "sos",
      "3212": "esper",
      "3213": "1964",
      "3214": "1962",
      "3215": "sil",
      "3216": "use",
      "3217": "duyên",
      "3218": "chủ",
      "3219": "huấn",
      "3220": "suất",
      "3221": "sul",
      "3222": "đảng",
      "3223": "puan",
      "3224": "tỷ",
      "3225": "oni",
      "3226": "1890",
      "3227": "erbai",
      "3228": "22h",
      "3229": "lanka",
      "3230": "1978",
      "3231": "1974",
      "3232": "thịt",
      "3233": "recep",
      "3234": "iến",
      "3235": "300",
      "3236": "thir",
      "3237": "giáp",
      "3238": "baqer",
      "3239": "baf",
      "3240": "hoáxã",
      "3241": "ella",
      "3242": "els",
      "3243": "ninhquốc",
      "3244": "20182023",
      "3245": "nes",
      "3246": "arma",
      "3247": "lớp",
      "3248": "algeria",
      "3249": "cois",
      "3250": "cos",
      "3251": "thuẫn",
      "3252": "thuột",
      "3253": "129",
      "3254": "doạ",
      "3255": "1113",
      "3256": "20212030",
      "3257": "20212025",
      "3258": "diễn",
      "3259": "108",
      "3260": "trịan",
      "3261": "luxem",
      "3262": "luồng",
      "3263": "1931",
      "3264": "1912",
      "3265": "ralong",
      "3266": "namcuba",
      "3267": "chín",
      "3268": "ame",
      "3269": "khâu",
      "3270": "khiển",
      "3271": "giấy",
      "3272": "gió",
      "3273": "anwar",
      "3274": "phùng",
      "3275": "quát",
      "3276": "quê",
      "3277": "tránh",
      "3278": "trúc",
      "3279": "trục",
      "3280": "trống",
      "3281": "chức",
      "3282": "chênh",
      "3283": "chào",
      "3284": "chel",
      "3285": "chao",
      "3286": "thềm",
      "3287": "thép",
      "3288": "thắm",
      "3289": "thắn",
      "3290": "thai",
      "3291": "thô",
      "3292": "nhịp",
      "3293": "nhiệt",
      "3294": "ngưỡng",
      "3295": "ngời",
      "3296": "ềm",
      "3297": "̣̂",
      "3298": "́nh",
      "3299": "ưỡng",
      "3300": "ức",
      "3301": "đến",
      "3302": "đề",
      "3303": "đạp",
      "3304": "đhđ",
      "3305": "đôi",
      "3306": "đập",
      "3307": "địch",
      "3308": "đinh",
      "3309": "đu",
      "3310": "ón",
      "3311": "ðại",
      "3312": "ận",
      "3313": "ần",
      "3314": "zan",
      "3315": "xxi",
      "3316": "xứ",
      "3317": "who",
      "3318": "vks",
      "3319": "về",
      "3320": "với",
      "3321": "vắng",
      "3322": "vác",
      "3323": "vu",
      "3324": "uttar",
      "3325": "ugan",
      "3326": "tạc",
      "3327": "tệ",
      "3328": "tc",
      "3329": "schu",
      "3330": "rin",
      "3331": "ria",
      "3332": "rượ",
      "3333": "qali",
      "3334": "qer",
      "3335": "pn",
      "3336": "oanh",
      "3337": "op",
      "3338": "nor",
      "3339": "nand",
      "3340": "nôi",
      "3341": "nòng",
      "3342": "nn",
      "3343": "móng",
      "3344": "mun",
      "3345": "mec",
      "3346": "mừng",
      "3347": "mel",
      "3348": "mất",
      "3349": "lạnh",
      "3350": "lắp",
      "3351": "lọi",
      "3352": "lin",
      "3353": "lữ",
      "3354": "kor",
      "3355": "kạn",
      "3356": "kề",
      "3357": "ks",
      "3358": "jr",
      "3359": "ibrahim",
      "3360": "ik",
      "3361": "id",
      "3362": "h30",
      "3363": "hal",
      "3364": "gũi",
      "3365": "gra",
      "3366": "gốc",
      "3367": "gì",
      "3368": "ff",
      "3369": "duma",
      "3370": "darus",
      "3371": "dòng",
      "3372": "c03",
      "3373": "cep",
      "3374": "cãi",
      "3375": "cắt",
      "3376": "cây",
      "3377": "cú",
      "3378": "bin",
      "3379": "bal",
      "3380": "bách",
      "3381": "băng",
      "3382": "bai",
      "3383": "br",
      "3384": "af",
      "3385": "ac",
      "3386": "900",
      "3387": "98",
      "3388": "91",
      "3389": "88",
      "3390": "650",
      "3391": "57",
      "3392": "51",
      "3393": "348",
      "3394": "220",
      "3395": "02",
      "3396": "shangrila",
      "3397": "jakarta",
      "3398": "bangkok",
      "3399": "ễn",
      "3400": "washington",
      "3401": "unesco",
      "3402": "jcpoa",
      "3403": "jerusalem",
      "3404": "cchc",
      "3405": "bđkh",
      "3406": "hillary",
      "3407": "ủy",
      "3408": "séc",
      "3409": "hiện",
      "3410": "bén",
      "3411": "charles",
      "3412": "helsinki",
      "3413": "venezuela",
      "3414": "sinki",
      "3415": "syriza",
      "3416": "naruhito",
      "3417": "geneva",
      "3418": "avg",
      "3419": "tayyip",
      "3420": "brahim",
      "3421": "arab",
      "3422": "scott",
      "3423": "hamas",
      "3424": "shangri",
      "3425": "rutte",
      "3426": "jakar",
      "3427": "1949",
      "3428": "hàng",
      "3429": "cptpp",
      "3430": "riza",
      "3431": "hội",
      "3432": "2002",
      "3433": "martin",
      "3434": "1999",
      "3435": "mad",
      "3436": "1967",
      "3437": "qđnd",
      "3438": "sipas",
      "3439": "usalem",
      "3440": "tpp",
      "3441": "top",
      "3442": "bangko",
      "3443": "huỳnh",
      "3444": "uma",
      "3445": "ttxgp",
      "3446": "ttar",
      "3447": "1820",
      "3448": "tum",
      "3449": "gói",
      "3450": "150",
      "3451": "bốn",
      "3452": "nezuela",
      "3453": "neva",
      "3454": "ard",
      "3455": "alem",
      "3456": "cap",
      "3457": "khiêm",
      "3458": "viêm",
      "3459": "then",
      "3460": "aye",
      "3461": "112",
      "3462": "tỉnh",
      "3463": "hoài",
      "3464": "diazcanel",
      "3465": "cửu",
      "3466": "luân",
      "3467": "dựa",
      "3468": "angri",
      "3469": "1955",
      "3470": "1911",
      "3471": "ral",
      "3472": "nghênh",
      "3473": "nghề",
      "3474": "namlào",
      "3475": "gián",
      "3476": "giác",
      "3477": "anis",
      "3478": "2045",
      "3479": "2050",
      "3480": "pho",
      "3481": "pha",
      "3482": "truss",
      "3483": "trọn",
      "3484": "trôi",
      "3485": "trăng",
      "3486": "tru",
      "3487": "chói",
      "3488": "chạy",
      "3489": "châm",
      "3490": "chinh",
      "3491": "thpt",
      "3492": "thoái",
      "3493": "thẻ",
      "3494": "thù",
      "3495": "nhảy",
      "3496": "nhắc",
      "3497": "nhẹ",
      "3498": "nhì",
      "3499": "ngton",
      "3500": "ngôi",
      "3501": "ngợi",
      "3502": "ngữ",
      "3503": "ứa",
      "3504": "ẹn",
      "3505": "̣p",
      "3506": "̉nh",
      "3507": "́p",
      "3508": "ũi",
      "3509": "đòi",
      "3510": "đống",
      "3511": "đt",
      "3512": "đe",
      "3513": "ố",
      "3514": "ệ",
      "3515": "ễ",
      "3516": "ão",
      "3517": "zuela",
      "3518": "yip",
      "3519": "xgp",
      "3520": "washi",
      "3521": "wa",
      "3522": "vọt",
      "3523": "vóc",
      "3524": "ven",
      "3525": "vay",
      "3526": "uhito",
      "3527": "une",
      "3528": "tàn",
      "3529": "tế",
      "3530": "túng",
      "3531": "tĩnh",
      "3532": "tách",
      "3533": "tỉ",
      "3534": "tg",
      "3535": "sáu",
      "3536": "sri",
      "3537": "súng",
      "3538": "say",
      "3539": "sk",
      "3540": "rệt",
      "3541": "ris",
      "3542": "pvn",
      "3543": "pan",
      "3544": "pt",
      "3545": "ol",
      "3546": "nang",
      "3547": "nô",
      "3548": "môn",
      "3549": "mật",
      "3550": "mông",
      "3551": "lửa",
      "3552": "lla",
      "3553": "len",
      "3554": "lđ",
      "3555": "kon",
      "3556": "kiệt",
      "3557": "kí",
      "3558": "ku",
      "3559": "kl",
      "3560": "ke",
      "3561": "jcpo",
      "3562": "jer",
      "3563": "jan",
      "3564": "je",
      "3565": "him",
      "3566": "hái",
      "3567": "har",
      "3568": "hiển",
      "3569": "hấp",
      "3570": "gdp",
      "3571": "gọn",
      "3572": "gắng",
      "3573": "gang",
      "3574": "gấp",
      "3575": "gm",
      "3576": "fre",
      "3577": "dạy",
      "3578": "dày",
      "3579": "cpo",
      "3580": "cch",
      "3581": "báu",
      "3582": "bút",
      "3583": "ben",
      "3584": "bức",
      "3585": "bề",
      "3586": "bđ",
      "3587": "ah",
      "3588": "94",
      "3589": "700",
      "3590": "74",
      "3591": "64",
      "3592": "62",
      "3593": "58",
      "3594": "38",
      "3595": "219",
      "3596": "07",
      "3597": "narendra",
      "3598": "mozambique",
      "3599": "chiếc",
      "3600": "zimbabwe",
      "3601": "oceanbank",
      "3602": "mttq",
      "3603": "kazakhstan",
      "3604": "czech",
      "3605": "davos",
      "3606": "trùm",
      "3607": "được",
      "3608": "chính",
      "3609": "narend",
      "3610": "bcđ",
      "3611": "20112016",
      "3612": "guterres",
      "3613": "ến",
      "3614": "terres",
      "3615": "bol",
      "3616": "scotland",
      "3617": "nato",
      "3618": "uela",
      "3619": "mexico",
      "3620": "1988",
      "3621": "1986",
      "3622": "1980",
      "3623": "2008",
      "3624": "2005",
      "3625": "2003",
      "3626": "marine",
      "3627": "mark",
      "3628": "1998",
      "3629": "nóng",
      "3630": "mozam",
      "3631": "modi",
      "3632": "mor",
      "3633": "1965",
      "3634": "bique",
      "3635": "là",
      "3636": "hill",
      "3637": "170",
      "3638": "huyết",
      "3639": "132",
      "3640": "1972",
      "3641": "res",
      "3642": "ina",
      "3643": "ngày",
      "3644": "tuân",
      "3645": "phòngan",
      "3646": "barack",
      "3647": "babwe",
      "3648": "vịnh",
      "3649": "xico",
      "3650": "nda",
      "3651": "viễn",
      "3652": "20222026",
      "3653": "20232028",
      "3654": "tiêm",
      "3655": "khoán",
      "3656": "rack",
      "3657": "aic",
      "3658": "2028",
      "3659": "namhoa",
      "3660": "khstan",
      "3661": "khép",
      "3662": "khiến",
      "3663": "anbank",
      "3664": "2000",
      "3665": "quần",
      "3666": "trừng",
      "3667": "trời",
      "3668": "chấn",
      "3669": "chiế",
      "3670": "thang",
      "3671": "nhớ",
      "3672": "ngừa",
      "3673": "ngài",
      "3674": "ngờ",
      "3675": "ỳnh",
      "3676": "́t",
      "3677": "đòn",
      "3678": "đem",
      "3679": "ói",
      "3680": "òi",
      "3681": "zim",
      "3682": "zam",
      "3683": "za",
      "3684": "xxii",
      "3685": "xướng",
      "3686": "xh",
      "3687": "war",
      "3688": "ủ",
      "3689": "tland",
      "3690": "tụng",
      "3691": "tức",
      "3692": "tú",
      "3693": "sóng",
      "3694": "stan",
      "3695": "sé",
      "3696": "rẽ",
      "3697": "per",
      "3698": "oce",
      "3699": "mưu",
      "3700": "mtt",
      "3701": "mác",
      "3702": "liềm",
      "3703": "loài",
      "3704": "las",
      "3705": "lận",
      "3706": "liều",
      "3707": "lề",
      "3708": "lá",
      "3709": "lz",
      "3710": "kaza",
      "3711": "hỏi",
      "3712": "hiê",
      "3713": "hăng",
      "3714": "hại",
      "3715": "he",
      "3716": "end",
      "3717": "ê",
      "3718": "dạng",
      "3719": "dri",
      "3720": "dắt",
      "3721": "cze",
      "3722": "cn",
      "3723": "bwe",
      "3724": "bay",
      "3725": "bé",
      "3726": "bá",
      "3727": "at",
      "3728": "79",
      "3729": "52",
      "3730": "34",
      "3731": "33",
      "3732": "08",
      "3733": "elizabeth",
      "3734": "chanocha",
      "3735": "york",
      "3736": "nqubtvqh",
      "3737": "núi",
      "3738": "kenya",
      "3739": "brics",
      "3740": "sudan",
      "3741": "rịavũng",
      "3742": "vesak",
      "3743": "palestine",
      "3744": "avũng",
      "3745": "671",
      "3746": "btvqh",
      "3747": "clinton",
      "3748": "clmv",
      "3749": "máu",
      "3750": "azcanel",
      "3751": "abeth",
      "3752": "miguel",
      "3753": "manet",
      "3754": "2007",
      "3755": "1993",
      "3756": "cổng",
      "3757": "moham",
      "3758": "estine",
      "3759": "los",
      "3760": "huế",
      "3761": "latinh",
      "3762": "hito",
      "3763": "appf",
      "3764": "đồng",
      "3765": "16h",
      "3766": "inton",
      "3767": "eliz",
      "3768": "tường",
      "3769": "aro",
      "3770": "tốn",
      "3771": "cop",
      "3772": "thuế",
      "3773": "đói",
      "3774": "20222027",
      "3775": "126",
      "3776": "125",
      "3777": "hoãn",
      "3778": "tine",
      "3779": "tim",
      "3780": "1917",
      "3781": "2012",
      "3782": "khôi",
      "3783": "ane",
      "3784": "trầm",
      "3785": "trà",
      "3786": "chano",
      "3787": "char",
      "3788": "thể",
      "3789": "thích",
      "3790": "thắt",
      "3791": "thiệt",
      "3792": "thiểu",
      "3793": "thác",
      "3794": "thụ",
      "3795": "nhạy",
      "3796": "ngăn",
      "3797": "ngại",
      "3798": "ọt",
      "3799": "̀y",
      "3800": "đbqh",
      "3801": "đặng",
      "3802": "đậm",
      "3803": "đoán",
      "3804": "đốn",
      "3805": "đích",
      "3806": "đẳng",
      "3807": "ền",
      "3808": "ầ",
      "3809": "áâu",
      "3810": "yor",
      "3811": "yo",
      "3812": "ye",
      "3813": "vướng",
      "3814": "vp",
      "3815": "tam",
      "3816": "suy",
      "3817": "rạng",
      "3818": "ràng",
      "3819": "pas",
      "3820": "nồng",
      "3821": "nqu",
      "3822": "nú",
      "3823": "mãi",
      "3824": "mv",
      "3825": "lắk",
      "3826": "lùi",
      "3827": "ll",
      "3828": "kiêm",
      "3829": "ken",
      "3830": "kịch",
      "3831": "hel",
      "3832": "hương",
      "3833": "geria",
      "3834": "guel",
      "3835": "fer",
      "3836": "ez",
      "3837": "dặn",
      "3838": "cẩm",
      "3839": "bqh",
      "3840": "bri",
      "3841": "bè",
      "3842": "93",
      "3843": "8h",
      "3844": "82",
      "3845": "65",
      "3846": "354",
      "3847": "04",
      "3848": "01",
      "3849": "bulgaria",
      "3850": "rumani",
      "3851": "nộp",
      "3852": "kèm",
      "3853": "francis",
      "3854": "prayut",
      "3855": "widodo",
      "3856": "bulgar",
      "3857": "lưỡng",
      "3858": "samdech",
      "3859": "ất",
      "3860": "nqcp",
      "3861": "tncs",
      "3862": "hcm",
      "3863": "dech",
      "3864": "abdu",
      "3865": "1996",
      "3866": "maha",
      "3867": "dav",
      "3868": "joko",
      "3869": "uss",
      "3870": "cốt",
      "3871": "sud",
      "3872": "tte",
      "3873": "500",
      "3874": "canel",
      "3875": "erdogan",
      "3876": "eria",
      "3877": "1976",
      "3878": "iể",
      "3879": "tuý",
      "3880": "xuống",
      "3881": "các",
      "3882": "mỹtriều",
      "3883": "ashi",
      "3884": "tuyệt",
      "3885": "dogan",
      "3886": "dodo",
      "3887": "hoan",
      "3888": "din",
      "3889": "20202021",
      "3890": "102",
      "3891": "oái",
      "3892": "chủng",
      "3893": "2027",
      "3894": "nghèo",
      "3895": "khảo",
      "3896": "phận",
      "3897": "phù",
      "3898": "quốc",
      "3899": "que",
      "3900": "triệt",
      "3901": "trù",
      "3902": "chóng",
      "3903": "chục",
      "3904": "tha",
      "3905": "nhỏ",
      "3906": "̉ng",
      "3907": "̀nh",
      "3908": "đêm",
      "3909": "đỡ",
      "3910": "ốc",
      "3911": "ề",
      "3912": "yoshihide",
      "3913": "xít",
      "3914": "vẻ",
      "3915": "vo",
      "3916": "vc",
      "3917": "tốc",
      "3918": "tỏ",
      "3919": "sạch",
      "3920": "sal",
      "3921": "sao",
      "3922": "rum",
      "3923": "rị",
      "3924": "obama",
      "3925": "nước",
      "3926": "nạn",
      "3927": "nộ",
      "3928": "les",
      "3929": "liền",
      "3930": "lậu",
      "3931": "kiếm",
      "3932": "kar",
      "3933": "kè",
      "3934": "ip",
      "3935": "dược",
      "3936": "cờ",
      "3937": "búa",
      "3938": "bama",
      "3939": "76",
      "3940": "400",
      "3941": "05",
      "3942": "asosai",
      "3943": "tnhh",
      "3944": "castro",
      "3945": "fidel",
      "3946": "jaein",
      "3947": "bồi",
      "3948": "franc",
      "3949": "pray",
      "3950": "brazil",
      "3951": "aza",
      "3952": "oshihide",
      "3953": "1946",
      "3954": "miễn",
      "3955": "buổi",
      "3956": "liêu",
      "3957": "ireland",
      "3958": "phút",
      "3959": "hihide",
      "3960": "suga",
      "3961": "đại",
      "3962": "land",
      "3963": "eland",
      "3964": "viê",
      "3965": "asos",
      "3966": "trịngoại",
      "3967": "bank",
      "3968": "nghiên",
      "3969": "nghỉ",
      "3970": "nghi",
      "3971": "nghe",
      "3972": "giềng",
      "3973": "giả",
      "3974": "ano",
      "3975": "phép",
      "3976": "phường",
      "3977": "phật",
      "3978": "phổ",
      "3979": "phe",
      "3980": "quận",
      "3981": "trừ",
      "3982": "chịu",
      "3983": "tháp",
      "3984": "tháo",
      "3985": "thí",
      "3986": "ngắn",
      "3987": "ềng",
      "3988": "̀i",
      "3989": "ới",
      "3990": "đươ",
      "3991": "úa",
      "3992": "ðảng",
      "3993": "zil",
      "3994": "wi",
      "3995": "ves",
      "3996": "ut",
      "3997": "tặng",
      "3998": "tnh",
      "3999": "san",
      "4000": "sẻ",
      "4001": "pen",
      "4002": "pf",
      "4003": "niềm",
      "4004": "mắt",
      "4005": "mong",
      "4006": "lạng",
      "4007": "láng",
      "4008": "lân",
      "4009": "ly",
      "4010": "kênh",
      "4011": "ky",
      "4012": "hẹp",
      "4013": "gar",
      "4014": "gp",
      "4015": "et",
      "4016": "der",
      "4017": "cấu",
      "4018": "cas",
      "4019": "cân",
      "4020": "cà",
      "4021": "bởi",
      "4022": "bảy",
      "4023": "ber",
      "4024": "bái",
      "4025": "bạo",
      "4026": "bày",
      "4027": "800",
      "4028": "32",
      "4029": "sisoulith",
      "4030": "thongloun",
      "4031": "gửi",
      "4032": "nđcp",
      "4033": "sisou",
      "4034": "chile",
      "4035": "bul",
      "4036": "lith",
      "4037": "mobifone",
      "4038": "loun",
      "4039": "bifone",
      "4040": "bangladesh",
      "4041": "ladesh",
      "4042": "hide",
      "4043": "khoẻ",
      "4044": "xin",
      "4045": "trưng",
      "4046": "1930",
      "4047": "ama",
      "4048": "khen",
      "4049": "khống",
      "4050": "chánh",
      "4051": "thong",
      "4052": "nhấn",
      "4053": "ngọn",
      "4054": "ngang",
      "4055": "ngô",
      "4056": "ịu",
      "4057": "̣ng",
      "4058": "́n",
      "4059": "ể",
      "4060": "èo",
      "4061": "àn",
      "4062": "ve",
      "4063": "ur",
      "4064": "tôn",
      "4065": "tả",
      "4066": "sin",
      "4067": "sy",
      "4068": "pal",
      "4069": "pe",
      "4070": "nét",
      "4071": "mẫu",
      "4072": "mậu",
      "4073": "mười",
      "4074": "lượt",
      "4075": "ji",
      "4076": "hiếm",
      "4077": "hằng",
      "4078": "gử",
      "4079": "fone",
      "4080": "fi",
      "4081": "dịp",
      "4082": "cdu",
      "4083": "csu",
      "4084": "cống",
      "4085": "ce",
      "4086": "bạc",
      "4087": "bãi",
      "4088": "92",
      "4089": "85",
      "4090": "66",
      "4091": "56",
      "4092": "110",
      "4093": "06",
      "4094": "tầng",
      "4095": "brunei",
      "4096": "myanmar",
      "4097": "spd",
      "4098": "dưỡng",
      "4099": "1989",
      "4100": "chí",
      "4101": "buộc",
      "4102": "1995",
      "4103": "toả",
      "4104": "hun",
      "4105": "20172022",
      "4106": "cửa",
      "4107": "phái",
      "4108": "nghìn",
      "4109": "ước",
      "4110": "anmar",
      "4111": "chúc",
      "4112": "thiệu",
      "4113": "tật",
      "4114": "tầ",
      "4115": "son",
      "4116": "sôi",
      "4117": "sàng",
      "4118": "sạn",
      "4119": "rằng",
      "4120": "ou",
      "4121": "nặng",
      "4122": "nar",
      "4123": "nđ",
      "4124": "mau",
      "4125": "lạp",
      "4126": "liêm",
      "4127": "ge",
      "4128": "cấm",
      "4129": "căng",
      "4130": "ck",
      "4131": "bru",
      "4132": "bạch",
      "4133": "bại",
      "4134": "ad",
      "4135": "73",
      "4136": "53",
      "4137": "49",
      "4138": "120",
      "4139": "03",
      "4140": "angela",
      "4141": "vươn",
      "4142": "slovakia",
      "4143": "rèn",
      "4144": "luyện",
      "4145": "fumio",
      "4146": "kishida",
      "4147": "jae",
      "4148": "hưng",
      "4149": "vakia",
      "4150": "1960",
      "4151": "hida",
      "4152": "hđba",
      "4153": "nei",
      "4154": "mạch",
      "4155": "angel",
      "4156": "khung",
      "4157": "khá",
      "4158": "phước",
      "4159": "trạng",
      "4160": "thấp",
      "4161": "thiên",
      "4162": "ngạch",
      "4163": "ngũ",
      "4164": "ặn",
      "4165": "ẫu",
      "4166": "́ng",
      "4167": "xứng",
      "4168": "xô",
      "4169": "viii",
      "4170": "vươ",
      "4171": "tàu",
      "4172": "tồn",
      "4173": "tắc",
      "4174": "tang",
      "4175": "slo",
      "4176": "sis",
      "4177": "rè",
      "4178": "nằm",
      "4179": "nêu",
      "4180": "nối",
      "4181": "mua",
      "4182": "lạc",
      "4183": "luy",
      "4184": "lư",
      "4185": "iz",
      "4186": "gan",
      "4187": "fum",
      "4188": "dõi",
      "4189": "dội",
      "4190": "dữ",
      "4191": "bồ",
      "4192": "bc",
      "4193": "av",
      "4194": "72",
      "4195": "69",
      "4196": "sẵn",
      "4197": "boris",
      "4198": "muốn",
      "4199": "1992",
      "4200": "moon",
      "4201": "huân",
      "4202": "hạnh",
      "4203": "bào",
      "4204": "1977",
      "4205": "xviii",
      "4206": "ali",
      "4207": "trịnh",
      "4208": "của",
      "4209": "1954",
      "4210": "hàm",
      "4211": "khắp",
      "4212": "khích",
      "4213": "trắng",
      "4214": "tro",
      "4215": "chxhcn",
      "4216": "chắc",
      "4217": "cha",
      "4218": "thừa",
      "4219": "thật",
      "4220": "thao",
      "4221": "thì",
      "4222": "nhu",
      "4223": "ngãi",
      "4224": "̣t",
      "4225": "đắn",
      "4226": "đài",
      "4227": "đan",
      "4228": "õi",
      "4229": "áu",
      "4230": "vua",
      "4231": "tắt",
      "4232": "tận",
      "4233": "sen",
      "4234": "sam",
      "4235": "sẵ",
      "4236": "oana",
      "4237": "one",
      "4238": "mắc",
      "4239": "mai",
      "4240": "kích",
      "4241": "g20",
      "4242": "gỡ",
      "4243": "ga",
      "4244": "fran",
      "4245": "del",
      "4246": "cột",
      "4247": "86",
      "4248": "77",
      "4249": "chdcnd",
      "4250": "desh",
      "4251": "chữa",
      "4252": "italy",
      "4253": "arabia",
      "4254": "1968",
      "4255": "1961",
      "4256": "emmanuel",
      "4257": "uae",
      "4258": "tròn",
      "4259": "canada",
      "4260": "saudi",
      "4261": "2011",
      "4262": "khát",
      "4263": "ani",
      "4264": "trúng",
      "4265": "thôn",
      "4266": "thọ",
      "4267": "nhi",
      "4268": "nha",
      "4269": "̉a",
      "4270": "́i",
      "4271": "ãn",
      "4272": "ấ",
      "4273": "xoá",
      "4274": "vật",
      "4275": "tấm",
      "4276": "sai",
      "4277": "se",
      "4278": "nai",
      "4279": "ni",
      "4280": "mặc",
      "4281": "my",
      "4282": "ldp",
      "4283": "iv",
      "4284": "hãng",
      "4285": "hạt",
      "4286": "hiểu",
      "4287": "gcc",
      "4288": "cdc",
      "4289": "binh",
      "4290": "42",
      "4291": "hungary",
      "4292": "mùa",
      "4293": "1971",
      "4294": "thuỵ",
      "4295": "đón",
      "4296": "tếthương",
      "4297": "195",
      "4298": "cánh",
      "4299": "hào",
      "4300": "giản",
      "4301": "trú",
      "4302": "chú",
      "4303": "thẳng",
      "4304": "thuỷ",
      "4305": "thử",
      "4306": "̣n",
      "4307": "đắk",
      "4308": "vậy",
      "4309": "vang",
      "4310": "tay",
      "4311": "tảng",
      "4312": "sắp",
      "4313": "sông",
      "4314": "sp",
      "4315": "oda",
      "4316": "nq",
      "4317": "lừa",
      "4318": "lúc",
      "4319": "kis",
      "4320": "ki",
      "4321": "ipu",
      "4322": "hiểm",
      "4323": "hung",
      "4324": "bùi",
      "4325": "bor",
      "4326": "ada",
      "4327": "89",
      "4328": "67",
      "4329": "41",
      "4330": "39",
      "4331": "argentina",
      "4332": "sớm",
      "4333": "index",
      "4334": "johnson",
      "4335": "zealand",
      "4336": "máy",
      "4337": "khuyến",
      "4338": "nson",
      "4339": "tina",
      "4340": "argen",
      "4341": "aland",
      "4342": "aly",
      "4343": "giàu",
      "4344": "giặc",
      "4345": "chdc",
      "4346": "đỗ",
      "4347": "ãng",
      "4348": "tiềm",
      "4349": "tải",
      "4350": "tiện",
      "4351": "tn",
      "4352": "sớ",
      "4353": "rút",
      "4354": "ran",
      "4355": "nếu",
      "4356": "mệnh",
      "4357": "mù",
      "4358": "kịp",
      "4359": "ind",
      "4360": "il",
      "4361": "hầu",
      "4362": "gen",
      "4363": "gu",
      "4364": "des",
      "4365": "78",
      "4366": "theresa",
      "4367": "macron",
      "4368": "philippines",
      "4369": "belarus",
      "4370": "ngoặt",
      "4371": "shinzo",
      "4372": "ines",
      "4373": "và",
      "4374": "loạt",
      "4375": "inzo",
      "4376": "tuấn",
      "4377": "asem",
      "4378": "thuốc",
      "4379": "there",
      "4380": "1950",
      "4381": "chăm",
      "4382": "chỗ",
      "4383": "thăng",
      "4384": "thầu",
      "4385": "ngôn",
      "4386": "ạy",
      "4387": "̀n",
      "4388": "vun",
      "4389": "ton",
      "4390": "tô",
      "4391": "pra",
      "4392": "no",
      "4393": "linh",
      "4394": "kia",
      "4395": "kêu",
      "4396": "kỹ",
      "4397": "ka",
      "4398": "hút",
      "4399": "gìn",
      "4400": "btv",
      "4401": "bến",
      "4402": "bra",
      "4403": "47",
      "4404": "46",
      "4405": "35",
      "4406": "đợt",
      "4407": "merkel",
      "4408": "buôn",
      "4409": "mac",
      "4410": "đoạt",
      "4411": "vàng",
      "4412": "ana",
      "4413": "2030",
      "4414": "phức",
      "4415": "tre",
      "4416": "chỉnh",
      "4417": "chữ",
      "4418": "đọc",
      "4419": "đợ",
      "4420": "óng",
      "4421": "ế",
      "4422": "áthái",
      "4423": "xanh",
      "4424": "tand",
      "4425": "ter",
      "4426": "lục",
      "4427": "io",
      "4428": "ep",
      "4429": "cước",
      "4430": "biện",
      "4431": "ak",
      "4432": "48",
      "4433": "xhcn",
      "4434": "joh",
      "4435": "thịnh",
      "4436": "hoảng",
      "4437": "tếxã",
      "4438": "cuốn",
      "4439": "khủng",
      "4440": "khắc",
      "4441": "phấn",
      "4442": "trái",
      "4443": "điển",
      "4444": "xhc",
      "4445": "xúc",
      "4446": "xe",
      "4447": "xa",
      "4448": "sóc",
      "4449": "sứ",
      "4450": "ron",
      "4451": "pci",
      "4452": "lâm",
      "4453": "dậy",
      "4454": "dầu",
      "4455": "cc",
      "4456": "bo",
      "4457": "95",
      "4458": "63",
      "4459": "43",
      "4460": "vladimir",
      "4461": "mekong",
      "4462": "manuel",
      "4463": "phía",
      "4464": "philipp",
      "4465": "lipp",
      "4466": "qđttg",
      "4467": "qđns",
      "4468": "ttg",
      "4469": "khoản",
      "4470": "thuật",
      "4471": "tiếng",
      "4472": "tiết",
      "4473": "2010",
      "4474": "chốt",
      "4475": "thập",
      "4476": "ệt",
      "4477": "đế",
      "4478": "ênh",
      "4479": "zo",
      "4480": "vla",
      "4481": "vượng",
      "4482": "tượng",
      "4483": "túc",
      "4484": "tiểu",
      "4485": "tv",
      "4486": "nắm",
      "4487": "mer",
      "4488": "liệu",
      "4489": "kel",
      "4490": "it",
      "4491": "cl",
      "4492": "ara",
      "4493": "papi",
      "4494": "paris",
      "4495": "arus",
      "4496": "ary",
      "4497": "dimir",
      "4498": "khách",
      "4499": "nhiên",
      "4500": "̀ng",
      "4501": "đắp",
      "4502": "tù",
      "4503": "sco",
      "4504": "mir",
      "4505": "may",
      "4506": "kiệm",
      "4507": "hay",
      "4508": "dù",
      "4509": "bel",
      "4510": "bạn",
      "4511": "bia",
      "4512": "68",
      "4513": "37",
      "4514": "bậc",
      "4515": "wef",
      "4516": "khuyết",
      "4517": "xix",
      "4518": "hoặc",
      "4519": "nguyện",
      "4520": "hài",
      "4521": "quán",
      "4522": "thêm",
      "4523": "ngọc",
      "4524": "ngo",
      "4525": "ắk",
      "4526": "̣i",
      "4527": "ép",
      "4528": "ze",
      "4529": "xvi",
      "4530": "vii",
      "4531": "riêng",
      "4532": "nửa",
      "4533": "kong",
      "4534": "gương",
      "4535": "dành",
      "4536": "bật",
      "4537": "bế",
      "4538": "bậ",
      "4539": "75",
      "4540": "israel",
      "4541": "iêng",
      "4542": "đào",
      "4543": "rael",
      "4544": "nghiệm",
      "4545": "khánh",
      "4546": "khả",
      "4547": "phan",
      "4548": "chứng",
      "4549": "chẽ",
      "4550": "thơ",
      "4551": "đầy",
      "4552": "vô",
      "4553": "sư",
      "4554": "pap",
      "4555": "má",
      "4556": "mu",
      "4557": "lương",
      "4558": "ham",
      "4559": "go",
      "4560": "g7",
      "4561": "ex",
      "4562": "bó",
      "4563": "az",
      "4564": "usd",
      "4565": "huyện",
      "4566": "xvii",
      "4567": "2024",
      "4568": "ỡng",
      "4569": "điệp",
      "4570": "đai",
      "4571": "ùi",
      "4572": "ít",
      "4573": "te",
      "4574": "qh",
      "4575": "lựa",
      "4576": "ko",
      "4577": "dp",
      "4578": "cập",
      "4579": "bán",
      "4580": "bỉ",
      "4581": "55",
      "4582": "44",
      "4583": "bàn",
      "4584": "phản",
      "4585": "chấm",
      "4586": "chúng",
      "4587": "thệ",
      "4588": "ựa",
      "4589": "ắm",
      "4590": "ầy",
      "4591": "ảnh",
      "4592": "̣c",
      "4593": "đáp",
      "4594": "vốn",
      "4595": "viết",
      "4596": "nào",
      "4597": "cư",
      "4598": "bảng",
      "4599": "90",
      "4600": "80",
      "4601": "tìm",
      "4602": "malaysia",
      "4603": "hưởng",
      "4604": "000",
      "4605": "tuệ",
      "4606": "khuôn",
      "4607": "cảm",
      "4608": "aysia",
      "4609": "khẩu",
      "4610": "khám",
      "4611": "trang",
      "4612": "trả",
      "4613": "nhĩ",
      "4614": "óc",
      "4615": "ya",
      "4616": "tám",
      "4617": "tì",
      "4618": "sh",
      "4619": "ru",
      "4620": "pp",
      "4621": "ja",
      "4622": "ine",
      "4623": "dũng",
      "4624": "cai",
      "4625": "putin",
      "4626": "ửa",
      "4627": "ẩu",
      "4628": "đặt",
      "4629": "tạp",
      "4630": "rời",
      "4631": "lối",
      "4632": "hc",
      "4633": "dứt",
      "4634": "36",
      "4635": "nẵng",
      "4636": "tiễn",
      "4637": "cuối",
      "4638": "khổ",
      "4639": "quý",
      "4640": "thoại",
      "4641": "ứt",
      "4642": "àu",
      "4643": "yên",
      "4644": "we",
      "4645": "vĩnh",
      "4646": "tân",
      "4647": "os",
      "4648": "nẵ",
      "4649": "mal",
      "4650": "hồng",
      "4651": "cậy",
      "4652": "cs",
      "4653": "jongun",
      "4654": "1975",
      "4655": "100",
      "4656": "khăn",
      "4657": "giam",
      "4658": "ạc",
      "4659": "tan",
      "4660": "tụ",
      "4661": "jong",
      "4662": "hỗ",
      "4663": "dò",
      "4664": "nguồn",
      "4665": "new",
      "4666": "lãng",
      "4667": "đều",
      "4668": "194",
      "4669": "thoát",
      "4670": "nhanh",
      "4671": "ịp",
      "4672": "ặng",
      "4673": "xâm",
      "4674": "tái",
      "4675": "sỹ",
      "4676": "na",
      "4677": "lấy",
      "4678": "loại",
      "4679": "hùng",
      "4680": "ci",
      "4681": "kéo",
      "4682": "tuần",
      "4683": "2014",
      "4684": "thiện",
      "4685": "thân",
      "4686": "ngay",
      "4687": "đúng",
      "4688": "đủ",
      "4689": "xx",
      "4690": "tên",
      "4691": "lưu",
      "4692": "lẫn",
      "4693": "ha",
      "4694": "dc",
      "4695": "bài",
      "4696": "99",
      "4697": "brexit",
      "4698": "hôm",
      "4699": "abe",
      "4700": "nữa",
      "4701": "khoảng",
      "4702": "sửa",
      "4703": "2013",
      "4704": "aipa",
      "4705": "giúp",
      "4706": "úp",
      "4707": "vn",
      "4708": "mô",
      "4709": "hy",
      "4710": "cạnh",
      "4711": "cp",
      "4712": "iran",
      "4713": "xit",
      "4714": "1945",
      "4715": "nhìn",
      "4716": "ngu",
      "4717": "yếu",
      "4718": "vinh",
      "4719": "uel",
      "4720": "tạm",
      "4721": "mi",
      "4722": "le",
      "4723": "cụ",
      "4724": "bre",
      "4725": "biển",
      "4726": "joe",
      "4727": "hạng",
      "4728": "20152020",
      "4729": "khó",
      "4730": "phạt",
      "4731": "ạng",
      "4732": "đột",
      "4733": "vĩ",
      "4734": "lòng",
      "4735": "lâu",
      "4736": "ghi",
      "4737": "lhq",
      "4738": "đàm",
      "4739": "iềm",
      "4740": "khối",
      "4741": "giảm",
      "4742": "đáng",
      "4743": "tiền",
      "4744": "soát",
      "4745": "me",
      "4746": "ké",
      "4747": "cận",
      "4748": "cung",
      "4749": "biết",
      "4750": "60",
      "4751": "coi",
      "4752": "khẩn",
      "4753": "chiếm",
      "4754": "thiếu",
      "4755": "nhậm",
      "4756": "ngành",
      "4757": "ạnh",
      "4758": "tử",
      "4759": "ro",
      "4760": "mốc",
      "4761": "liệt",
      "4762": "bao",
      "4763": "australia",
      "4764": "austral",
      "4765": "phán",
      "4766": "tral",
      "4767": "trận",
      "4768": "thấy",
      "4769": "thất",
      "4770": "́c",
      "4771": "đốc",
      "4772": "ãi",
      "4773": "xung",
      "4774": "tựu",
      "4775": "dư",
      "4776": "40",
      "4777": "gặp",
      "4778": "thoả",
      "4779": "chuyên",
      "4780": "khuy",
      "4781": "chưa",
      "4782": "chặt",
      "4783": "đắc",
      "4784": "đương",
      "4785": "mình",
      "4786": "lai",
      "4787": "gặ",
      "4788": "de",
      "4789": "căn",
      "4790": "cương",
      "4791": "bối",
      "4792": "nhưng",
      "4793": "tuyển",
      "4794": "trụ",
      "4795": "thách",
      "4796": "vòng",
      "4797": "sung",
      "4798": "sa",
      "4799": "nơi",
      "4800": "lh",
      "4801": "54",
      "4802": "xuyên",
      "4803": "ttxvn",
      "4804": "tín",
      "4805": "aus",
      "4806": "ổn",
      "4807": "út",
      "4808": "xuy",
      "4809": "môi",
      "4810": "long",
      "4811": "kiên",
      "4812": "hư",
      "4813": "70",
      "4814": "indonesia",
      "4815": "biden",
      "4816": "ttxv",
      "4817": "indone",
      "4818": "đăng",
      "4819": "võ",
      "4820": "par",
      "4821": "den",
      "4822": "ghế",
      "4823": "từng",
      "4824": "sơn",
      "4825": "ns",
      "4826": "gắn",
      "4827": "huệ",
      "4828": "...",
      "4829": "done",
      "4830": "198",
      "4831": "tho",
      "4832": "ọc",
      "4833": "ạp",
      "4834": "tương",
      "4835": "pa",
      "4836": "or",
      "4837": "man",
      "4838": "bác",
      "4839": "xếp",
      "4840": "độc",
      "4841": "xế",
      "4842": "toán",
      "4843": "rõ",
      "4844": "nên",
      "4845": "cải",
      "4846": "suốt",
      "4847": "giám",
      "4848": "mạc",
      "4849": "phối",
      "4850": "triệu",
      "4851": "trẻ",
      "4852": "thôi",
      "4853": "singapore",
      "4854": "singapo",
      "4855": "1973",
      "4856": "ngapo",
      "4857": "phê",
      "4858": "phu",
      "4859": "trải",
      "4860": "thổ",
      "4861": "ồn",
      "4862": "ậm",
      "4863": "ơi",
      "4864": "êm",
      "4865": "vũ",
      "4866": "ri",
      "4867": "niệm",
      "4868": "hô",
      "4869": "gh",
      "4870": "phụ",
      "4871": "ix",
      "4872": "gọi",
      "4873": "cục",
      "4874": "covid19",
      "4875": "khoa",
      "4876": "tuyến",
      "4877": "khỏi",
      "4878": "200",
      "4879": "chi",
      "4880": "mỗi",
      "4881": "31",
      "4882": "20212026",
      "4883": "iii",
      "4884": "ếu",
      "4885": "xác",
      "4886": "tây",
      "4887": "mang",
      "4888": "dục",
      "4889": "ab",
      "4890": "doanh",
      "4891": "ukraine",
      "4892": "bất",
      "4893": "kraine",
      "4894": "tưởng",
      "4895": "phóng",
      "4896": "oán",
      "4897": "kháng",
      "4898": "vọng",
      "4899": "sang",
      "4900": "krai",
      "4901": "trợ",
      "4902": "nhóm",
      "4903": "đội",
      "4904": "tấn",
      "4905": "sống",
      "4906": "nỗ",
      "4907": "mar",
      "4908": "hiến",
      "4909": "dài",
      "4910": "cầm",
      "4911": "campuchia",
      "4912": "puchia",
      "4913": "tuổi",
      "4914": "ỗi",
      "4915": "vẫn",
      "4916": "lệ",
      "4917": "nói",
      "4918": "hồi",
      "4919": "thưởng",
      "4920": "iếm",
      "4921": "nhau",
      "4922": "áp",
      "4923": "rất",
      "4924": "nghệ",
      "4925": "chọn",
      "4926": "ắp",
      "4927": "va",
      "4928": "tán",
      "4929": "rai",
      "4930": "lao",
      "4931": "khẳng",
      "4932": "vận",
      "4933": "tw",
      "4934": "and",
      "4935": "phí",
      "4936": "phi",
      "4937": "óm",
      "4938": "bu",
      "4939": "2026",
      "4940": "ỏi",
      "4941": "ám",
      "4942": "tầm",
      "4943": "mọi",
      "4944": "lê",
      "4945": "thần",
      "4946": "đảm",
      "4947": "li",
      "4948": "cứu",
      "4949": "hoạch",
      "4950": "cuba",
      "4951": "hàn",
      "4952": "quá",
      "4953": "ện",
      "4954": "xem",
      "4955": "vượt",
      "4956": "hối",
      "4957": "hoàng",
      "4958": "199",
      "4959": "ấm",
      "4960": "đảo",
      "4961": "ìn",
      "4962": "yêu",
      "4963": "tỷ",
      "4964": "ma",
      "4965": "phải",
      "4966": "ậy",
      "4967": "so",
      "4968": "nó",
      "4969": "dung",
      "4970": "cổ",
      "4971": "bệnh",
      "4972": "củng",
      "4973": "trào",
      "4974": "thảo",
      "4975": "thay",
      "4976": "đua",
      "4977": "danh",
      "4978": "đoạn",
      "4979": "khí",
      "4980": "ốn",
      "4981": "tội",
      "4982": "miền",
      "4983": "mo",
      "4984": "es",
      "4985": "dưới",
      "4986": "nhũng",
      "4987": "nhập",
      "4988": "ngân",
      "4989": "ưu",
      "4990": "sĩ",
      "4991": "nổi",
      "4992": "nông",
      "4993": "hết",
      "4994": "dướ",
      "4995": "du",
      "4996": "bền",
      "4997": "apec",
      "4998": "196",
      "4999": "trần",
      "5000": "vùng",
      "5001": "ir",
      "5002": "da",
      "5003": "bằng",
      "5004": "bch",
      "5005": "gồm",
      "5006": "oát",
      "5007": "giai",
      "5008": "điện",
      "5009": "po",
      "5010": "mức",
      "5011": "lệnh",
      "5012": "gồ",
      "5013": "donald",
      "5014": "giang",
      "5015": "quang",
      "5016": "un",
      "5017": "lộ",
      "5018": "lo",
      "5019": "chuẩn",
      "5020": "sia",
      "5021": "qđ",
      "5022": "jo",
      "5023": "bi",
      "5024": "donal",
      "5025": "ượt",
      "5026": "nghiêm",
      "5027": "ngoài",
      "5028": "đơn",
      "5029": "si",
      "5030": "cứ",
      "5031": "bắc",
      "5032": "phục",
      "5033": "trương",
      "5034": "ốt",
      "5035": "sức",
      "5036": "20162021",
      "5037": "phẩm",
      "5038": "ắn",
      "5039": "song",
      "5040": "covid",
      "5041": "don",
      "5042": "hướng",
      "5043": "hạn",
      "5044": "trump",
      "5045": "vid",
      "5046": "trum",
      "5047": "chia",
      "5048": "ngừng",
      "5049": "biến",
      "5050": "oài",
      "5051": "ọn",
      "5052": "đình",
      "5053": "sở",
      "5054": "hiệp",
      "5055": "gây",
      "5056": "biên",
      "5057": "khác",
      "5058": "giờ",
      "5059": "nhằm",
      "5060": "mẽ",
      "5061": "kế",
      "5062": "ec",
      "5063": "còn",
      "5064": "29",
      "5065": "26",
      "5066": "trao",
      "5067": "ích",
      "5068": "vừa",
      "5069": "us",
      "5070": "cam",
      "5071": "chuyến",
      "5072": "phân",
      "5073": "ẳng",
      "5074": "đứng",
      "5075": "mà",
      "5076": "hải",
      "5077": "hộ",
      "5078": "chuyển",
      "5079": "lào",
      "5080": "tp",
      "5081": "hoa",
      "5082": "khởi",
      "5083": "đông",
      "5084": "úng",
      "5085": "tối",
      "5086": "duy",
      "5087": "vệ",
      "5088": "cần",
      "5089": "bên",
      "5090": "triều",
      "5091": "tự",
      "5092": "eu",
      "5093": "ấy",
      "5094": "cựu",
      "5095": "bắt",
      "5096": "đàn",
      "5097": "tính",
      "5098": "đường",
      "5099": "sắc",
      "5100": "đóng",
      "5101": "tất",
      "5102": "lượng",
      "5103": "kim",
      "5104": "cố",
      "5105": "thuộc",
      "5106": "ủng",
      "5107": "nâng",
      "5108": "nền",
      "5109": "mục",
      "5110": "iêm",
      "5111": "con",
      "5112": "đấu",
      "5113": "đo",
      "5114": "òn",
      "5115": "vì",
      "5116": "to",
      "5117": "chu",
      "5118": "ằm",
      "5119": "ký",
      "5120": "tri",
      "5121": "ằng",
      "5122": "âng",
      "5123": "tình",
      "5124": "tinh",
      "5125": "lễ",
      "5126": "gần",
      "5127": "thuận",
      "5128": "chương",
      "5129": "hậu",
      "5130": "dấu",
      "5131": "bổ",
      "5132": "00",
      "5133": "xiv",
      "5134": "xuất",
      "5135": "ừng",
      "5136": "ởi",
      "5137": "ạch",
      "5138": "ào",
      "5139": "niên",
      "5140": "bang",
      "5141": "27",
      "5142": "phú",
      "5143": "hu",
      "5144": "24",
      "5145": "sát",
      "5146": "la",
      "5147": "hi",
      "5148": "..",
      "5149": "học",
      "5150": "20202025",
      "5151": "ảm",
      "5152": "dẫn",
      "5153": "hđnd",
      "5154": "gian",
      "5155": "độ",
      "5156": "xảy",
      "5157": "su",
      "5158": "nữ",
      "5159": "mối",
      "5160": "cảnh",
      "5161": "giành",
      "5162": "đỉnh",
      "5163": "vai",
      "5164": "45",
      "5165": "trì",
      "5166": "đời",
      "5167": "em",
      "5168": "ap",
      "5169": "21",
      "5170": "trách",
      "5171": "um",
      "5172": "ua",
      "5173": "đô",
      "5174": "đa",
      "5175": "hạ",
      "5176": "phong",
      "5177": "xiii",
      "5178": "địa",
      "5179": "quản",
      "5180": "vững",
      "5181": "tt",
      "5182": "pu",
      "5183": "ty",
      "5184": "im",
      "5185": "bỏ",
      "5186": "50",
      "5187": "đẹp",
      "5188": "hoàn",
      "5189": "iền",
      "5190": "quảng",
      "5191": "ậu",
      "5192": "ẩn",
      "5193": "đức",
      "5194": "17",
      "5195": "16",
      "5196": "ubnd",
      "5197": "luôn",
      "5198": "trò",
      "5199": "chế",
      "5200": "ọi",
      "5201": "kể",
      "5202": "huy",
      "5203": "23",
      "5204": "28",
      "5205": "ừa",
      "5206": "đưa",
      "5207": "càng",
      "5208": "trí",
      "5209": "ảy",
      "5210": "đánh",
      "5211": "bà",
      "5212": "xuân",
      "5213": "rộng",
      "5214": "năng",
      "5215": "dụng",
      "5216": "sâu",
      "5217": "cầu",
      "5218": "can",
      "5219": "2015",
      "5220": "kho",
      "5221": "thẩm",
      "5222": "át",
      "5223": "kiện",
      "5224": "cường",
      "5225": "khai",
      "5226": "ẹp",
      "5227": "ub",
      "5228": "on",
      "5229": "hđ",
      "5230": "18",
      "5231": "ển",
      "5232": "ầm",
      "5233": "đi",
      "5234": "er",
      "5235": "cũng",
      "5236": "2017",
      "5237": "quân",
      "5238": "ựu",
      "5239": "ta",
      "5240": "sinh",
      "5241": "lên",
      "5242": "dương",
      "5243": "22",
      "5244": "13",
      "5245": "2025",
      "5246": "giáo",
      "5247": "tập",
      "5248": "is",
      "5249": "hàng",
      "5250": "ụng",
      "5251": "sơ",
      "5252": "ắt",
      "5253": "trước",
      "5254": "tài",
      "5255": "14",
      "5256": "luận",
      "5257": "phúc",
      "5258": "thượng",
      "5259": "ôi",
      "5260": "lan",
      "5261": "bước",
      "5262": "vương",
      "5263": "tốt",
      "5264": "cán",
      "5265": "197",
      "5266": "chung",
      "5267": "thị",
      "5268": "đang",
      "5269": "en",
      "5270": "cùng",
      "5271": "25",
      "5272": "tra",
      "5273": "thái",
      "5274": "sách",
      "5275": "re",
      "5276": "mặt",
      "5277": "mở",
      "5278": "kiến",
      "5279": "trở",
      "5280": "nhật",
      "5281": "in",
      "5282": "àng",
      "5283": "iê",
      "5284": "hữu",
      "5285": "hữ",
      "5286": "phiên",
      "5287": "tâm",
      "5288": "truyền",
      "5289": "trường",
      "5290": "điểm",
      "5291": "chống",
      "5292": "chất",
      "5293": "tăng",
      "5294": "dịch",
      "5295": "ệnh",
      "5296": "lại",
      "5297": "kiểm",
      "5298": "đẩy",
      "5299": "đẩ",
      "5300": "30",
      "5301": "đặc",
      "5302": "lược",
      "5303": "thúc",
      "5304": "đạt",
      "5305": "tranh",
      "5306": "ưa",
      "5307": "xv",
      "5308": "thanh",
      "5309": "tộc",
      "5310": "2016",
      "5311": "xử",
      "5312": "nga",
      "5313": "mời",
      "5314": "tạo",
      "5315": "góp",
      "5316": "hoạt",
      "5317": "tiêu",
      "5318": "biệt",
      "5319": "tích",
      "5320": "thi",
      "5321": "truy",
      "5322": "vấn",
      "5323": "tu",
      "5324": "gó",
      "5325": "chiều",
      "5326": "15",
      "5327": "như",
      "5328": "hiệu",
      "5329": "xii",
      "5330": "tới",
      "5331": "cáo",
      "5332": "giá",
      "5333": "mại",
      "5334": "ánh",
      "5335": "toà",
      "5336": "lý",
      "5337": "thắng",
      "5338": "mạng",
      "5339": "sản",
      "5340": "bố",
      "5341": "lợi",
      "5342": "lịch",
      "5343": "phòng",
      "5344": "phần",
      "5345": "trình",
      "5346": "tháng",
      "5347": "nay",
      "5348": "ba",
      "5349": "bảo",
      "5350": "hoá",
      "5351": "cực",
      "5352": "nghiệp",
      "5353": "đà",
      "5354": "el",
      "5355": "ợi",
      "5356": "ạn",
      "5357": "vị",
      "5358": "ẫn",
      "5359": "lực",
      "5360": "nguyên",
      "5361": "ấu",
      "5362": "nghĩa",
      "5363": "tuyên",
      "5364": "đất",
      "5365": "kỷ",
      "5366": "giải",
      "5367": "trực",
      "5368": "chấp",
      "5369": "nghĩ",
      "5370": "ắng",
      "5371": "ẩm",
      "5372": "thể",
      "5373": "âm",
      "5374": "tiến",
      "5375": "xét",
      "5376": "chuy",
      "5377": "ninh",
      "5378": "ặc",
      "5379": "tin",
      "5380": "dựng",
      "5381": "khu",
      "5382": "viện",
      "5383": "diện",
      "5384": "lời",
      "5385": "mạnh",
      "5386": "xây",
      "5387": "báo",
      "5388": "asean",
      "5389": "ôn",
      "5390": "phiếu",
      "5391": "thương",
      "5392": "tục",
      "5393": "phương",
      "5394": "thiết",
      "5395": "ét",
      "5396": "này",
      "5397": "phố",
      "5398": "phạm",
      "5399": "ường",
      "5400": "xi",
      "5401": "2018",
      "5402": "ặt",
      "5403": "ũng",
      "5404": "iệt",
      "5405": "ái",
      "5406": "lĩnh",
      "5407": "châu",
      "5408": "ne",
      "5409": "2019",
      "5410": "pháp",
      "5411": "ase",
      "5412": "sử",
      "5413": "hơn",
      "5414": "luật",
      "5415": "đổi",
      "5416": "xu",
      "5417": "ài",
      "5418": "hình",
      "5419": "tư",
      "5420": "tiên",
      "5421": "lớn",
      "5422": "quyền",
      "5423": "ar",
      "5424": "làm",
      "5425": "giới",
      "5426": "lớ",
      "5427": "ùng",
      "5428": "tố",
      "5429": "bản",
      "5430": "bị",
      "5431": "iệu",
      "5432": "al",
      "5433": "iếu",
      "5434": "sáng",
      "5435": "ạm",
      "5436": "ca",
      "5437": "ượng",
      "5438": "không",
      "5439": "ia",
      "5440": "thường",
      "5441": "ắc",
      "5442": "đây",
      "5443": "ĩnh",
      "5444": "thời",
      "5445": "òng",
      "5446": "khi",
      "5447": "êu",
      "5448": "co",
      "5449": "hồ",
      "5450": "nd",
      "5451": "vi",
      "5452": "nhận",
      "5453": "ứng",
      "5454": "điều",
      "5455": "tiếp",
      "5456": "mỹ",
      "5457": "iết",
      "5458": "để",
      "5459": "tí",
      "5460": "lãnh",
      "5461": "mới",
      "5462": "phó",
      "5463": "iệp",
      "5464": "thăm",
      "5465": "quả",
      "5466": "trưởng",
      "5467": "xã",
      "5468": "as",
      "5469": "cách",
      "5470": "thu",
      "5471": "văn",
      "5472": "nguyễn",
      "5473": "iểm",
      "5474": "giữa",
      "5475": "giao",
      "5476": "đó",
      "5477": "tuy",
      "5478": "ảo",
      "5479": "ách",
      "5480": "bình",
      "5481": "2022",
      "5482": "thực",
      "5483": "tham",
      "5484": "họp",
      "5485": "thế",
      "5486": "tiế",
      "5487": "lã",
      "5488": "ngoại",
      "5489": "đề",
      "5490": "sẽ",
      "5491": "12",
      "5492": "chỉ",
      "5493": "diễn",
      "5494": "sau",
      "5495": "ấn",
      "5496": "ơn",
      "5497": "trên",
      "5498": "ăng",
      "5499": "theo",
      "5500": "phủ",
      "5501": "úc",
      "5502": "việc",
      "5503": "vực",
      "5504": "2023",
      "5505": "cả",
      "5506": "áo",
      "5507": "đoàn",
      "5508": "lập",
      "5509": "ổi",
      "5510": "thông",
      "5511": "nhiều",
      "5512": "kinh",
      "5513": "hiện",
      "5514": "thức",
      "5515": "do",
      "5516": "vào",
      "5517": "cơ",
      "5518": "the",
      "5519": "ho",
      "5520": "ăn",
      "5521": "người",
      "5522": "chiến",
      "5523": "oại",
      "5524": "cộng",
      "5525": "đạo",
      "5526": "ười",
      "5527": "ạt",
      "5528": "ay",
      "5529": "biểu",
      "5530": "gia",
      "5531": "nhà",
      "5532": "họ",
      "5533": "qua",
      "5534": "đến",
      "5535": "ởng",
      "5536": "11",
      "5537": "minh",
      "5538": "cho",
      "5539": "động",
      "5540": "kết",
      "5541": "tướng",
      "5542": "ti",
      "5543": "hai",
      "5544": "hoà",
      "5545": "2021",
      "5546": "mạ",
      "5547": "iểu",
      "5548": "ii",
      "5549": "trọng",
      "5550": "toàn",
      "5551": "ải",
      "5552": "di",
      "5553": "trư",
      "5554": "cuộc",
      "5555": "2020",
      "5556": "10",
      "5557": "trị",
      "5558": "au",
      "5559": "nội",
      "5560": "ật",
      "5561": "cao",
      "5562": "cấp",
      "5563": "lần",
      "5564": "nhất",
      "5565": "bí",
      "5566": "những",
      "5567": "án",
      "5568": "số",
      "5569": "ục",
      "5570": "ọng",
      "5571": "một",
      "5572": "quyết",
      "5573": "cử",
      "5574": "lu",
      "5575": "bầu",
      "5576": "viên",
      "5577": "dự",
      "5578": "ướng",
      "5579": "âu",
      "5580": "nguy",
      "5581": "khoá",
      "5582": "đầu",
      "5583": "áng",
      "5584": "thống",
      "5585": "nhân",
      "5586": "ền",
      "5587": "liên",
      "5588": "tế",
      "5589": "ột",
      "5590": "ạo",
      "5591": "thủ",
      "5592": "đối",
      "5593": "ang",
      "5594": "sự",
      "5595": "cu",
      "5596": "hành",
      "5597": "ến",
      "5598": "ững",
      "5599": "ản",
      "5600": "ây",
      "5601": "ập",
      "5602": "vụ",
      "5603": "tịch",
      "5604": "hợp",
      "5605": "hợ",
      "5606": "triển",
      "5607": "ờng",
      "5608": "19",
      "5609": "giữ",
      "5610": "cá",
      "5611": "anh",
      "5612": "tỉnh",
      "5613": "hà",
      "5614": "ận",
      "5615": "tổng",
      "5616": "hệ",
      "5617": "về",
      "5618": "phát",
      "5619": "iển",
      "5620": "ễn",
      "5621": "ban",
      "5622": "ấp",
      "5623": "uỷ",
      "5624": "định",
      "5625": "có",
      "5626": "ra",
      "5627": "từ",
      "5628": "nhiệm",
      "5629": "thứ",
      "5630": "ộc",
      "5631": "tác",
      "5632": "ỉnh",
      "5633": "ống",
      "5634": "trung",
      "5635": "được",
      "5636": "thư",
      "5637": "iệm",
      "5638": "kỳ",
      "5639": "đị",
      "5640": "iện",
      "5641": "đồng",
      "5642": "với",
      "5643": "nghị",
      "5644": "chức",
      "5645": "iến",
      "5646": "oá",
      "5647": "đại",
      "5648": "ồng",
      "5649": "dân",
      "5650": "thành",
      "5651": "iều",
      "5652": "oàn",
      "5653": "bộ",
      "5654": "ộng",
      "5655": "ình",
      "5656": "201",
      "5657": "ịch",
      "5658": "ược",
      "5659": "quy",
      "5660": "đảng",
      "5661": "ao",
      "5662": "phá",
      "5663": "tại",
      "5664": "ần",
      "5665": "công",
      "5666": "ai",
      "5667": "ối",
      "5668": "ết",
      "5669": "iề",
      "5670": "năm",
      "5671": "chủ",
      "5672": "tổ",
      "5673": "ung",
      "5674": "ất",
      "5675": "ời",
      "5676": "ảng",
      "5677": "đã",
      "5678": "ầu",
      "5679": "các",
      "5680": "ực",
      "5681": "quan",
      "5682": "chính",
      "5683": "inh",
      "5684": "ượ",
      "5685": "202",
      "5686": "là",
      "5687": "ăm",
      "5688": "nước",
      "5689": "iể",
      "5690": "ngh",
      "5691": "trong",
      "5692": "ức",
      "5693": "uy",
      "5694": "ương",
      "5695": "ới",
      "5696": "việt",
      "5697": "ươ",
      "5698": "quốc",
      "5699": "oà",
      "5700": "nam",
      "5701": "ành",
      "5702": "ngày",
      "5703": "ốc",
      "5704": "iên",
      "5705": "ước",
      "5706": "ong",
      "5707": "iế",
      "5708": "hội",
      "5709": "ày",
      "5710": "ân",
      "5711": "chí",
      "5712": "ông",
      "5713": "của",
      "5714": "củ",
      "5715": "việ",
      "5716": "am",
      "5717": "ác",
      "5718": "ướ",
      "5719": "kh",
      "5720": "ội",
      "5721": "ại",
      "5722": "gi",
      "5723": "ên",
      "5724": "và",
      "5725": "an",
      "5726": "20",
      "5727": "ph",
      "5728": "iệ",
      "5729": "qu",
      "5730": "tr",
      "5731": "ch",
      "5732": "th",
      "5733": "nh",
      "5734": "ng",
      "5735": "﻿",
      "5736": "…",
      "5737": "’",
      "5738": "–",
      "5739": "​",
      "5740": "ỹ",
      "5741": "ỷ",
      "5742": "ỵ",
      "5743": "ỳ",
      "5744": "ự",
      "5745": "ữ",
      "5746": "ử",
      "5747": "ừ",
      "5748": "ứ",
      "5749": "ủ",
      "5750": "ụ",
      "5751": "ợ",
      "5752": "ỡ",
      "5753": "ở",
      "5754": "ờ",
      "5755": "ớ",
      "5756": "ộ",
      "5757": "ỗ",
      "5758": "ổ",
      "5759": "ồ",
      "5760": "ố",
      "5761": "ỏ",
      "5762": "ọ",
      "5763": "ị",
      "5764": "ỉ",
      "5765": "ệ",
      "5766": "ễ",
      "5767": "ể",
      "5768": "ề",
      "5769": "ế",
      "5770": "ẽ",
      "5771": "ẻ",
      "5772": "ẹ",
      "5773": "ặ",
      "5774": "ẵ",
      "5775": "ẳ",
      "5776": "ằ",
      "5777": "ắ",
      "5778": "ậ",
      "5779": "ẫ",
      "5780": "ẩ",
      "5781": "ầ",
      "5782": "ấ",
      "5783": "ả",
      "5784": "ạ",
      "5785": "̣",
      "5786": "̛",
      "5787": "̉",
      "5788": "̆",
      "5789": "̃",
      "5790": "̂",
      "5791": "́",
      "5792": "̀",
      "5793": "ư",
      "5794": "ơ",
      "5795": "ũ",
      "5796": "ĩ",
      "5797": "đ",
      "5798": "č",
      "5799": "ă",
      "5800": "ý",
      "5801": "ú",
      "5802": "ù",
      "5803": "ö",
      "5804": "õ",
      "5805": "ô",
      "5806": "ó",
      "5807": "ò",
      "5808": "ð",
      "5809": "í",
      "5810": "ì",
      "5811": "ê",
      "5812": "é",
      "5813": "è",
      "5814": "ã",
      "5815": "â",
      "5816": "á",
      "5817": "à",
      "5818": "z",
      "5819": "y",
      "5820": "x",
      "5821": "w",
      "5822": "v",
      "5823": "u",
      "5824": "t",
      "5825": "s",
      "5826": "r",
      "5827": "q",
      "5828": "p",
      "5829": "o",
      "5830": "n",
      "5831": "m",
      "5832": "l",
      "5833": "k",
      "5834": "j",
      "5835": "i",
      "5836": "h",
      "5837": "g",
      "5838": "f",
      "5839": "e",
      "5840": "d",
      "5841": "c",
      "5842": "b",
      "5843": "a",
      "5844": "9",
      "5845": "8",
      "5846": "7",
      "5847": "6",
      "5848": "5",
      "5849": "4",
      "5850": "3",
      "5851": "2",
      "5852": "1",
      "5853": "0",
      "5854": "/",
      "5855": ".",
      "5856": "<\\eos>",
      "5857": "<eos>",
      "5858": "<unk>"
   },
   "images": [
      {
         "split": "train",
         "file_path": "0002395.png",
         "id": "0002395",
         "width": 2250,
         "height": 2312
      },
      {
         "split": "train",
         "file_path": "0001910.png",
         "id": "0001910",
         "width": 2669,
         "height": 2027
      },
      {
         "split": "train",
         "file_path": "0000509.png",
         "id": "0000509",
         "width": 1200,
         "height": 3633
      },
      {
         "split": "train",
         "file_path": "0002341.png",
         "id": "0002341",
         "width": 2250,
         "height": 4844
      },
      {
         "split": "train",
         "file_path": "0001839.png",
         "id": "0001839",
         "width": 2500,
         "height": 3775
      },
      {
         "split": "train",
         "file_path": "0002030.png",
         "id": "0002030",
         "width": 2273,
         "height": 4141
      },
      {
         "split": "train",
         "file_path": "0002789.png",
         "id": "0002789",
         "width": 1060,
         "height": 1019
      },
      {
         "split": "train",
         "file_path": "0002619.png",
         "id": "0002619",
         "width": 2569,
         "height": 6209
      },
      {
         "split": "train",
         "file_path": "0000518.png",
         "id": "0000518",
         "width": 1200,
         "height": 2211
      },
      {
         "split": "train",
         "file_path": "0000761.png",
         "id": "0000761",
         "width": 730,
         "height": 1707
      },
      {
         "split": "train",
         "file_path": "0000573.png",
         "id": "0000573",
         "width": 1200,
         "height": 4161
      },
      {
         "split": "train",
         "file_path": "0002245.png",
         "id": "0002245",
         "width": 730,
         "height": 838
      },
      {
         "split": "train",
         "file_path": "0002306.png",
         "id": "0002306",
         "width": 1343,
         "height": 1996
      },
      {
         "split": "train",
         "file_path": "0001608.png",
         "id": "0001608",
         "width": 2000,
         "height": 2869
      },
      {
         "split": "train",
         "file_path": "0002649.png",
         "id": "0002649",
         "width": 2500,
         "height": 2722
      },
      {
         "split": "train",
         "file_path": "0001655.png",
         "id": "0001655",
         "width": 2012,
         "height": 2555
      },
      {
         "split": "train",
         "file_path": "0001538.png",
         "id": "0001538",
         "width": 2012,
         "height": 2056
      },
      {
         "split": "train",
         "file_path": "0001260.png",
         "id": "0001260",
         "width": 2500,
         "height": 3201
      },
      {
         "split": "train",
         "file_path": "0002882.png",
         "id": "0002882",
         "width": 1325,
         "height": 797
      },
      {
         "split": "train",
         "file_path": "0000358.png",
         "id": "0000358",
         "width": 526,
         "height": 1890
      },
      {
         "split": "train",
         "file_path": "0002453.png",
         "id": "0002453",
         "width": 2139,
         "height": 2758
      },
      {
         "split": "train",
         "file_path": "0001735.png",
         "id": "0001735",
         "width": 2500,
         "height": 6060
      },
      {
         "split": "train",
         "file_path": "0001566.png",
         "id": "0001566",
         "width": 2500,
         "height": 3553
      },
      {
         "split": "train",
         "file_path": "0000259.png",
         "id": "0000259",
         "width": 1200,
         "height": 2805
      },
      {
         "split": "train",
         "file_path": "0002941.png",
         "id": "0002941",
         "width": 1249,
         "height": 1685
      },
      {
         "split": "train",
         "file_path": "0001048.png",
         "id": "0001048",
         "width": 2676,
         "height": 4354
      },
      {
         "split": "train",
         "file_path": "0002371.png",
         "id": "0002371",
         "width": 1085,
         "height": 1944
      },
      {
         "split": "train",
         "file_path": "0001681.png",
         "id": "0001681",
         "width": 3544,
         "height": 7126
      },
      {
         "split": "train",
         "file_path": "0001210.png",
         "id": "0001210",
         "width": 1331,
         "height": 1165
      },
      {
         "split": "train",
         "file_path": "0002417.png",
         "id": "0002417",
         "width": 2000,
         "height": 3600
      },
      {
         "split": "train",
         "file_path": "0001929.png",
         "id": "0001929",
         "width": 1653,
         "height": 1535
      },
      {
         "split": "train",
         "file_path": "0001804.png",
         "id": "0001804",
         "width": 1188,
         "height": 2256
      },
      {
         "split": "train",
         "file_path": "0001738.png",
         "id": "0001738",
         "width": 2500,
         "height": 4819
      },
      {
         "split": "train",
         "file_path": "0002692.png",
         "id": "0002692",
         "width": 2250,
         "height": 2919
      },
      {
         "split": "train",
         "file_path": "0002303.png",
         "id": "0002303",
         "width": 2575,
         "height": 1811
      },
      {
         "split": "train",
         "file_path": "0000456.png",
         "id": "0000456",
         "width": 1200,
         "height": 4009
      },
      {
         "split": "train",
         "file_path": "0000462.png",
         "id": "0000462",
         "width": 1200,
         "height": 5075
      },
      {
         "split": "train",
         "file_path": "0002202.png",
         "id": "0002202",
         "width": 1200,
         "height": 2582
      },
      {
         "split": "train",
         "file_path": "0000670.png",
         "id": "0000670",
         "width": 1200,
         "height": 4126
      },
      {
         "split": "train",
         "file_path": "0000381.png",
         "id": "0000381",
         "width": 1200,
         "height": 4597
      },
      {
         "split": "train",
         "file_path": "0002110.png",
         "id": "0002110",
         "width": 1200,
         "height": 3296
      },
      {
         "split": "train",
         "file_path": "0001909.png",
         "id": "0001909",
         "width": 1303,
         "height": 1022
      },
      {
         "split": "train",
         "file_path": "0002627.png",
         "id": "0002627",
         "width": 1215,
         "height": 2610
      },
      {
         "split": "train",
         "file_path": "0002908.png",
         "id": "0002908",
         "width": 2500,
         "height": 2722
      },
      {
         "split": "train",
         "file_path": "0002744.png",
         "id": "0002744",
         "width": 2679,
         "height": 3654
      },
      {
         "split": "train",
         "file_path": "0002503.png",
         "id": "0002503",
         "width": 1332,
         "height": 2050
      },
      {
         "split": "train",
         "file_path": "0000794.png",
         "id": "0000794",
         "width": 730,
         "height": 2079
      },
      {
         "split": "train",
         "file_path": "0001789.png",
         "id": "0001789",
         "width": 1217,
         "height": 2138
      },
      {
         "split": "train",
         "file_path": "0000949.png",
         "id": "0000949",
         "width": 1994,
         "height": 4309
      },
      {
         "split": "train",
         "file_path": "0002338.png",
         "id": "0002338",
         "width": 1281,
         "height": 1724
      },
      {
         "split": "train",
         "file_path": "0002526.png",
         "id": "0002526",
         "width": 2170,
         "height": 3084
      },
      {
         "split": "train",
         "file_path": "0002635.png",
         "id": "0002635",
         "width": 2500,
         "height": 3190
      },
      {
         "split": "train",
         "file_path": "0000542.png",
         "id": "0000542",
         "width": 1200,
         "height": 3800
      },
      {
         "split": "train",
         "file_path": "0001220.png",
         "id": "0001220",
         "width": 2250,
         "height": 4394
      },
      {
         "split": "train",
         "file_path": "0001135.png",
         "id": "0001135",
         "width": 1750,
         "height": 3803
      },
      {
         "split": "train",
         "file_path": "0001717.png",
         "id": "0001717",
         "width": 2500,
         "height": 3324
      },
      {
         "split": "train",
         "file_path": "0000695.png",
         "id": "0000695",
         "width": 1200,
         "height": 2173
      },
      {
         "split": "train",
         "file_path": "0002398.png",
         "id": "0002398",
         "width": 2500,
         "height": 3074
      },
      {
         "split": "train",
         "file_path": "0002028.png",
         "id": "0002028",
         "width": 2754,
         "height": 7508
      },
      {
         "split": "train",
         "file_path": "0002154.png",
         "id": "0002154",
         "width": 1200,
         "height": 2016
      },
      {
         "split": "train",
         "file_path": "0001945.png",
         "id": "0001945",
         "width": 1387,
         "height": 1849
      },
      {
         "split": "train",
         "file_path": "0002868.png",
         "id": "0002868",
         "width": 1835,
         "height": 1207
      },
      {
         "split": "train",
         "file_path": "0001349.png",
         "id": "0001349",
         "width": 1784,
         "height": 4110
      },
      {
         "split": "train",
         "file_path": "0002421.png",
         "id": "0002421",
         "width": 1073,
         "height": 980
      },
      {
         "split": "train",
         "file_path": "0002397.png",
         "id": "0002397",
         "width": 2500,
         "height": 3681
      },
      {
         "split": "train",
         "file_path": "0002315.png",
         "id": "0002315",
         "width": 1750,
         "height": 3669
      },
      {
         "split": "train",
         "file_path": "0001767.png",
         "id": "0001767",
         "width": 1653,
         "height": 2153
      },
      {
         "split": "train",
         "file_path": "0000435.png",
         "id": "0000435",
         "width": 1200,
         "height": 4372
      },
      {
         "split": "train",
         "file_path": "0002709.png",
         "id": "0002709",
         "width": 2250,
         "height": 1651
      },
      {
         "split": "train",
         "file_path": "0000237.png",
         "id": "0000237",
         "width": 1200,
         "height": 5732
      },
      {
         "split": "train",
         "file_path": "0000937.png",
         "id": "0000937",
         "width": 1500,
         "height": 5595
      },
      {
         "split": "train",
         "file_path": "0000109.png",
         "id": "0000109",
         "width": 1200,
         "height": 4612
      },
      {
         "split": "train",
         "file_path": "0002008.png",
         "id": "0002008",
         "width": 1240,
         "height": 1928
      },
      {
         "split": "train",
         "file_path": "0000163.png",
         "id": "0000163",
         "width": 1200,
         "height": 3347
      },
      {
         "split": "train",
         "file_path": "0002108.png",
         "id": "0002108",
         "width": 1200,
         "height": 2068
      },
      {
         "split": "train",
         "file_path": "0000252.png",
         "id": "0000252",
         "width": 1200,
         "height": 3134
      },
      {
         "split": "train",
         "file_path": "0002678.png",
         "id": "0002678",
         "width": 1262,
         "height": 2339
      },
      {
         "split": "train",
         "file_path": "0001511.png",
         "id": "0001511",
         "width": 1462,
         "height": 3609
      },
      {
         "split": "train",
         "file_path": "0002963.png",
         "id": "0002963",
         "width": 818,
         "height": 4262
      },
      {
         "split": "train",
         "file_path": "0001766.png",
         "id": "0001766",
         "width": 1557,
         "height": 2394
      },
      {
         "split": "train",
         "file_path": "0002283.png",
         "id": "0002283",
         "width": 1739,
         "height": 1769
      },
      {
         "split": "train",
         "file_path": "0001391.png",
         "id": "0001391",
         "width": 2167,
         "height": 5889
      },
      {
         "split": "train",
         "file_path": "0001350.png",
         "id": "0001350",
         "width": 1783,
         "height": 4366
      },
      {
         "split": "train",
         "file_path": "0002579.png",
         "id": "0002579",
         "width": 1342,
         "height": 2513
      },
      {
         "split": "train",
         "file_path": "0002933.png",
         "id": "0002933",
         "width": 931,
         "height": 731
      },
      {
         "split": "train",
         "file_path": "0001886.png",
         "id": "0001886",
         "width": 2500,
         "height": 4055
      },
      {
         "split": "train",
         "file_path": "0001116.png",
         "id": "0001116",
         "width": 1750,
         "height": 3279
      },
      {
         "split": "train",
         "file_path": "0002893.png",
         "id": "0002893",
         "width": 1402,
         "height": 1802
      },
      {
         "split": "train",
         "file_path": "0002857.png",
         "id": "0002857",
         "width": 2579,
         "height": 1491
      },
      {
         "split": "train",
         "file_path": "0002378.png",
         "id": "0002378",
         "width": 3108,
         "height": 3294
      },
      {
         "split": "train",
         "file_path": "0000461.png",
         "id": "0000461",
         "width": 1200,
         "height": 3464
      },
      {
         "split": "train",
         "file_path": "0002009.png",
         "id": "0002009",
         "width": 872,
         "height": 1527
      },
      {
         "split": "train",
         "file_path": "0002823.png",
         "id": "0002823",
         "width": 2250,
         "height": 1686
      },
      {
         "split": "train",
         "file_path": "0000157.png",
         "id": "0000157",
         "width": 1200,
         "height": 4829
      },
      {
         "split": "train",
         "file_path": "0001859.png",
         "id": "0001859",
         "width": 1653,
         "height": 1518
      },
      {
         "split": "train",
         "file_path": "0002939.png",
         "id": "0002939",
         "width": 667,
         "height": 667
      },
      {
         "split": "train",
         "file_path": "0000677.png",
         "id": "0000677",
         "width": 1200,
         "height": 3610
      },
      {
         "split": "train",
         "file_path": "0002722.png",
         "id": "0002722",
         "width": 1679,
         "height": 1833
      },
      {
         "split": "train",
         "file_path": "0001877.png",
         "id": "0001877",
         "width": 2500,
         "height": 3648
      },
      {
         "split": "train",
         "file_path": "0000238.png",
         "id": "0000238",
         "width": 1200,
         "height": 5172
      },
      {
         "split": "train",
         "file_path": "0001426.png",
         "id": "0001426",
         "width": 1193,
         "height": 2953
      },
      {
         "split": "train",
         "file_path": "0002643.png",
         "id": "0002643",
         "width": 958,
         "height": 1954
      },
      {
         "split": "train",
         "file_path": "0001920.png",
         "id": "0001920",
         "width": 2402,
         "height": 3417
      },
      {
         "split": "train",
         "file_path": "0000100.png",
         "id": "0000100",
         "width": 1200,
         "height": 3730
      },
      {
         "split": "train",
         "file_path": "0000315.png",
         "id": "0000315",
         "width": 1200,
         "height": 3934
      },
      {
         "split": "train",
         "file_path": "0001672.png",
         "id": "0001672",
         "width": 2500,
         "height": 3244
      },
      {
         "split": "train",
         "file_path": "0002115.png",
         "id": "0002115",
         "width": 1200,
         "height": 3860
      },
      {
         "split": "train",
         "file_path": "0002723.png",
         "id": "0002723",
         "width": 2250,
         "height": 4276
      },
      {
         "split": "train",
         "file_path": "0000831.png",
         "id": "0000831",
         "width": 730,
         "height": 2273
      },
      {
         "split": "train",
         "file_path": "0000261.png",
         "id": "0000261",
         "width": 1200,
         "height": 2563
      },
      {
         "split": "train",
         "file_path": "0001128.png",
         "id": "0001128",
         "width": 1625,
         "height": 3270
      },
      {
         "split": "train",
         "file_path": "0001601.png",
         "id": "0001601",
         "width": 2500,
         "height": 4752
      },
      {
         "split": "train",
         "file_path": "0002037.png",
         "id": "0002037",
         "width": 2500,
         "height": 6099
      },
      {
         "split": "train",
         "file_path": "0001726.png",
         "id": "0001726",
         "width": 2500,
         "height": 4028
      },
      {
         "split": "train",
         "file_path": "0000978.png",
         "id": "0000978",
         "width": 1217,
         "height": 1943
      },
      {
         "split": "train",
         "file_path": "0001688.png",
         "id": "0001688",
         "width": 2489,
         "height": 3194
      },
      {
         "split": "train",
         "file_path": "0000179.png",
         "id": "0000179",
         "width": 1200,
         "height": 4576
      },
      {
         "split": "train",
         "file_path": "0002295.png",
         "id": "0002295",
         "width": 5236,
         "height": 3737
      },
      {
         "split": "train",
         "file_path": "0000340.png",
         "id": "0000340",
         "width": 1200,
         "height": 4750
      },
      {
         "split": "train",
         "file_path": "0002227.png",
         "id": "0002227",
         "width": 730,
         "height": 1516
      },
      {
         "split": "train",
         "file_path": "0001723.png",
         "id": "0001723",
         "width": 1728,
         "height": 6788
      },
      {
         "split": "train",
         "file_path": "0001037.png",
         "id": "0001037",
         "width": 1254,
         "height": 2803
      },
      {
         "split": "train",
         "file_path": "0000662.png",
         "id": "0000662",
         "width": 1200,
         "height": 2946
      },
      {
         "split": "train",
         "file_path": "0000480.png",
         "id": "0000480",
         "width": 1200,
         "height": 3020
      },
      {
         "split": "train",
         "file_path": "0002117.png",
         "id": "0002117",
         "width": 1200,
         "height": 2220
      },
      {
         "split": "train",
         "file_path": "0001465.png",
         "id": "0001465",
         "width": 2000,
         "height": 5926
      },
      {
         "split": "train",
         "file_path": "0002412.png",
         "id": "0002412",
         "width": 2500,
         "height": 6087
      },
      {
         "split": "train",
         "file_path": "0002097.png",
         "id": "0002097",
         "width": 1200,
         "height": 3797
      },
      {
         "split": "train",
         "file_path": "0001097.png",
         "id": "0001097",
         "width": 1750,
         "height": 4065
      },
      {
         "split": "train",
         "file_path": "0002684.png",
         "id": "0002684",
         "width": 2250,
         "height": 2575
      },
      {
         "split": "train",
         "file_path": "0002392.png",
         "id": "0002392",
         "width": 1240,
         "height": 2720
      },
      {
         "split": "train",
         "file_path": "0001659.png",
         "id": "0001659",
         "width": 2500,
         "height": 3195
      },
      {
         "split": "train",
         "file_path": "0001200.png",
         "id": "0001200",
         "width": 1750,
         "height": 3720
      },
      {
         "split": "train",
         "file_path": "0000787.png",
         "id": "0000787",
         "width": 730,
         "height": 1687
      },
      {
         "split": "train",
         "file_path": "0002077.png",
         "id": "0002077",
         "width": 1200,
         "height": 4509
      },
      {
         "split": "train",
         "file_path": "0002586.png",
         "id": "0002586",
         "width": 1648,
         "height": 4467
      },
      {
         "split": "train",
         "file_path": "0002248.png",
         "id": "0002248",
         "width": 730,
         "height": 1227
      },
      {
         "split": "train",
         "file_path": "0002782.png",
         "id": "0002782",
         "width": 1246,
         "height": 1718
      },
      {
         "split": "train",
         "file_path": "0000247.png",
         "id": "0000247",
         "width": 1200,
         "height": 5571
      },
      {
         "split": "train",
         "file_path": "0002616.png",
         "id": "0002616",
         "width": 2500,
         "height": 3581
      },
      {
         "split": "train",
         "file_path": "0002533.png",
         "id": "0002533",
         "width": 2211,
         "height": 4407
      },
      {
         "split": "train",
         "file_path": "0002696.png",
         "id": "0002696",
         "width": 2250,
         "height": 2449
      },
      {
         "split": "train",
         "file_path": "0002007.png",
         "id": "0002007",
         "width": 2402,
         "height": 2916
      },
      {
         "split": "train",
         "file_path": "0000347.png",
         "id": "0000347",
         "width": 1200,
         "height": 3630
      },
      {
         "split": "train",
         "file_path": "0001973.png",
         "id": "0001973",
         "width": 2766,
         "height": 2567
      },
      {
         "split": "train",
         "file_path": "0002735.png",
         "id": "0002735",
         "width": 2250,
         "height": 2312
      },
      {
         "split": "train",
         "file_path": "0002258.png",
         "id": "0002258",
         "width": 690,
         "height": 2319
      },
      {
         "split": "train",
         "file_path": "0000655.png",
         "id": "0000655",
         "width": 1200,
         "height": 2805
      },
      {
         "split": "train",
         "file_path": "0001178.png",
         "id": "0001178",
         "width": 1875,
         "height": 2338
      },
      {
         "split": "train",
         "file_path": "0000932.png",
         "id": "0000932",
         "width": 1625,
         "height": 4435
      },
      {
         "split": "train",
         "file_path": "0002600.png",
         "id": "0002600",
         "width": 2500,
         "height": 6026
      },
      {
         "split": "train",
         "file_path": "0002564.png",
         "id": "0002564",
         "width": 2500,
         "height": 3162
      },
      {
         "split": "train",
         "file_path": "0001754.png",
         "id": "0001754",
         "width": 1494,
         "height": 2050
      },
      {
         "split": "train",
         "file_path": "0002851.png",
         "id": "0002851",
         "width": 2250,
         "height": 1673
      },
      {
         "split": "train",
         "file_path": "0002153.png",
         "id": "0002153",
         "width": 1200,
         "height": 3325
      },
      {
         "split": "train",
         "file_path": "0000907.png",
         "id": "0000907",
         "width": 1875,
         "height": 4143
      },
      {
         "split": "train",
         "file_path": "0000445.png",
         "id": "0000445",
         "width": 1200,
         "height": 3365
      },
      {
         "split": "train",
         "file_path": "0000617.png",
         "id": "0000617",
         "width": 1200,
         "height": 1603
      },
      {
         "split": "train",
         "file_path": "0002710.png",
         "id": "0002710",
         "width": 2745,
         "height": 3342
      },
      {
         "split": "train",
         "file_path": "0001615.png",
         "id": "0001615",
         "width": 2500,
         "height": 3774
      },
      {
         "split": "train",
         "file_path": "0001036.png",
         "id": "0001036",
         "width": 825,
         "height": 2799
      },
      {
         "split": "train",
         "file_path": "0001094.png",
         "id": "0001094",
         "width": 1625,
         "height": 3792
      },
      {
         "split": "train",
         "file_path": "0001614.png",
         "id": "0001614",
         "width": 2500,
         "height": 3136
      },
      {
         "split": "train",
         "file_path": "0002528.png",
         "id": "0002528",
         "width": 2297,
         "height": 3078
      },
      {
         "split": "train",
         "file_path": "0000547.png",
         "id": "0000547",
         "width": 1200,
         "height": 3633
      },
      {
         "split": "train",
         "file_path": "0001725.png",
         "id": "0001725",
         "width": 2500,
         "height": 4735
      },
      {
         "split": "train",
         "file_path": "0002757.png",
         "id": "0002757",
         "width": 2297,
         "height": 2208
      },
      {
         "split": "train",
         "file_path": "0000263.png",
         "id": "0000263",
         "width": 1200,
         "height": 2523
      },
      {
         "split": "train",
         "file_path": "0001211.png",
         "id": "0001211",
         "width": 2000,
         "height": 3257
      },
      {
         "split": "train",
         "file_path": "0001765.png",
         "id": "0001765",
         "width": 1560,
         "height": 2451
      },
      {
         "split": "train",
         "file_path": "0000353.png",
         "id": "0000353",
         "width": 1200,
         "height": 4938
      },
      {
         "split": "train",
         "file_path": "0000208.png",
         "id": "0000208",
         "width": 1200,
         "height": 3114
      },
      {
         "split": "train",
         "file_path": "0001010.png",
         "id": "0001010",
         "width": 3680,
         "height": 11223
      },
      {
         "split": "train",
         "file_path": "0000881.png",
         "id": "0000881",
         "width": 730,
         "height": 1767
      },
      {
         "split": "train",
         "file_path": "0001457.png",
         "id": "0001457",
         "width": 2000,
         "height": 5547
      },
      {
         "split": "train",
         "file_path": "0001103.png",
         "id": "0001103",
         "width": 1240,
         "height": 2787
      },
      {
         "split": "train",
         "file_path": "0001703.png",
         "id": "0001703",
         "width": 2489,
         "height": 2482
      },
      {
         "split": "train",
         "file_path": "0002155.png",
         "id": "0002155",
         "width": 1200,
         "height": 2910
      },
      {
         "split": "train",
         "file_path": "0000057.png",
         "id": "0000057",
         "width": 1200,
         "height": 3579
      },
      {
         "split": "train",
         "file_path": "0002233.png",
         "id": "0002233",
         "width": 730,
         "height": 1808
      },
      {
         "split": "train",
         "file_path": "0002171.png",
         "id": "0002171",
         "width": 1200,
         "height": 1852
      },
      {
         "split": "train",
         "file_path": "0000561.png",
         "id": "0000561",
         "width": 1200,
         "height": 4865
      },
      {
         "split": "train",
         "file_path": "0001992.png",
         "id": "0001992",
         "width": 1917,
         "height": 2093
      },
      {
         "split": "train",
         "file_path": "0000229.png",
         "id": "0000229",
         "width": 1200,
         "height": 4610
      },
      {
         "split": "train",
         "file_path": "0002664.png",
         "id": "0002664",
         "width": 933,
         "height": 1066
      },
      {
         "split": "train",
         "file_path": "0001675.png",
         "id": "0001675",
         "width": 637,
         "height": 1334
      },
      {
         "split": "train",
         "file_path": "0000829.png",
         "id": "0000829",
         "width": 408,
         "height": 1181
      },
      {
         "split": "train",
         "file_path": "0001283.png",
         "id": "0001283",
         "width": 1594,
         "height": 4080
      },
      {
         "split": "train",
         "file_path": "0002422.png",
         "id": "0002422",
         "width": 805,
         "height": 1092
      },
      {
         "split": "train",
         "file_path": "0001041.png",
         "id": "0001041",
         "width": 1412,
         "height": 3804
      },
      {
         "split": "train",
         "file_path": "0002771.png",
         "id": "0002771",
         "width": 1739,
         "height": 1982
      },
      {
         "split": "train",
         "file_path": "0000842.png",
         "id": "0000842",
         "width": 730,
         "height": 1737
      },
      {
         "split": "train",
         "file_path": "0001023.png",
         "id": "0001023",
         "width": 1625,
         "height": 4096
      },
      {
         "split": "train",
         "file_path": "0000707.png",
         "id": "0000707",
         "width": 730,
         "height": 1873
      },
      {
         "split": "train",
         "file_path": "0000424.png",
         "id": "0000424",
         "width": 1200,
         "height": 3602
      },
      {
         "split": "train",
         "file_path": "0000069.png",
         "id": "0000069",
         "width": 1200,
         "height": 3178
      },
      {
         "split": "train",
         "file_path": "0001410.png",
         "id": "0001410",
         "width": 1355,
         "height": 3249
      },
      {
         "split": "train",
         "file_path": "0000911.png",
         "id": "0000911",
         "width": 1438,
         "height": 6269
      },
      {
         "split": "train",
         "file_path": "0001641.png",
         "id": "0001641",
         "width": 2406,
         "height": 3684
      },
      {
         "split": "train",
         "file_path": "0000847.png",
         "id": "0000847",
         "width": 730,
         "height": 1787
      },
      {
         "split": "train",
         "file_path": "0001149.png",
         "id": "0001149",
         "width": 1875,
         "height": 3425
      },
      {
         "split": "train",
         "file_path": "0002694.png",
         "id": "0002694",
         "width": 2500,
         "height": 3132
      },
      {
         "split": "train",
         "file_path": "0001061.png",
         "id": "0001061",
         "width": 1625,
         "height": 4273
      },
      {
         "split": "train",
         "file_path": "0002221.png",
         "id": "0002221",
         "width": 1200,
         "height": 2804
      },
      {
         "split": "train",
         "file_path": "0000620.png",
         "id": "0000620",
         "width": 1200,
         "height": 3652
      },
      {
         "split": "train",
         "file_path": "0000812.png",
         "id": "0000812",
         "width": 730,
         "height": 1324
      },
      {
         "split": "train",
         "file_path": "0002871.png",
         "id": "0002871",
         "width": 2400,
         "height": 2333
      },
      {
         "split": "train",
         "file_path": "0000964.png",
         "id": "0000964",
         "width": 1375,
         "height": 3758
      },
      {
         "split": "train",
         "file_path": "0002372.png",
         "id": "0002372",
         "width": 3206,
         "height": 2740
      },
      {
         "split": "train",
         "file_path": "0002045.png",
         "id": "0002045",
         "width": 2402,
         "height": 2128
      },
      {
         "split": "train",
         "file_path": "0000856.png",
         "id": "0000856",
         "width": 730,
         "height": 2098
      },
      {
         "split": "train",
         "file_path": "0001750.png",
         "id": "0001750",
         "width": 2500,
         "height": 3859
      },
      {
         "split": "train",
         "file_path": "0001988.png",
         "id": "0001988",
         "width": 1917,
         "height": 2421
      },
      {
         "split": "train",
         "file_path": "0002806.png",
         "id": "0002806",
         "width": 1882,
         "height": 3199
      },
      {
         "split": "train",
         "file_path": "0000279.png",
         "id": "0000279",
         "width": 1200,
         "height": 4164
      },
      {
         "split": "train",
         "file_path": "0001563.png",
         "id": "0001563",
         "width": 2500,
         "height": 4090
      },
      {
         "split": "train",
         "file_path": "0001462.png",
         "id": "0001462",
         "width": 2500,
         "height": 2593
      },
      {
         "split": "train",
         "file_path": "0002474.png",
         "id": "0002474",
         "width": 1523,
         "height": 2365
      },
      {
         "split": "train",
         "file_path": "0001133.png",
         "id": "0001133",
         "width": 1750,
         "height": 3074
      },
      {
         "split": "train",
         "file_path": "0001606.png",
         "id": "0001606",
         "width": 2500,
         "height": 4444
      },
      {
         "split": "train",
         "file_path": "0000553.png",
         "id": "0000553",
         "width": 1200,
         "height": 2476
      },
      {
         "split": "train",
         "file_path": "0001307.png",
         "id": "0001307",
         "width": 1276,
         "height": 3283
      },
      {
         "split": "train",
         "file_path": "0000596.png",
         "id": "0000596",
         "width": 1200,
         "height": 3190
      },
      {
         "split": "train",
         "file_path": "0002787.png",
         "id": "0002787",
         "width": 1099,
         "height": 2437
      },
      {
         "split": "train",
         "file_path": "0000802.png",
         "id": "0000802",
         "width": 730,
         "height": 2091
      },
      {
         "split": "train",
         "file_path": "0002116.png",
         "id": "0002116",
         "width": 1200,
         "height": 5251
      },
      {
         "split": "train",
         "file_path": "0002959.png",
         "id": "0002959",
         "width": 616,
         "height": 422
      },
      {
         "split": "train",
         "file_path": "0002873.png",
         "id": "0002873",
         "width": 1200,
         "height": 1136
      },
      {
         "split": "train",
         "file_path": "0000440.png",
         "id": "0000440",
         "width": 1200,
         "height": 3196
      },
      {
         "split": "train",
         "file_path": "0000508.png",
         "id": "0000508",
         "width": 1200,
         "height": 3723
      },
      {
         "split": "train",
         "file_path": "0000076.png",
         "id": "0000076",
         "width": 1200,
         "height": 4078
      },
      {
         "split": "train",
         "file_path": "0002080.png",
         "id": "0002080",
         "width": 1200,
         "height": 3600
      },
      {
         "split": "train",
         "file_path": "0000649.png",
         "id": "0000649",
         "width": 1200,
         "height": 2987
      },
      {
         "split": "train",
         "file_path": "0000522.png",
         "id": "0000522",
         "width": 1200,
         "height": 5377
      },
      {
         "split": "train",
         "file_path": "0001446.png",
         "id": "0001446",
         "width": 1258,
         "height": 2838
      },
      {
         "split": "train",
         "file_path": "0002042.png",
         "id": "0002042",
         "width": 3224,
         "height": 2096
      },
      {
         "split": "train",
         "file_path": "0001453.png",
         "id": "0001453",
         "width": 2255,
         "height": 6846
      },
      {
         "split": "train",
         "file_path": "0001904.png",
         "id": "0001904",
         "width": 1704,
         "height": 1985
      },
      {
         "split": "train",
         "file_path": "0001764.png",
         "id": "0001764",
         "width": 2500,
         "height": 4517
      },
      {
         "split": "train",
         "file_path": "0001497.png",
         "id": "0001497",
         "width": 2353,
         "height": 3218
      },
      {
         "split": "train",
         "file_path": "0001159.png",
         "id": "0001159",
         "width": 1704,
         "height": 3806
      },
      {
         "split": "train",
         "file_path": "0001609.png",
         "id": "0001609",
         "width": 1883,
         "height": 2185
      },
      {
         "split": "train",
         "file_path": "0000630.png",
         "id": "0000630",
         "width": 1200,
         "height": 2807
      },
      {
         "split": "train",
         "file_path": "0001336.png",
         "id": "0001336",
         "width": 1594,
         "height": 3517
      },
      {
         "split": "train",
         "file_path": "0002499.png",
         "id": "0002499",
         "width": 2500,
         "height": 2955
      },
      {
         "split": "train",
         "file_path": "0002543.png",
         "id": "0002543",
         "width": 997,
         "height": 1334
      },
      {
         "split": "train",
         "file_path": "0000482.png",
         "id": "0000482",
         "width": 1200,
         "height": 5169
      },
      {
         "split": "train",
         "file_path": "0001874.png",
         "id": "0001874",
         "width": 1346,
         "height": 1877
      },
      {
         "split": "train",
         "file_path": "0002394.png",
         "id": "0002394",
         "width": 2500,
         "height": 4484
      },
      {
         "split": "train",
         "file_path": "0002539.png",
         "id": "0002539",
         "width": 1073,
         "height": 1045
      },
      {
         "split": "train",
         "file_path": "0001057.png",
         "id": "0001057",
         "width": 1254,
         "height": 2416
      },
      {
         "split": "train",
         "file_path": "0000438.png",
         "id": "0000438",
         "width": 1200,
         "height": 3511
      },
      {
         "split": "train",
         "file_path": "0002463.png",
         "id": "0002463",
         "width": 855,
         "height": 737
      },
      {
         "split": "train",
         "file_path": "0001924.png",
         "id": "0001924",
         "width": 2500,
         "height": 4065
      },
      {
         "split": "train",
         "file_path": "0002732.png",
         "id": "0002732",
         "width": 1402,
         "height": 1215
      },
      {
         "split": "train",
         "file_path": "0000166.png",
         "id": "0000166",
         "width": 1200,
         "height": 4599
      },
      {
         "split": "train",
         "file_path": "0000059.png",
         "id": "0000059",
         "width": 1200,
         "height": 3350
      },
      {
         "split": "train",
         "file_path": "0000611.png",
         "id": "0000611",
         "width": 1200,
         "height": 2469
      },
      {
         "split": "train",
         "file_path": "0000530.png",
         "id": "0000530",
         "width": 1200,
         "height": 2854
      },
      {
         "split": "train",
         "file_path": "0002765.png",
         "id": "0002765",
         "width": 1667,
         "height": 1868
      },
      {
         "split": "train",
         "file_path": "0000049.png",
         "id": "0000049",
         "width": 1200,
         "height": 5131
      },
      {
         "split": "train",
         "file_path": "0002495.png",
         "id": "0002495",
         "width": 2701,
         "height": 3743
      },
      {
         "split": "train",
         "file_path": "0002428.png",
         "id": "0002428",
         "width": 1800,
         "height": 1962
      },
      {
         "split": "train",
         "file_path": "0000858.png",
         "id": "0000858",
         "width": 730,
         "height": 1446
      },
      {
         "split": "train",
         "file_path": "0000958.png",
         "id": "0000958",
         "width": 1875,
         "height": 4068
      },
      {
         "split": "train",
         "file_path": "0000048.png",
         "id": "0000048",
         "width": 1200,
         "height": 3377
      },
      {
         "split": "train",
         "file_path": "0000719.png",
         "id": "0000719",
         "width": 730,
         "height": 1672
      },
      {
         "split": "train",
         "file_path": "0001407.png",
         "id": "0001407",
         "width": 2500,
         "height": 4990
      },
      {
         "split": "train",
         "file_path": "0001242.png",
         "id": "0001242",
         "width": 1984,
         "height": 1927
      },
      {
         "split": "train",
         "file_path": "0002322.png",
         "id": "0002322",
         "width": 3000,
         "height": 6244
      },
      {
         "split": "train",
         "file_path": "0002926.png",
         "id": "0002926",
         "width": 1240,
         "height": 1303
      },
      {
         "split": "train",
         "file_path": "0000632.png",
         "id": "0000632",
         "width": 1200,
         "height": 3615
      },
      {
         "split": "train",
         "file_path": "0001729.png",
         "id": "0001729",
         "width": 1909,
         "height": 3884
      },
      {
         "split": "train",
         "file_path": "0002107.png",
         "id": "0002107",
         "width": 1200,
         "height": 3281
      },
      {
         "split": "train",
         "file_path": "0002342.png",
         "id": "0002342",
         "width": 1342,
         "height": 1792
      },
      {
         "split": "train",
         "file_path": "0001313.png",
         "id": "0001313",
         "width": 1042,
         "height": 3394
      },
      {
         "split": "train",
         "file_path": "0000025.png",
         "id": "0000025",
         "width": 1200,
         "height": 3187
      },
      {
         "split": "train",
         "file_path": "0000219.png",
         "id": "0000219",
         "width": 1200,
         "height": 2688
      },
      {
         "split": "train",
         "file_path": "0001344.png",
         "id": "0001344",
         "width": 1783,
         "height": 4647
      },
      {
         "split": "train",
         "file_path": "0000276.png",
         "id": "0000276",
         "width": 1200,
         "height": 2374
      },
      {
         "split": "train",
         "file_path": "0002136.png",
         "id": "0002136",
         "width": 1200,
         "height": 3165
      },
      {
         "split": "train",
         "file_path": "0001510.png",
         "id": "0001510",
         "width": 2000,
         "height": 5428
      },
      {
         "split": "train",
         "file_path": "0002119.png",
         "id": "0002119",
         "width": 1200,
         "height": 2476
      },
      {
         "split": "train",
         "file_path": "0000361.png",
         "id": "0000361",
         "width": 525,
         "height": 1795
      },
      {
         "split": "train",
         "file_path": "0001502.png",
         "id": "0001502",
         "width": 1193,
         "height": 2245
      },
      {
         "split": "train",
         "file_path": "0001918.png",
         "id": "0001918",
         "width": 984,
         "height": 1614
      },
      {
         "split": "train",
         "file_path": "0001807.png",
         "id": "0001807",
         "width": 1538,
         "height": 3613
      },
      {
         "split": "train",
         "file_path": "0002312.png",
         "id": "0002312",
         "width": 1688,
         "height": 3368
      },
      {
         "split": "train",
         "file_path": "0002011.png",
         "id": "0002011",
         "width": 1595,
         "height": 3571
      },
      {
         "split": "train",
         "file_path": "0002516.png",
         "id": "0002516",
         "width": 2500,
         "height": 4249
      },
      {
         "split": "train",
         "file_path": "0002863.png",
         "id": "0002863",
         "width": 1396,
         "height": 1274
      },
      {
         "split": "train",
         "file_path": "0002626.png",
         "id": "0002626",
         "width": 2500,
         "height": 4102
      },
      {
         "split": "train",
         "file_path": "0002605.png",
         "id": "0002605",
         "width": 1517,
         "height": 4176
      },
      {
         "split": "train",
         "file_path": "0000297.png",
         "id": "0000297",
         "width": 1200,
         "height": 3879
      },
      {
         "split": "train",
         "file_path": "0001151.png",
         "id": "0001151",
         "width": 1875,
         "height": 2644
      },
      {
         "split": "train",
         "file_path": "0000240.png",
         "id": "0000240",
         "width": 1200,
         "height": 4167
      },
      {
         "split": "train",
         "file_path": "0001993.png",
         "id": "0001993",
         "width": 2328,
         "height": 2171
      },
      {
         "split": "train",
         "file_path": "0000582.png",
         "id": "0000582",
         "width": 894,
         "height": 3186
      },
      {
         "split": "train",
         "file_path": "0001999.png",
         "id": "0001999",
         "width": 1264,
         "height": 1703
      },
      {
         "split": "train",
         "file_path": "0001565.png",
         "id": "0001565",
         "width": 1137,
         "height": 1900
      },
      {
         "split": "train",
         "file_path": "0001399.png",
         "id": "0001399",
         "width": 4520,
         "height": 12034
      },
      {
         "split": "train",
         "file_path": "0001628.png",
         "id": "0001628",
         "width": 2500,
         "height": 2881
      },
      {
         "split": "train",
         "file_path": "0000350.png",
         "id": "0000350",
         "width": 1200,
         "height": 2788
      },
      {
         "split": "train",
         "file_path": "0002721.png",
         "id": "0002721",
         "width": 2250,
         "height": 2278
      },
      {
         "split": "train",
         "file_path": "0002206.png",
         "id": "0002206",
         "width": 1200,
         "height": 3266
      },
      {
         "split": "train",
         "file_path": "0000349.png",
         "id": "0000349",
         "width": 1200,
         "height": 4943
      },
      {
         "split": "train",
         "file_path": "0001032.png",
         "id": "0001032",
         "width": 1625,
         "height": 3196
      },
      {
         "split": "train",
         "file_path": "0002457.png",
         "id": "0002457",
         "width": 998,
         "height": 1326
      },
      {
         "split": "train",
         "file_path": "0001011.png",
         "id": "0001011",
         "width": 2879,
         "height": 8923
      },
      {
         "split": "train",
         "file_path": "0002043.png",
         "id": "0002043",
         "width": 2676,
         "height": 5263
      },
      {
         "split": "train",
         "file_path": "0001114.png",
         "id": "0001114",
         "width": 1254,
         "height": 2779
      },
      {
         "split": "train",
         "file_path": "0000657.png",
         "id": "0000657",
         "width": 693,
         "height": 2371
      },
      {
         "split": "train",
         "file_path": "0001862.png",
         "id": "0001862",
         "width": 2500,
         "height": 3593
      },
      {
         "split": "train",
         "file_path": "0001134.png",
         "id": "0001134",
         "width": 1254,
         "height": 2503
      },
      {
         "split": "train",
         "file_path": "0002642.png",
         "id": "0002642",
         "width": 1335,
         "height": 967
      },
      {
         "split": "train",
         "file_path": "0002443.png",
         "id": "0002443",
         "width": 597,
         "height": 1334
      },
      {
         "split": "train",
         "file_path": "0000647.png",
         "id": "0000647",
         "width": 1007,
         "height": 1813
      },
      {
         "split": "train",
         "file_path": "0000979.png",
         "id": "0000979",
         "width": 1480,
         "height": 3312
      },
      {
         "split": "train",
         "file_path": "0001078.png",
         "id": "0001078",
         "width": 1625,
         "height": 4401
      },
      {
         "split": "train",
         "file_path": "0002184.png",
         "id": "0002184",
         "width": 1200,
         "height": 3317
      },
      {
         "split": "train",
         "file_path": "0001938.png",
         "id": "0001938",
         "width": 1747,
         "height": 2807
      },
      {
         "split": "train",
         "file_path": "0000538.png",
         "id": "0000538",
         "width": 1200,
         "height": 4264
      },
      {
         "split": "train",
         "file_path": "0002552.png",
         "id": "0002552",
         "width": 1342,
         "height": 2433
      },
      {
         "split": "train",
         "file_path": "0001474.png",
         "id": "0001474",
         "width": 2160,
         "height": 4631
      },
      {
         "split": "train",
         "file_path": "0002353.png",
         "id": "0002353",
         "width": 2754,
         "height": 5719
      },
      {
         "split": "train",
         "file_path": "0002698.png",
         "id": "0002698",
         "width": 2953,
         "height": 1906
      },
      {
         "split": "train",
         "file_path": "0001075.png",
         "id": "0001075",
         "width": 1283,
         "height": 2527
      },
      {
         "split": "train",
         "file_path": "0000801.png",
         "id": "0000801",
         "width": 730,
         "height": 2282
      },
      {
         "split": "train",
         "file_path": "0000786.png",
         "id": "0000786",
         "width": 730,
         "height": 1558
      },
      {
         "split": "train",
         "file_path": "0002670.png",
         "id": "0002670",
         "width": 1342,
         "height": 1339
      },
      {
         "split": "train",
         "file_path": "0002281.png",
         "id": "0002281",
         "width": 1625,
         "height": 3033
      },
      {
         "split": "train",
         "file_path": "0000788.png",
         "id": "0000788",
         "width": 730,
         "height": 972
      },
      {
         "split": "train",
         "file_path": "0001423.png",
         "id": "0001423",
         "width": 2500,
         "height": 5908
      },
      {
         "split": "train",
         "file_path": "0002040.png",
         "id": "0002040",
         "width": 3519,
         "height": 5678
      },
      {
         "split": "train",
         "file_path": "0001957.png",
         "id": "0001957",
         "width": 2710,
         "height": 3104
      },
      {
         "split": "train",
         "file_path": "0000714.png",
         "id": "0000714",
         "width": 730,
         "height": 1622
      },
      {
         "split": "train",
         "file_path": "0000803.png",
         "id": "0000803",
         "width": 730,
         "height": 912
      },
      {
         "split": "train",
         "file_path": "0001273.png",
         "id": "0001273",
         "width": 1654,
         "height": 2096
      },
      {
         "split": "train",
         "file_path": "0002284.png",
         "id": "0002284",
         "width": 1571,
         "height": 3793
      },
      {
         "split": "train",
         "file_path": "0000123.png",
         "id": "0000123",
         "width": 1200,
         "height": 4399
      },
      {
         "split": "train",
         "file_path": "0001244.png",
         "id": "0001244",
         "width": 3468,
         "height": 6921
      },
      {
         "split": "train",
         "file_path": "0002073.png",
         "id": "0002073",
         "width": 1200,
         "height": 3966
      },
      {
         "split": "train",
         "file_path": "0001392.png",
         "id": "0001392",
         "width": 1085,
         "height": 2265
      },
      {
         "split": "train",
         "file_path": "0000618.png",
         "id": "0000618",
         "width": 1200,
         "height": 1606
      },
      {
         "split": "train",
         "file_path": "0000406.png",
         "id": "0000406",
         "width": 1200,
         "height": 9846
      },
      {
         "split": "train",
         "file_path": "0001124.png",
         "id": "0001124",
         "width": 1750,
         "height": 3696
      },
      {
         "split": "train",
         "file_path": "0002836.png",
         "id": "0002836",
         "width": 1664,
         "height": 2089
      },
      {
         "split": "train",
         "file_path": "0001801.png",
         "id": "0001801",
         "width": 2292,
         "height": 4711
      },
      {
         "split": "train",
         "file_path": "0001550.png",
         "id": "0001550",
         "width": 1783,
         "height": 3102
      },
      {
         "split": "train",
         "file_path": "0000497.png",
         "id": "0000497",
         "width": 1200,
         "height": 2980
      },
      {
         "split": "train",
         "file_path": "0001286.png",
         "id": "0001286",
         "width": 2100,
         "height": 4217
      },
      {
         "split": "train",
         "file_path": "0000325.png",
         "id": "0000325",
         "width": 1200,
         "height": 3170
      },
      {
         "split": "train",
         "file_path": "0000342.png",
         "id": "0000342",
         "width": 1200,
         "height": 3156
      },
      {
         "split": "train",
         "file_path": "0001788.png",
         "id": "0001788",
         "width": 2292,
         "height": 4567
      },
      {
         "split": "train",
         "file_path": "0002244.png",
         "id": "0002244",
         "width": 730,
         "height": 1653
      },
      {
         "split": "train",
         "file_path": "0000782.png",
         "id": "0000782",
         "width": 730,
         "height": 749
      },
      {
         "split": "train",
         "file_path": "0002345.png",
         "id": "0002345",
         "width": 1326,
         "height": 1355
      },
      {
         "split": "train",
         "file_path": "0000299.png",
         "id": "0000299",
         "width": 1200,
         "height": 3919
      },
      {
         "split": "train",
         "file_path": "0001442.png",
         "id": "0001442",
         "width": 1085,
         "height": 3557
      },
      {
         "split": "train",
         "file_path": "0000303.png",
         "id": "0000303",
         "width": 838,
         "height": 2525
      },
      {
         "split": "train",
         "file_path": "0001637.png",
         "id": "0001637",
         "width": 1027,
         "height": 3205
      },
      {
         "split": "train",
         "file_path": "0001613.png",
         "id": "0001613",
         "width": 2688,
         "height": 3314
      },
      {
         "split": "train",
         "file_path": "0000664.png",
         "id": "0000664",
         "width": 1200,
         "height": 3189
      },
      {
         "split": "train",
         "file_path": "0001644.png",
         "id": "0001644",
         "width": 2353,
         "height": 3163
      },
      {
         "split": "train",
         "file_path": "0000220.png",
         "id": "0000220",
         "width": 1200,
         "height": 5114
      },
      {
         "split": "train",
         "file_path": "0001584.png",
         "id": "0001584",
         "width": 4374,
         "height": 7009
      },
      {
         "split": "train",
         "file_path": "0002706.png",
         "id": "0002706",
         "width": 2518,
         "height": 4365
      },
      {
         "split": "train",
         "file_path": "0001398.png",
         "id": "0001398",
         "width": 3956,
         "height": 5306
      },
      {
         "split": "train",
         "file_path": "0000449.png",
         "id": "0000449",
         "width": 1200,
         "height": 7288
      },
      {
         "split": "train",
         "file_path": "0001952.png",
         "id": "0001952",
         "width": 2710,
         "height": 2836
      },
      {
         "split": "train",
         "file_path": "0001425.png",
         "id": "0001425",
         "width": 2500,
         "height": 8754
      },
      {
         "split": "train",
         "file_path": "0001558.png",
         "id": "0001558",
         "width": 1428,
         "height": 2330
      },
      {
         "split": "train",
         "file_path": "0000084.png",
         "id": "0000084",
         "width": 1200,
         "height": 5224
      },
      {
         "split": "train",
         "file_path": "0002084.png",
         "id": "0002084",
         "width": 1200,
         "height": 2612
      },
      {
         "split": "train",
         "file_path": "0000776.png",
         "id": "0000776",
         "width": 730,
         "height": 2299
      },
      {
         "split": "train",
         "file_path": "0000941.png",
         "id": "0000941",
         "width": 2013,
         "height": 3173
      },
      {
         "split": "train",
         "file_path": "0000961.png",
         "id": "0000961",
         "width": 1875,
         "height": 3375
      },
      {
         "split": "train",
         "file_path": "0000841.png",
         "id": "0000841",
         "width": 540,
         "height": 2332
      },
      {
         "split": "train",
         "file_path": "0000621.png",
         "id": "0000621",
         "width": 1200,
         "height": 3742
      },
      {
         "split": "train",
         "file_path": "0002356.png",
         "id": "0002356",
         "width": 1073,
         "height": 1354
      },
      {
         "split": "train",
         "file_path": "0001298.png",
         "id": "0001298",
         "width": 1046,
         "height": 2288
      },
      {
         "split": "train",
         "file_path": "0000266.png",
         "id": "0000266",
         "width": 1200,
         "height": 3995
      },
      {
         "split": "train",
         "file_path": "0001880.png",
         "id": "0001880",
         "width": 2085,
         "height": 2200
      },
      {
         "split": "train",
         "file_path": "0001117.png",
         "id": "0001117",
         "width": 1254,
         "height": 2261
      },
      {
         "split": "train",
         "file_path": "0000290.png",
         "id": "0000290",
         "width": 1200,
         "height": 5330
      },
      {
         "split": "train",
         "file_path": "0002465.png",
         "id": "0002465",
         "width": 805,
         "height": 997
      },
      {
         "split": "train",
         "file_path": "0001741.png",
         "id": "0001741",
         "width": 1557,
         "height": 2511
      },
      {
         "split": "train",
         "file_path": "0002215.png",
         "id": "0002215",
         "width": 1200,
         "height": 4452
      },
      {
         "split": "train",
         "file_path": "0000416.png",
         "id": "0000416",
         "width": 1200,
         "height": 4894
      },
      {
         "split": "train",
         "file_path": "0000472.png",
         "id": "0000472",
         "width": 1200,
         "height": 10030
      },
      {
         "split": "train",
         "file_path": "0000604.png",
         "id": "0000604",
         "width": 1200,
         "height": 3882
      },
      {
         "split": "train",
         "file_path": "0002179.png",
         "id": "0002179",
         "width": 1200,
         "height": 3223
      },
      {
         "split": "train",
         "file_path": "0001778.png",
         "id": "0001778",
         "width": 1557,
         "height": 2719
      },
      {
         "split": "train",
         "file_path": "0000916.png",
         "id": "0000916",
         "width": 2071,
         "height": 3975
      },
      {
         "split": "train",
         "file_path": "0002023.png",
         "id": "0002023",
         "width": 1478,
         "height": 2060
      },
      {
         "split": "train",
         "file_path": "0001591.png",
         "id": "0001591",
         "width": 3656,
         "height": 8497
      },
      {
         "split": "train",
         "file_path": "0002903.png",
         "id": "0002903",
         "width": 2893,
         "height": 1972
      },
      {
         "split": "train",
         "file_path": "0002878.png",
         "id": "0002878",
         "width": 1284,
         "height": 1986
      },
      {
         "split": "train",
         "file_path": "0000654.png",
         "id": "0000654",
         "width": 1200,
         "height": 3124
      },
      {
         "split": "train",
         "file_path": "0002078.png",
         "id": "0002078",
         "width": 1200,
         "height": 3743
      },
      {
         "split": "train",
         "file_path": "0002662.png",
         "id": "0002662",
         "width": 1258,
         "height": 2195
      },
      {
         "split": "train",
         "file_path": "0001251.png",
         "id": "0001251",
         "width": 1950,
         "height": 2674
      },
      {
         "split": "train",
         "file_path": "0000821.png",
         "id": "0000821",
         "width": 730,
         "height": 1642
      },
      {
         "split": "train",
         "file_path": "0000343.png",
         "id": "0000343",
         "width": 1200,
         "height": 5383
      },
      {
         "split": "train",
         "file_path": "0002728.png",
         "id": "0002728",
         "width": 1342,
         "height": 1466
      },
      {
         "split": "train",
         "file_path": "0002965.png",
         "id": "0002965",
         "width": 2133,
         "height": 4217
      },
      {
         "split": "train",
         "file_path": "0001351.png",
         "id": "0001351",
         "width": 1783,
         "height": 3976
      },
      {
         "split": "train",
         "file_path": "0002445.png",
         "id": "0002445",
         "width": 1073,
         "height": 1276
      },
      {
         "split": "train",
         "file_path": "0000278.png",
         "id": "0000278",
         "width": 1200,
         "height": 2437
      },
      {
         "split": "train",
         "file_path": "0001000.png",
         "id": "0001000",
         "width": 720,
         "height": 1675
      },
      {
         "split": "train",
         "file_path": "0002314.png",
         "id": "0002314",
         "width": 1240,
         "height": 1451
      },
      {
         "split": "train",
         "file_path": "0001575.png",
         "id": "0001575",
         "width": 2501,
         "height": 3328
      },
      {
         "split": "train",
         "file_path": "0001978.png",
         "id": "0001978",
         "width": 1054,
         "height": 1431
      },
      {
         "split": "train",
         "file_path": "0001825.png",
         "id": "0001825",
         "width": 2500,
         "height": 4623
      },
      {
         "split": "train",
         "file_path": "0000018.png",
         "id": "0000018",
         "width": 1200,
         "height": 2987
      },
      {
         "split": "train",
         "file_path": "0000613.png",
         "id": "0000613",
         "width": 1200,
         "height": 2413
      },
      {
         "split": "train",
         "file_path": "0000643.png",
         "id": "0000643",
         "width": 1200,
         "height": 3427
      },
      {
         "split": "train",
         "file_path": "0001728.png",
         "id": "0001728",
         "width": 2500,
         "height": 4525
      },
      {
         "split": "train",
         "file_path": "0001230.png",
         "id": "0001230",
         "width": 1613,
         "height": 1842
      },
      {
         "split": "train",
         "file_path": "0002162.png",
         "id": "0002162",
         "width": 1200,
         "height": 4669
      },
      {
         "split": "train",
         "file_path": "0001697.png",
         "id": "0001697",
         "width": 1448,
         "height": 2458
      },
      {
         "split": "train",
         "file_path": "0001576.png",
         "id": "0001576",
         "width": 2500,
         "height": 3065
      },
      {
         "split": "train",
         "file_path": "0001173.png",
         "id": "0001173",
         "width": 2015,
         "height": 2372
      },
      {
         "split": "train",
         "file_path": "0002813.png",
         "id": "0002813",
         "width": 1331,
         "height": 1163
      },
      {
         "split": "train",
         "file_path": "0001146.png",
         "id": "0001146",
         "width": 3040,
         "height": 1564
      },
      {
         "split": "train",
         "file_path": "0002542.png",
         "id": "0002542",
         "width": 1376,
         "height": 2287
      },
      {
         "split": "train",
         "file_path": "0000756.png",
         "id": "0000756",
         "width": 730,
         "height": 1584
      },
      {
         "split": "train",
         "file_path": "0001494.png",
         "id": "0001494",
         "width": 2500,
         "height": 3191
      },
      {
         "split": "train",
         "file_path": "0002366.png",
         "id": "0002366",
         "width": 3981,
         "height": 4238
      },
      {
         "split": "train",
         "file_path": "0001580.png",
         "id": "0001580",
         "width": 2500,
         "height": 4884
      },
      {
         "split": "train",
         "file_path": "0001921.png",
         "id": "0001921",
         "width": 2500,
         "height": 4913
      },
      {
         "split": "train",
         "file_path": "0002517.png",
         "id": "0002517",
         "width": 3703,
         "height": 3341
      },
      {
         "split": "train",
         "file_path": "0002276.png",
         "id": "0002276",
         "width": 1739,
         "height": 3001
      },
      {
         "split": "train",
         "file_path": "0000360.png",
         "id": "0000360",
         "width": 526,
         "height": 1758
      },
      {
         "split": "train",
         "file_path": "0002172.png",
         "id": "0002172",
         "width": 1200,
         "height": 2801
      },
      {
         "split": "train",
         "file_path": "0001213.png",
         "id": "0001213",
         "width": 1200,
         "height": 2010
      },
      {
         "split": "train",
         "file_path": "0001752.png",
         "id": "0001752",
         "width": 2500,
         "height": 3795
      },
      {
         "split": "train",
         "file_path": "0000344.png",
         "id": "0000344",
         "width": 1200,
         "height": 3502
      },
      {
         "split": "train",
         "file_path": "0000986.png",
         "id": "0000986",
         "width": 1688,
         "height": 3858
      },
      {
         "split": "train",
         "file_path": "0001225.png",
         "id": "0001225",
         "width": 1275,
         "height": 3405
      },
      {
         "split": "train",
         "file_path": "0002334.png",
         "id": "0002334",
         "width": 1344,
         "height": 1490
      },
      {
         "split": "train",
         "file_path": "0002413.png",
         "id": "0002413",
         "width": 1007,
         "height": 1373
      },
      {
         "split": "train",
         "file_path": "0002937.png",
         "id": "0002937",
         "width": 2500,
         "height": 7063
      },
      {
         "split": "train",
         "file_path": "0001053.png",
         "id": "0001053",
         "width": 2725,
         "height": 6239
      },
      {
         "split": "train",
         "file_path": "0002737.png",
         "id": "0002737",
         "width": 1597,
         "height": 1963
      },
      {
         "split": "train",
         "file_path": "0000085.png",
         "id": "0000085",
         "width": 1200,
         "height": 3838
      },
      {
         "split": "train",
         "file_path": "0002033.png",
         "id": "0002033",
         "width": 2500,
         "height": 7063
      },
      {
         "split": "train",
         "file_path": "0000668.png",
         "id": "0000668",
         "width": 1200,
         "height": 1815
      },
      {
         "split": "train",
         "file_path": "0001014.png",
         "id": "0001014",
         "width": 1760,
         "height": 3839
      },
      {
         "split": "train",
         "file_path": "0000128.png",
         "id": "0000128",
         "width": 1200,
         "height": 8051
      },
      {
         "split": "train",
         "file_path": "0002461.png",
         "id": "0002461",
         "width": 3804,
         "height": 6863
      },
      {
         "split": "train",
         "file_path": "0001113.png",
         "id": "0001113",
         "width": 1254,
         "height": 2552
      },
      {
         "split": "train",
         "file_path": "0000891.png",
         "id": "0000891",
         "width": 1569,
         "height": 2562
      },
      {
         "split": "train",
         "file_path": "0001769.png",
         "id": "0001769",
         "width": 1102,
         "height": 2387
      },
      {
         "split": "train",
         "file_path": "0000307.png",
         "id": "0000307",
         "width": 1200,
         "height": 2039
      },
      {
         "split": "train",
         "file_path": "0000383.png",
         "id": "0000383",
         "width": 1200,
         "height": 4781
      },
      {
         "split": "train",
         "file_path": "0001783.png",
         "id": "0001783",
         "width": 1313,
         "height": 3345
      },
      {
         "split": "train",
         "file_path": "0002970.png",
         "id": "0002970",
         "width": 1423,
         "height": 1402
      },
      {
         "split": "train",
         "file_path": "0000426.png",
         "id": "0000426",
         "width": 1200,
         "height": 3202
      },
      {
         "split": "train",
         "file_path": "0000494.png",
         "id": "0000494",
         "width": 1200,
         "height": 3058
      },
      {
         "split": "train",
         "file_path": "0002409.png",
         "id": "0002409",
         "width": 1349,
         "height": 2346
      },
      {
         "split": "train",
         "file_path": "0002175.png",
         "id": "0002175",
         "width": 1200,
         "height": 4244
      },
      {
         "split": "train",
         "file_path": "0001216.png",
         "id": "0001216",
         "width": 2250,
         "height": 4071
      },
      {
         "split": "train",
         "file_path": "0001259.png",
         "id": "0001259",
         "width": 2250,
         "height": 3200
      },
      {
         "split": "train",
         "file_path": "0000275.png",
         "id": "0000275",
         "width": 1200,
         "height": 4520
      },
      {
         "split": "train",
         "file_path": "0000489.png",
         "id": "0000489",
[...]
